#version: 0.2 - Trained by `huggingface/tokenizers`
Ġ k
n g
Ġk a
b a
Ġ ba
h a
Ġk i
l a
Ġ s
Ġ j
Ġ u
o ng
i a
Ġ p
y n
Ġ la
e i
Ġ d
Ġ ha
Ġ ia
Ġ n
i ng
Ġj ing
Ġ t
Ġba d
a i
Ġ b
i e
Ġ m
o h
Ġ l
Ġba n
a r
h i
Ġj ong
Ġ i
u h
Ġ r
o r
o n
Ġn a
t a
Ġp yn
a n
n e
Ã ¯
a t
Ġka ba
u m
Ġ ng
Ġk h
Ġs h
a ng
Ġ Ã¯
Ġs ha
Ì Ī
k a
ĠÃ¯ a
Ġd a
ie w
e n
i t
e h
y r
Ġki ba
y l
a h
Ġd on
t h
u n
Ġn ong
Ġka t
e m
Ġ h
Ġl ong
Ġ w
y m
a m
e r
u r
Ġd ei
Ġk um
yn r
Ġ ong
e ng
u t
i s
k h
yn ta
a w
ei t
s ha
Ġs hi
w ei
e w
Ġs ng
Ġka ne
ba h
Ġng a
Ġr uh
Ġk yn
ia ng
Ġ S
a d
r i
Ġ K
â Ģ
t i
y ng
Ġka m
Ġp hi
Ġk ha
yl la
o m
l i
d uh
i n
i d
Ġ ai
s h
Ġ c
o t
Ġkat ei
Ġ M
e p
Ġka n
Ġt h
Ġb r
a l
u l
u k
Ġ B
e s
a p
Ġbr iew
ynr ei
Ġba r
Ġ U
i h
Ġp at
Ġu ba
e t
Ġsng i
Ġba h
ie n
Ġi oh
e l
Ġt r
Ġw an
ai d
l ei
Ġbar oh
l ong
or k
n ong
Ġ 1
č Ċ
Ġn oh
Ġjing ia
Ġm yn
Ġ 2
ork ar
la ng
Ġki n
Ġla h
Ġp yr
Ġs orkar
Ġk yr
Ġng i
Ġ hi
m ar
Ġha p
a s
Ġh ynrei
ie m
Ġj a
o p
Ġl eh
d a
Ġb ynta
Ġu n
o i
Ġjing k
Ġm ynta
r en
o k
Ġl eit
k i
Ġsh nong
Ġna mar
Ġ P
r a
Ġ H
Ġm e
Ġp ha
Ġj ylla
ka m
Ġ J
Ġ T
Ġja ka
t ri
Ġp aid
Ġ N
Ġp or
u d
Ġ D
la m
b or
l or
s i
Ġjing p
Ġ (
n a
Ġr i
Ġ C
Ġs eng
Ġt ha
Ġki t
Ġ ym
ai t
en t
Ã ±
Ġ A
Ġng ut
Ġsha h
i p
m a
i l
Ġs a
yl li
Ġt ang
Ġkh un
th uh
Ġpaid bah
k ha
Ġ âĢ
Ġka wei
w a
ai n
ie ng
Ġ ar
Ġjing s
Ġd ang
Ġl yng
Ġj u
ang bah
Ġ L
Ġ R
u p
Ġha lor
e c
p h
d on
Ġu m
s t
sha h
Ġtr ai
Ġka ta
ie h
yn n
ne m
Ġha duh
Ġn e
y iem
t r
Ġsh uh
u ng
Â ł
Ġsng ew
Ġb lei
Ġki wei
ia h
Ġshi m
d ien
Ġs nem
n o
Ġha ba
r es
Ġ a
o l
Ġp h
Ġr angbah
âĢ Ŀ
i k
Ġk ren
Ġm ar
yng k
Ġp ul
Ġsh ong
Ġb ha
o s
i m
l eh
th ei
Ġp ar
Ġkh u
yl l
K a
Ġ I
c t
m at
Ì ĥ
Ġs am
ha ng
Ġb or
Ġ g
Ġpyn long
Ġkha m
Ġ2 0
ia r
t eng
Ġkh l
Ġhap oh
Ġki ne
Ġ ei
Ġm ih
Ġs yiem
k ai
yn d
Ġha dien
Ġkum ba
Ġb un
ba r
Ġm a
Ġla da
Ġb ym
Ġjing m
Ġm an
w ai
Ġki m
Ġsh u
Ġt ylli
k um
b ha
p a
ha r
ĠâĢ ľ
u s
Ġia thuh
t o
Ġp a
Ġjingp yn
Ġu wei
Ġl iang
r ai
Ġla d
i r
Ġt ip
Ġb uh
tr ei
ng ew
Ġb iang
Ġkan o
Ġm aw
Ġsh ym
Ġjing j
m en
ar ik
Ġpyn s
d eng
l s
i on
Ġpyr shah
8 2
is tri
Ġka ei
Ġ yn
Ġkit ei
Ġ 3
y a
d oh
istri ct
e k
Ġna ng
Ġkhu bor
Ġkyn t
Ġj ait
Ġs ah
Ġpyn k
Ġw at
m ih
p hang
& #
Ġpul it
Ġkum ta
i c
Ġjing b
Ġla ng
Ġjing th
n d
m ie
e d
Ġb n
Ġpyn p
j uh
yn ti
Ġtr ei
Ġt n
la d
n oh
Ġmyn tri
Ġs yn
g ha
H a
ti p
Ġsam la
h un
u id
sha r
Ġnong ia
Ġ E
w ah
ba n
la ya
Ġna duh
ĠB lei
d ei
n ang
ie d
s ra
Ġkhl em
sra el
ynr iew
gha laya
Ġpha h
Ġt arik
Ġng an
r ah
Ġpyn b
Ġi m
Ġd or
ba d
ia m
ĠT rai
is u
Ġd ep
Ġkyr teng
l long
Ġ G
Ġ o
ng i
Ġ20 1
Ġha ng
ĠK a
K i
ia t
ar y
t ei
Ġki ei
Ġkh r
ĠB ah
82 2
Ġs k
uk um
Ġ f
Ġkat ba
Ġs ur
t ha
Ġk s
o c
Ġjing i
Ġ e
is a
Ġpyr thei
Ġp oi
Ġl um
ti on
Ġkha si
Ġk wah
Ġkyn hun
Ġr ai
Ġjingia lang
Ġ eh
Ġl ynti
Ġi ing
Ġnongia lam
d ang
Ġhi l
ng a
s hi
n am
is t
Ġh ukum
id ent
at h
Ġlyng ba
d c
l e
0 0
Ġ el
Ġtha in
ĠÃ¯ oh
Ġpyn d
ym m
Ġs aw
Ġmyn s
Ġba m
ei n
Ġia id
Ġia k
Ġd istrict
res ident
Ġc o
Ġhil ls
t e
Ġt o
yngk at
Ġr iew
Ġp eit
Ġka li
Ġkit o
Ġla ne
r et
Ġbn ai
Ġkyn th
Ġ 4
as s
la i
ĠN ong
Ġj ur
Ġkh ot
om m
Ġk ong
Ġtn ad
Ġ W
m u
Ġpyn kh
Ġp isa
Ġpyn i
Ġpyn ia
a k
kh ot
es t
c h
Ġr yngkat
Ġjingm ut
as t
ĠK ha
âĢ Ļ
i v
Ġkh mat
Ġpynp aw
la r
Ġ 5
ec ret
Ġjing d
w an
t ien
ph er
an e
c e
Ġsha phang
Ġ v
Ġkh ynn
Ġkh ynd
a b
Ġo f
ur om
Ġdon kam
don kam
sh on
res s
Ġkh nang
ba b
Ġun o
Ġs dang
Ġnong bah
Ġkynth up
Ġkhynn ah
Ġla it
Ġk l
t om
Ġt yng
b ynriew
j ar
Ġt am
Ġwan rah
Ġlyng doh
Ġhap deng
ĠKha si
Ġnong sh
Ġj ia
Ġk ot
kha t
ong ress
o d
p oh
Ġju bab
Ġba t
s p
D C
sha i
nd ia
d iang
ecret ary
Ġk pa
Ġsur ok
Ġtha w
r ad
at ion
Ġai n
b er
Ġda w
Ġpha i
uk om
Ġi srael
t ia
s a
hi kai
Ġioh i
n iew
ia w
ri m
Ġsk ul
ath uh
t y
Ġr ukom
Ġd oh
Ġk o
Ġjingj ia
Ġshi p
an d
b un
Ġkyn thei
Ġl em
b r
Ġdor bar
c il
Ġba pher
âĢ ľ
Ġng in
Ġla i
ymm ai
Ġjing tip
Ġme ghalaya
sha n
Ġd ieng
Ġjingia k
ek shon
Ġmyns iem
yn t
Ġpar a
Ġsyn shar
hi s
Ġd khot
un cil
th oh
Ġkum no
la t
ĠM aw
Ġj isu
Ġpyn j
kh mat
Ġla p
Ġki ta
u b
Ġs oh
ne ng
N g
Ġkyr p
Ġp r
Ġm et
Ġs ang
i ong
yngk ong
s s
Ġk ur
Ġu la
m aw
Ġpul e
ai Ã±
Ġth oh
m an
Ġei ei
Ġb eit
Ġ op
ynr ang
Ġk tien
Ġjing im
Ġel ekshon
Ġkat ne
Ġh ok
Ġ 6
ĠK h
s an
Ġd ur
ĠK i
Ġjing t
Ġphi n
Ġs an
Ġs t
is har
ain tia
Ġu ta
Ġr ah
Ġjait bynriew
Ġd u
Ġs at
ha ba
Ġ ass
ylla it
ha i
Ġsh ynrang
st it
ta m
Ġk ylla
Ġh ynn
Ġjings ngew
r em
Ġjing leh
Ġjing kh
hi h
Ġop his
Ġshi llong
um ar
ĠS hi
Ġk ynr
Ġr ung
k it
Ġp resident
k ri
Ġhi ma
p l
Ġ1 9
Ġjing eh
Ġt e
Ġk ti
Ġm ad
Ġlad e
ar o
ĠS h
o b
Ġsh em
ĠH a
j or
r e
r ap
Ġda wa
k at
s ngew
ne r
Ġp diang
h ynrei
Ġj an
Ġn yngkong
Ġship ai
ta d
Ġia p
Ġp yllait
j an
Ġb urom
ĠM e
Ġ ap
on stit
Ġ 7
Ġk u
Ġpyn mih
ĠÃ¯ ing
kh u
it ar
Ġt ei
ta h
) ,
Ġk ylli
Ġjing shah
Ġkat to
Ġd uk
lad e
Ġkat kum
l eit
Ġd r
Ġkum juh
ta n
j e
Ġs p
Ġp op
k or
Ġh eh
âĢĿ ,
Ġsh na
Ġk em
Ġk yll
Ġc omm
Ġw ah
Ġsat ia
y pa
Ġkha ng
Ġjings hi
g h
kh un
Ġjingk yr
ph ew
Ġb ud
ha m
822 1
Ġk ut
Ġshi sha
Ġl ut
Ġpyr khat
Ġr it
Ġpyn donkam
Ġ ing
l em
822 0
Ġu tei
Ġj ied
Ġ F
Ġiak ren
yn duh
ba m
Ġhang ta
h oi
Ġkham tam
Ġ ,
Ġjing long
r aw
Ġm at
p yn
Ġm la
t hi
Ġjing Ã¯
Ġkhl ieh
Ġpa lat
Ġk d
Ġth ymmai
s yn
g e
un a
si on
Ġsha kri
Ġ1 0
Ġjingth mu
Ġnong trei
Ġtyng ka
ia n
Ġp l
Ġd uh
Ġnang ta
Ġba k
Ġs ecretary
Ġpar ty
Ġd ew
la h
Ġshu wa
or d
Ġka juh
d ong
Ġpynd ep
Ġk tah
la w
Ġ 8
m ent
Ġshi bun
. .
Ġnong thoh
ĠH il
. âĢľ
Ġj op
t or
Ġi n
al em
t ong
Ġi ndia
Ġpyns hi
j a
er us
erus alem
os p
Ġpyn trei
Ġpynb na
ĠShi llong
Ġk mie
Ġp an
o it
Ġjingp ang
Ġsngew bha
ng uh
u th
Ġia dei
Ġjing sh
p p
L A
Ġp aw
Ġm as
Ġs iew
2 0
Ġw ad
Ġjing ai
Ġh iar
Ġu ne
Ġ am
d p
Ġj ng
ur a
Ġpynia id
Ġkat ta
Ġia leh
Ġ 9
Ha ba
Ġkhr aw
ĠI srael
r am
hi m
ng eit
Ġkhynd ew
ĠMe ghalaya
H A
ta l
Ġm dc
sh u
ĠHil ls
Ġsngew thuh
Ġh yn
ĠC o
Ġm ut
Ġco uncil
la p
Ġd ing
Ġng am
Ġd ie
Ġkha r
Ġjing don
l ieh
Ġn iam
Ġnongsh ong
is sion
ad a
s ien
o in
Ġnong r
Ġkyr tong
Ġ and
it te
Ġnong hikai
Ġc ongress
ei Ã±
ing uh
Ġkin o
itte e
s e
yn s
Ġ iew
em pl
uk ul
Ġjingth oh
ĠJ isu
mie t
ĠD istrict
b i
Ġd e
la n
kh em
Ġmad an
Ġs umar
Ġe ast
Ġkynt u
Ġjingk ren
il l
sha ng
Ġm ie
Ġla m
ha n
Ġth ung
ĠN g
Ġs niew
Ġkyn noh
Ġpyn ban
Ġkh mih
Ġba je
Ġpyn Ã¯
Ġha jar
ĠA ss
kh uid
Ġman o
r ang
ia p
Ġsha i
Ġ1 2
Ġ čĊ
s ih
Ġc h
Ġr e
Ġia ka
Ġia lam
Ġ ieh
Ġtrei kam
er s
oh i
Ġkd ew
kha r
Ġj aintia
on e
Ġ &#
ĠS yiem
Ġth ep
Ġ ieng
is h
Ġj am
Ġw est
c y
Ġmas i
w at
D P
ng ut
Ġtha ng
os es
Ġn ym
ĠM LA
ĠL yng
oh nguh
Ġhang ne
Ġjingb ym
K um
Ġku lar
Ġjingshi sha
Ġsang ma
n iang
p at
n i
Ġkyn don
ĠR i
ym men
ĠR angbah
ta ng
Ġkyn duh
Ġjing r
a lam
HA DC
Ġb neng
l um
Ġb e
ĠâĢ ĺ
is tan
Ġsh wa
i tal
r eh
ud ah
o li
o uth
Ġl ei
Ġman e
n iah
Ġp deng
om p
s oh
Ġ em
ar a
Ġpl ie
Ġ1 1
Ġass am
ng an
e ner
tha h
Ġg aro
ar oh
Ġdew iong
Ġba i
Ġnong k
l ur
osp ital
w oh
Ġhynn in
syn shar
Ġduk an
Ġ Ñ
Ġkyrp ad
ĠM DC
Ġt ymmen
Ġpynshi tom
j ing
la it
Ġpynj ot
Ġs u
Ġw eng
Ġs ynr
Ġc on
Ġsha bar
Ġkha dc
t er
k mie
Ġmie t
Ġkyr woh
r an
ĠC ongress
j ur
ar d
al lam
oc ia
Ġ1 5
Ġb ishar
Ġjing wan
Ġpyn r
aw a
iv e
f ic
Ġpyr shang
j ong
Ġs uk
ĠC omm
ĠD r
i i
Ġu jor
Ġpyn sh
d or
Ġb eh
Ġ ad
Ġba lang
Ġpyn tip
sp ah
k na
Ã± iew
it y
Ġ *
Ġkynt ait
t ieng
ener al
oh kit
Ġ O
ĠP resident
r o
n ud
Ġth ma
Ġka la
H ynrei
Ġkyrp ang
j ip
jip t
Ġw allam
en si
kum ta
Ġb u
K at
ĠLyng doh
ĠÃ¯a p
1 9
Ġnong rim
Ġt iar
ĠM ar
Ġna lor
Ġkat no
ĠB a
ĠH i
Ġr a
b u
en d
Ġkha t
r ong
Ġth ied
l o
i ne
Ġk ohnguh
Ġt ur
ĠÃ¯oh i
Ng a
Ġ Ġ
l ypa
Ġs ien
l iang
Ġm on
Ġt nga
Ġkyll eng
k ane
Ġp ud
j p
w ensi
Ġpyntrei kam
ba i
Ġki ew
Ġp ang
Ġia rap
Ġjingp yr
Ġbak la
Ġi eit
Ġph et
Ġhi kai
Ġth mu
82 1
Ġda k
Ġkh yr
Ġsp ah
Ġm in
Ġ V
Ġda p
Ġjing bam
b id
Ġng eit
ĠL a
) .
Ġkhynd iat
bha lang
br ot
t arik
Ã¯ ah
ĠI ndia
Ġjong ki
Ġs ei
l ut
Ġj o
Ġai ti
ĠU m
j at
ar ap
ynta ng
kh ia
Ġl y
Ġs ch
Ġsh en
Ġkh law
Ġshi teng
la in
ot e
Ġ1 8
Ġbn iah
ĠpynÃ¯ ap
Ġpynkh reh
ha p
ĠS ang
onstit wensi
o st
Ġ1 4
Ġha to
Ġjing a
ang ta
ep tieng
Ġ1 3
Ġkl ur
Ġla k
Ġjing hikai
Ġj erusalem
Ġna ba
Ġjinga inguh
Ġs ain
Ġba lei
yn maw
Ġia i
Ġngi m
Ġs ta
Ġtn at
v id
Ġsh uk
ĠM yn
Ġnongsh un
Ġk ol
Ġsha poh
ĠKh r
Ġieh noh
Ġkyr shan
ha ir
u i
Ġiak ynduh
ng ain
Ġi wei
Ġb jp
Ġia khun
Ġpyns ngew
ĠK HADC
Ġkam ai
Ġphi m
Ġv ote
ur t
c le
Ġpynb eit
Ġha jan
khu bor
Ġm rad
ĠSang ma
ne h
ynr ap
st ep
p hi
Ġsaw dong
oc k
Ġl ym
en cy
Ġda bid
Ġba rim
a g
Ġh ospital
Ġs la
Ġb ynrap
yr kh
Ġka r
al ok
ĠMyn tri
ie f
yr ng
Ġnong b
Ġjing trei
ĠCo uncil
ĠK har
la da
Ġnong synshar
Ġ al
Ġd ih
Ġpynia p
Ġu dp
Ġt ai
Ġjingiak ren
Ġt empl
L a
Ġpar alok
o us
ĠS ecretary
Ġshi thi
Ġk onstitwensi
Ġr ep
Ġb teng
ec tor
Ġs em
d ing
Ġjing ma
leh kai
ul e
i Ã±
Ġkyn maw
ut y
o ol
Ġmih ngi
j ah
Ġjong ka
hair man
nang ta
shu wa
ynt oi
o w
Ġkl oi
Ġr un
Ġshim et
ep h
or t
yll iem
. âĢĿ
Ġmyn step
Ġ ang
am p
Ġi thuh
Ġks u
Ġl e
Ġcomm ittee
Ġsng ap
ar e
Ġshi tom
Ġks iew
athuh lypa
Ġk p
Ġjong u
Ġshi sien
Ġtr ok
ĠJ ing
sh wa
Ġn eh
Ġkyr d
b urom
Ġia da
Ġseng bhalang
i w
Ġjingk hang
Ġsk him
Ġia lade
Ġsh y
Ġki la
al eh
Ġt ynr
Ġnong Ã¯
ut ive
m e
at e
kh e
d op
ie j
Ġha r
n ieh
Ġpr o
x ec
al or
ec tion
n ing
Ġko it
sh kor
Ġnong p
Ġkh ia
3 0
l l
Ġkhu id
Ġjing leit
Ġ1 6
xec utive
onstit u
Ġnongr ep
j uk
Ġc em
Ġjingd awa
Ġjing ngeit
Ġkum ne
Ġm en
Ġth e
Ġjan miet
t ai
yll iew
ĠSh nong
Ġb hoi
Ġba s
Ġj ain
00 0
Ġf or
as a
Ġr up
Ġm oses
Ġsha khmat
Ġr ta
oli ce
yn jar
. &#
Ġpat eng
S U
Ġjingk ylli
ĠC h
Ġkhr ist
Ġ an
Ġsynr an
Ġks iar
Ġl ypa
Ġyn da
am in
Ġsa k
Ġst ep
ka ta
Ġnong i
ĠAss am
Ġmar iang
l ock
Ġj ar
ir cle
J P
Ġtai ew
c c
onstitu ency
Ġkyrd an
Ġpyn rem
Ġ3 0
Ġkynt ien
Kum ta
am ar
Ġb i
k up
n ai
Ġjing donkam
t ynn
Ġb thah
Ġjingia rap
1 0
; ,
Ġkong san
ocia tion
b lei
Ġbat ai
Ġsha d
br iew
Ġs ym
Ġpha r
Ġk jat
Ġj udah
b it
ĠS oh
shi m
Ġ "
N a
Ġpynb iang
Ġ1 7
Ġco vid
Ġ2 5
Ġa b
ission er
Ġkhyr dop
k ti
ĠÃ¯ athuh
ĠM a
ĠU DP
ka ba
kha na
Ã ı
Ġ '
et r
Ġsang eh
Ġia ki
yr wa
Ġm o
Ġpha ng
ĠP yn
Ġd una
Ġlong kmie
ip h
tha w
Ġs or
ie l
Ġp er
Ġrun ar
Ġai Ã±
Ġj ah
k ur
Ġkh iah
T o
nam ar
Ġmar wei
Ġjingiak hih
u jor
Ġs tad
v er
ĠA r
ĠâĢ ĵ
Ġdoh nud
an o
Ġpyn duh
ĠHi ma
Ġr am
Ġkam ra
Ġpynk ylla
Ġ2 4
Ġs nam
Ġna m
u st
Ġn ai
Ġs ait
or th
l y
Ġr o
el hi
Ġjingr wai
li m
ĠU n
it i
ĠE ast
Ġr ong
Ã± ia
Ġdu wai
ĠÃ¯a leh
Ġjingi eit
Ġi l
ĠB JP
Ġd em
Ġt er
Ġph ylla
Ġm ang
Ġjng ai
st oin
Ġshah shkor
Ġ201 8
Ġg eneral
Ġkynt iew
ng oh
ĠJ aintia
Ġt uh
Ġl ok
Ġjingj op
Ġlang brot
ĠG aro
Ġsh oh
ĠK um
ist er
Ġ y
k s
Ġs lem
is tr
Ġpynk ynmaw
Ġtyng eh
Ġt ih
Ġt eh
yrkh ei
Ġpyn h
Ġjingm yntoi
lade sh
Ġj uh
Ġsh eptieng
Ġ Y
Ġpyn shai
d it
ha dien
Ġdu wan
ad ien
Ġb ill
Ġt hi
ber t
Ġ20 0
Ġjing shai
N angta
Ġmyn shuwa
Ġi jipt
ĠK at
e sh
Ġr is
r it
el l
a la
ĠâĢ Ŀ
ĠJ o
th ymmai
Ġkh nam
l yng
ĠÑ ĸ
Ġsha niah
j ain
ĠP ar
2 1
Ġhi gh
kh lieh
j ri
Ġp ol
ĠS eng
Ġs ing
Ġnong s
Ġdur iaw
Ġk omp
ki ba
ir ector
ha w
Ġtha iÃ±
Ġd ong
ĠA m
Ġ ot
E M
Ġkh lad
Ġsak hi
Ġh ynriew
Ġkynr oh
ĠW est
Ġha ka
Ġ201 9
a ul
ol le
Ġjings tad
Ġun it
Ġpynk ut
Ġai lad
Ġtynr ai
tr ep
iv il
r at
Ġk y
ap h
Ġj aid
Ġ -
Ġkyn ja
k ut
Ġkh ie
ĠT h
olle ge
Ġn ar
Ġjng oh
Ġda wai
ia l
b ok
Ġw ei
d er
u wai
ĠJ ylla
v el
Ġ2 1
Ġh e
Ġjingi oh
en i
Ġj un
Ġla t
Ġmyn jur
i um
ĠM ukul
Ġophis ar
Ġs khem
Ġr wai
Ġj aiÃ±
Ġshuk i
Ġnong pyn
thi kna
Ġjingm ih
p deng
Ġth iah
Ġshy iap
Ġp ura
Ġjingia lehkai
Ġsngew sih
u c
o o
Ġrit i
1 5
Ġleh noh
1 2
ic e
Ġsyn don
Ġja k
Ġmyn shwa
Ġba ng
l uid
ĠÃ¯ ai
Ġia s
r oh
Ġm ukul
u lar
Ġw ar
is ion
Ġmyns aw
ĠK SU
ĠD ab
Ġjingia khun
.. ..
e b
li n
ha ti
Ġjingkyr men
Ġsha tei
ĠJ erusalem
Ġr em
yll ung
pp ud
ĠDab id
m ynta
il e
h uh
Ġb it
i uh
Ġba kh
Ġ2 2
ha h
K ane
Ġka i
ĠÃ¯oh sngew
n iam
ĠÃ¯a lam
Ġp ut
Ġia no
Ġp la
Ã¯ a
Ġk men
Ġlong i
W at
m ai
Ġjingt ohkit
w et
Ġkha d
ĠH ynrei
il on
Ġd khar
Ġt ad
Ġkh lam
Ġbr et
p ung
Ġc hairman
ĠC EM
Ġang el
Ġt ik
Ġkha ppud
Ġjingk men
Ġk ynta
Ġsha duh
Ġpa ul
Ġpynd ap
Ġnongthoh khubor
Ġm p
sh ong
ĠD or
Ġba khuid
Ġkynr ad
1 1
ĠK ane
Ġju tang
Ġm raw
ĠK ong
Ġjun om
Ġnamar ba
w ar
ĠS ch
c ent
ynn oh
Ġp res
Ġjingd uwai
q u
on d
Ġialeh kai
Ġth ong
Ġbym man
Ġjur ip
Ġshi s
Ġpyn t
Ġs oi
Ġla shai
Ġr es
yl long
Ġkh ein
Ġmyn ba
Ġpyn thikna
Ġm ap
Ġm em
k men
Ġp oh
Ġba la
Ġ2 3
Ġkhu s
ha d
p yr
1 3
ĠS ta
t on
Ġjingia s
1 4
d ent
ĠA d
Ġpat hai
ĠComm ittee
L ada
d ie
Ġ ek
li c
Ġjingb itar
Ġhyn Ã±iew
Ġs y
Ġs im
k yr
Ġc onstituency
ation al
âĢĿ .
Ġt ap
tion al
Ġka dei
Ġjingk it
Ġs ar
Ġw ai
Ġth ew
Ġbor ding
S P
ĠNg a
m on
em ent
o ur
Ġjingk ynnoh
iv ision
Ġju bor
ar t
ri n
Ġc ent
sha ri
sha d
Ġr ym
Ġ ed
ĠÃ¯ aid
o an
ang eh
Ġjingb ishar
Ġly er
ha t
l ot
ĠKhr ist
Ġpyn m
Ġb itar
ĠÃ¯ eng
Ġjingia lam
Ġco urt
ur i
lai Ã±
ĠDor bar
Ġpyn im
Ġs yr
Ġb s
oin t
b oh
ĠÑ Ĺ
j na
Ġna tional
ut i
Ġkur up
Ġs lap
b ud
Ġna pdeng
r iang
on om
ynti h
Ġch ief
l iew
an i
Ġp olice
Ġr oi
Ġnong stoin
kur im
Ġnong wei
Ġjingia p
Ġ2 7
Ġr ang
Ġkyr khu
Ġsch ool
Ġt ohkit
Ġb ynriew
at o
Ġ &
ĠHa ba
1 8
Ġmaw lai
Ġkha jna
Ġdon kti
Ġnong mih
Ġj ai
Ġdep uty
ĠS am
kh law
Ġkh ong
ynr a
Ġk t
Ġjings uk
Ġs op
Ġl ieng
ĠM oses
s ap
b y
o g
Ġshi phew
ip al
ĠC on
oh sngew
kat kum
Ġc ircle
Ġ201 4
ul op
Ġt ar
ĠE l
ĠP hi
Ġkl et
1 6
Ġjingpyn b
Ġb ri
Ġhynn iew
ĠR e
Ġth om
ĠT empl
Ġ at
Ġna ka
ĠR o
ĠI n
l er
al ei
sp dp
bar oh
Ġs ep
d o
Ġpyr ta
Ġa ct
Ġnong kit
Ġt ulop
B ad
Ġkomp eni
Ġjing ujor
i b
Ġs outh
Ġlyng kha
Ġkyn san
trei lang
ĠL e
p or
Ġs up
Ġs ynd
Ġsoh ra
Ġs iat
Ġr ing
Ġk er
ra k
t one
Ġr yntih
Ġ as
821 7
Ġj iw
ha s
Ġ2 6
ĠJ udah
Ġrup a
shi tom
Ġt eng
Ġkhu blei
ul t
Ġjing ba
ol om
Ġt em
Ġjing ong
Ġshim ti
H adien
Ġph ew
Ġim lang
ar on
Ġjingk ieng
j ek
ĠM an
v e
f f
yn shar
k o
I a
ord ar
Ġcon rad
ia id
yrng em
Ġpynkh uid
Ġjingkyr shan
ast or
Ġn pp
m oit
ad uh
Ġra khe
Ġba b
Ġmih noh
ei d
on t
1 7
s yiem
Ng i
olom on
Ġj er
Ġw ait
os eph
Ġh spdp
Ġjingia id
Ġcomm issioner
s ning
ur s
Ġb lock
Ġ201 5
Ġp etr
Ġla jong
Ġkha na
ynd ong
Ġph er
ĠM P
Ġma ham
Ġj ylliew
la s
Ġjing ri
Ġdoh kha
Ġe xecutive
Ġb yr
Ġek s
r ain
Ġ Ãı
Ġjingk ha
Ġmaw s
Ġioh sngew
n ia
s on
Ġjingth ung
Ġk ew
Ġshi liang
Ġc l
l yngk
ud ent
Ġmin it
d ur
Ġof fic
a bor
Ġban k
Ġkyn ti
Ġs ub
SP DP
Ġki lo
Ġa inguh
Ġass ociation
ha ra
ĠA b
on bor
Ġsah lang
ur e
Ġhyn men
kup ar
r um
Ġmyn miet
n b
Ġkh lain
Ġjingj ynjar
Ġt ep
ut onom
Ġth em
Ġnong niah
Ġtik et
Ġai u
Ġ2 8
es s
Ġjingk Ã±ia
ĠD ep
s niew
ra ham
a li
Ġ5 0
s aw
D A
r ieh
j ot
utonom ous
ĠN a
iaw moit
Ġpynr ung
Ġi s
kat ba
Ġpyn l
b ein
Ġpyns angeh
ia d
o ard
Ġsta te
ĠD e
Ġa g
Ġpyn lait
Ġka bu
ĠS t
i g
ĠH SPDP
Ġbakh raw
Ġsh et
ynt er
Ġkhat duh
Ġd c
Ġbe ain
ĠB an
p aw
Ġ2 9
Ġi tynn
Ġkar khana
Ġjaid bynriew
ie r
u ba
Ġl yn
ĠL um
ĠI jipt
Ġwat la
kha ng
Ġpynr oi
Ġjingt ep
j li
od i
Ġn o
b eiÃ±
shi p
Ġpyn lut
Ġd irector
ok ram
yns aw
j u
r al
k yn
leit haw
e th
ĠB ad
j aiÃ±
A M
Ġb leithaw
Ġ20 20
Ġt a
Ġh er
Ġkyn dit
um ber
Ġjingp h
Ġkp u
Ġkha w
Ġ201 6
Ġp ass
Ġba bha
P hi
Ġil p
Ġkha ii
yns ong
vel op
Ġar phew
ph niang
Ġla w
sh nong
Ġpr okram
Ġnongmih khmat
Ġd elhi
ub lic
Ġri m
Ġs c
Ng an
ha lor
Ġs ec
gh t
ha l
Ġk ein
Ġm ylliem
Ġk om
Ġd ien
Ġd ara
ec t
ĠD on
Ġnongkit kam
shu a
Ġjingd una
Ġjing ti
Ġshim khia
Ġpyn bha
Ã¯ ing
Ġp ait
Ġn orth
on a
Ġha khmat
Ġr ieh
Ġk or
f or
m it
st ar
Ġjingiak ynduh
ĠG eneral
velop ment
Ġm uk
Ġsh yrkhei
ie s
Ġnong ap
Ġia shim
u el
un d
g an
Ġt im
Ġn umber
Ġm al
P P
Ġc or
, âĢĿ
ĠL at
Ġjingk ular
Ġsam oi
ĠSoh ra
Ġku lai
Ġm l
Ġnong kha
Ġna bar
li p
ki m
Ġu r
ct or
Ġship or
Ġpyn ieng
ĠI a
ymm ang
e op
Ġjings ynshar
Ġjo wai
k ieh
Ġhyn ne
ok tor
ph rang
urs la
ne s
ng am
s ah
Ġb yrngem
Ġr yn
ĠâĢ Ķ
Ġs er
e a
ĠMaw lai
ocia l
ĠP aul
Ġkita b
Ġc omp
Ġpyn neh
art ment
Ġsha ng
Ġshong kurim
Ġre g
Ġum phniang
Ġkhr istan
kat ei
Ġnong poh
Ġs um
Ġb ein
Ġjingia dei
Ġlyng ngoh
Ġnong die
s ar
Ġjingpyr khat
Ġ Ċ
Ġd um
Ġc ivil
Ġ201 3
Ġjingpyr shah
ĠCo urt
Ġbang ladesh
Ġjingkha wai
nb sp
Ġla ma
n ar
Ġjingk wah
ic al
Ġs al
st ur
ĠnongÃ¯ athuhlypa
l ist
an ce
Ġj em
Ġph ong
Ġs et
Ġlyng k
Ġbi eit
t ylli
2 2
k et
Ġb ylla
Kat kum
ha to
Ġphylla w
Ġsa ul
Ġjing sha
ul or
ĠB ang
list ia
Ġj uk
s em
ul mar
Ġsh ylla
ĠS ing
kh ie
y c
Ġth eh
r ia
s uk
Ġ on
Ġnongk yndong
ilon ia
n is
u it
ha dc
Ġg o
Ġkyr kieh
oh n
lyngk ot
u wa
Ġj rong
Ġka shari
ng ai
uk sa
ĠL am
Ġbor abor
Ġkam ram
d ieng
Ġsu ba
Ġ or
b hoi
Ġjingb thah
ar i
Ġl ynter
Ġla no
Ġp ur
Ġeks amin
Ġc ollege
Ġlym pung
g p
l iam
Ġriew lum
p rah
el la
Ġbu it
k in
ĠN PP
yll em
it h
Ġth up
Ġjak ob
tha it
Ġs e
ĠW ar
l ing
Ġjingkh ein
Ġt yllong
k ong
Ġbun sien
en ti
ki ne
l c
Ġt uid
Ġk hih
sh uh
liam ent
Ġjingk ylla
Ġkaba n
Ġh n
th ie
m in
Ġel ection
Ġjing duh
Ġbha h
ĠKum ta
Ġkhynd ai
ph lang
Ġpynsh ngain
Ġm i
sh em
Ġbuh rieh
ĠW ah
ĠKhr istan
Ġthi kna
b ih
Ġs ordar
Ġ3 1
Ġlad ep
Ġ4 0
er n
? âĢĿ
s u
d f
Ġjingb it
Ġjingkyr khu
p hai
p diang
5 0
Ġpyns ah
Ġj eh
Ġr aid
Ġput hi
Ġe x
ynd ai
Ġjingb uh
ri c
Ġd oktor
Ġt yr
Ġn uksa
Ġar ngut
Ġpynh iar
ĠN ational
Ġtha n
d um
ĠB hoi
kum ba
yll ok
Ġsyn t
Ġnong t
Ġjingia thuh
Ġpynp hai
2 3
Ġle bi
d ar
Ġpyn th
Ġpyns khem
j rong
Ġdu stur
ynr iah
Ġsha no
Ġjing tei
Ġth liew
Ġka iph
Ġk yntang
om e
Ġtr eh
ĠB ill
Ġkhus nam
Ġun ion
r s
Ġph lang
Ġky iad
Ġpynshi sha
Ġph one
Ġhar ud
Ġm u
w ad
Ġjing h
ĠHi gh
Ġkom iti
ĠCh ief
Ġper cent
Ġshuk or
h ur
Ġdon bor
Ġjingpynb na
oan nis
kha m
ĠE xecutive
Ġjingpyn k
M ynta
Ġjingk yn
ĠD a
an a
Ġnang ne
Ġpa khang
es e
Ġsait jain
ĠM ylliem
Ġthom bor
ĠL ada
p t
kh rah
Ġpynd em
Ġleh se
rem e
l et
Ġkyr men
Ġ Ã±iew
k j
Ġn ud
Ġl ynd
Ġw ork
u e
m er
Ġka d
Ġm ai
yr ia
Ġth ok
2 5
end ra
Ġm ot
Ġk nieh
m yn
d u
Ġng at
ĠNg i
ĠÑĹ a
s ti
ĠjingÃ¯ ap
Ġr iam
Ġkat o
Ġpyn bor
j ai
ĠR a
Ġlait luid
ĠnongÃ¯ alam
Ġpynkh ein
Ġl i
ba ngeit
Ġmar dor
Ġpynp ra
ĠK H
Ġba sa
Ġsyn juk
Ġb om
T e
j op
ust er
s ngi
Ġlong Ã¯ing
Ġmar ak
Ġsep ngi
Ġhang no
Ġpara bangeit
an iel
Ġmyn t
ĠN ai
ond ary
ra khe
Ġpres tone
ynt ur
o th
Ġt est
ĠS orkar
oc ie
ynr am
in al
Ġpynsh ong
f fic
! âĢĿ
er ation
Ġjings niew
is ha
w ir
Ġb en
ĠSta te
r iat
ĠN E
Ġmar jan
iv ers
Ġpynl iem
ord an
Ġl ui
Ġk r
Ġjingsngew sih
Ġph ra
ion al
j i
el bert
ocie ty
w ieng
Ġt ied
ĠD ieng
l es
p ad
uk lar
ĠA ct
iph ew
Ġlongi ing
Ġba sha
or am
Ġpyni oh
Ġpynia soh
pp er
ĠBa lang
D F
Ġjing thaw
w bih
Ġk rem
Ġpyn hap
Ġpynk up
Ġnongr um
ĠÃ¯a k
Ġjing lut
Ġsta tion
lang brot
syn ei
Ġia lap
ĠS a
ad ei
uc ation
; &
juk ut
Ġm itar
ĠM o
th ep
Ġ z
eop le
Ġt yrwa
ĠÃ¯ arap
Ġhar um
Ġph lim
pat eng
Ġkaiph od
Ġna poh
, "
Ġth ngan
k tien
ĠDep uty
Ġjingpyn kh
2 4
ĠS up
ĠT o
Ġnong wan
up ang
Ġj in
Ġp ost
ĠE d
Ġbym khuid
oc rat
Ġkh et
Ġpol it
by ter
l ia
ait ung
Ġbym jukut
Ġjing rakhe
Ġjing lait
ĠSch ool
e on
yr shan
Ġn ia
at han
ĠB ab
Ġnong ai
shi ing
ĠD C
Ġs i
Ġshis nem
Ġlyng khot
Kat ba
ivers ity
N AM
yll un
ocrat ic
Ġla iphew
Ġjingsha kri
Ġjings umar
Ġkhad duh
c o
ta p
Ġkh ynra
Ġjingkit khlieh
r y
ol l
Ġjingp ule
Ġy outh
uwa hati
la ka
Ġs ynn
u g
na ba
aph riang
Ġl ber
Ġ ec
Ġks uid
Ġjings iew
Ġnongkha ii
ĠPyn sh
j ia
r oi
el f
Ġ 0
Ġs ap
Ġnongp ang
Ġtam asa
Ġtang ba
Ġf r
Ġbad onbor
Ġpynk hih
L C
Ġn iew
Ġpynk yntang
Ġwait lam
m raw
yns iem
ĠAss ociation
Ġt ri
Ġ1 00
k an
kj gp
Ġkyll on
Ġal l
Ġme d
t t
Ġkh iew
ng ap
h ok
Ġs ong
shi sha
C C
Ġs olomon
ng at
Ġpynp oi
Ġmynt oi
Ġs mai
Ġj ymmang
Ġa aron
Ġrup ang
Ġriew spah
Ġi sih
w ang
ĠUn it
Ġjing bha
Ġth er
Ġbas ah
Ġk up
ĠD khar
ĠPar ty
K o
oi Ã±
ĠĠ ĠĠ
v en
N amar
rad esh
Ġt lot
Ġjingk n
ph na
ed ule
ha b
al th
Ġjingm an
Ġr iang
ĠH e
Ġt uklar
Ġar ta
ynn in
ost ol
Ġkur im
Ġly oh
ne ss
ĠW at
l ung
r iew
ĠD elhi
Ġst udent
as e
Ġsa b
s ai
yn ei
w ell
ĠB lock
Ġa kor
un ic
sh er
Ġjing is
kh uh
Ġpynk iew
Ġl ine
ĠJo wai
ĠKH NAM
Ġs uh
Ġla is
ic en
Ġki ar
Ġm yllung
Ġnongk yrshan
Ġkynth oh
th iah
S huh
yn jur
Ġh yc
k ar
Ġp astor
Ġlam ler
ĠMar ak
Ġsym bud
Ġjingia treilang
Ġp df
Ġsh yntur
Ġphi ra
Ġjingj ot
Ġshem phang
Ġhynniew trep
em ber
m et
Ġpynkh lain
Ġar dent
r d
j ect
w w
ĠA g
ĠBang ladesh
oh sniew
ĠP ro
Ġin ter
c hi
j amin
tr iem
Ġk las
Ġlynd et
Ġla wei
um khrah
Ġj oseph
Ġkam bah
Ġbam sap
ĠSh ylla
ĠCon rad
M e
t s
d ih
th ong
ĠÃ¯ aroh
ĠA n
ĠH ospital
c k
m as
en shad
Ġshi spah
ĠP res
Ġoffic er
o od
ĠC ircle
2 7
os e
Ġkh laiÃ±
Ġmar eh
Ġab raham
Ġs nieh
ĠS yn
kong or
ed eration
K h
k la
an y
c har
er in
is i
ĠKh ong
ai neh
Ã± iuh
G P
Ġsha thie
b eit
Ġn i
d em
Ġb ei
Ġkha p
Ġpa hara
Ġk rad
end ent
o ot
Ġt ura
Ġjingias eng
Ġia don
Ġn om
ĠK hun
kh ing
ĠComm issioner
Ġ er
Ġlong ing
Ġpynkh iah
821 1
m ut
Y m
Ġjingleh niam
Ġs ocial
2 6
Ġsynd uk
la k
ĠB aroh
ort s
Ġlut e
Ġsynt iew
Ġjingd um
s o
Ġf kjgp
t eh
Ġshong kha
Ġlyngk ot
Ã¯ ap
em b
ut ion
Ġpynk ynriah
Ġmem ber
D a
j am
I I
Ġr el
ĠC ent
ĠR ym
Ġkh oh
ka h
ĠM ynsiem
ĠH N
u ta
Ñ ĸ
Ġkh leh
li b
b ynta
la nd
Ġsym bai
min istr
ĠÃ¯ ano
Ġmet iap
l d
Ġkyll iang
Ġjingsh em
Ġman la
Ġ3 5
Ġt ieng
ĠP olice
ran ium
unic ipal
Ġdon lang
em e
ĠI ew
Ġjingpyn shitom
Ġha t
Ġjingpyn trei
Ġt ynsong
Ġsaw phew
i o
Ġh un
Ġw ut
ĠL ait
Ġkhr eh
ĠP DF
ĠN iam
Ġjingm ynjur
B aroh
s ing
ng en
yn juh
ĠB ar
Ġpynj ah
ur al
ĠNong st
n ap
ĠN orth
Ġmyn der
w it
Ġjingpyn jot
Ġdep artment
Ġnamar kata
t ing
ĠC ollege
ynn iew
Ġsh kor
Ġka da
Ġv ice
elf are
Ġsngew tynn
Ġnoh prah
ba ll
Ġj ynjar
Ġjingb un
ak ob
Ġpetr ol
Ġi ba
wai Ã±
pyr shah
Ġpait bah
2 8
Ġr nong
Ġa utonomous
d r
s khem
Ġj hadc
emb ly
ĠR upang
Ġsar ong
ban iang
ob ile
Ġthi k
m i
Ġph yr
Ġph ut
Ġia hap
Ġpat har
Ġjingsh ong
Ġnongb ylla
Ġd o
H ato
g re
kh iew
byter ian
Ġkot khubor
Ġ en
Ġjingi wbih
Ġkynt hih
e j
Ġur long
p ang
Ġm us
Ġ201 7
rin c
E C
Ġi ong
ĠNong rum
Ġp ri
Ġt bit
ĠNongst oiÃ±
Ġcor ona
ĠS p
ĠAr dent
Ġshi l
ers on
Ġphar eng
w d
a Ã¯ah
ĠD ei
Ġm ei
kyr wat
Ġpat sha
Ġde velopment
dum a
Ġnongb ishar
L P
ĠF or
Ġj ot
Ġp ung
Ġmin ister
ĠC hairman
Ġsing h
Ġa Ã¯
Ġ19 7
Ġbu jli
r op
Ġp uk
Ġkt em
w er
ow er
lyng ngoh
ĠMaw s
s aid
Ġitynn at
Ġkar ta
ĠS aul
Ġsan phew
Ġrah bor
H alor
s it
Ġb oard
Ġw aiÃ±
osp el
ka wei
Ġcl uster
ba je
Ġpynk it
Ġpynm ynsaw
Ġkhun lung
er i
enti l
c es
at or
ĠP h
ĠJ iw
Ġmaw sh
L ah
Ġ qu
Ġpynsh lur
Ġr ud
rinc ipal
b et
Ġu ei
ecret ar
t ra
on y
ĠSam la
Ġbyr ni
ĠB asa
Ġsoh waiÃ±
ĠDieng doh
Ġpha n
ĠJ a
Ġia iong
Ġkh yllung
S A
ir ang
os o
s iew
Ġjo shua
Ġd ivision
Ki ne
t ok
Ġat iar
ba l
Ġphi listia
Ġja boh
ĠKat ei
u wei
Ġki dei
ot duma
B a
Ġkyr hai
a ch
o un
p aid
Ġia roh
Ġsha r
li ne
Ġjingshi m
Ġ aw
Ġpyn ph
Ġpyn ngat
Ġp ublic
er v
Ġpyr khing
i ing
Ġro y
h ynnin
Ġnong leit
Ġris aw
ĠJ akob
Ġr yng
Ìĥ ,
Ġbab ilonia
ĠS outh
Ġsuk i
Ġap ostol
Ġjingis ynei
Ġjingsngew khia
Ġbud dien
oo id
Ġshong thait
Ġbe th
o am
ha duh
Ġth ei
Ġjingk iew
il la
don burom
Ġ eph
ec l
Ġpynsngew bha
4 0
b o
g a
it ei
ĠS an
ur long
Ġshi kat
Ġmie j
hi t
Ġph la
Ġpyn ursla
Ġth yll
ass eh
Ġjingba kla
b ri
Ġp wd
Ġpynd am
Ġpro jek
Ġsha ba
Ġsh er
ĠS ec
Ġkha h
n da
Ġh ek
Ġjingtrei kam
Ġu d
Ġi sa
Âł Âł
ba lei
Ġjing khot
ud ui
sh op
Ġtr an
ĠLe bi
th er
Ġpar liament
Ġjing em
id i
ad an
ĠK ur
2 9
Ġl icen
hi n
ti ne
ĠR am
Ġjingshi tom
Ãı a
Ġnai lur
k t
Ġi eid
ont rak
ul lai
Ġth iaw
Ġd ork
in ong
ĠL ap
Ġ6 0
Ġjingkyr pad
Ġshis ngi
Ġlum bah
yn e
u la
ĠC onstituency
Ġbasa iawmoit
n ot
in ance
ĠP ol
Ġm odi
ĠM in
Ġrym phang
Ġka jing
ĠS P
Ġn ew
Ġjing it
s eng
Ġ19 9
Ġba thymmai
Ġsoi tan
ĠNg an
Ġm obile
st or
b ishar
ba t
Ġj on
Ġpl iang
ĠO ffic
ĠSing h
Ġman ag
ĠNong synshar
ĠH ynniew
ob oam
ult ure
Ġma la
Ġnai lar
Ġsu da
ĠG o
Ġkynr am
ba pt
la kam
Ġcent re
Ġthyll iej
Ġb os
Ġkh niang
Ġsh on
ĠT ura
Y C
Ġk ord
am es
Ġum sning
ĠJ eh
ĠP r
Ġ3 2
b e
ĠD irector
h em
w o
gan is
s al
821 6
P yn
s am
Ġk poh
Ġp y
Ġs ai
and hi
Ġhiar pateng
Ġpetr os
Ġhn lc
P A
3 5
ĠC ivil
ng aiÃ±
Ġsha rak
Ġiew duh
Ġba inong
Ġcent ral
Ġs iang
ĠNong poh
. "
el e
ĠUn ion
ĠP har
ĠM i
Ġj ud
ĠaÃ¯ u
: -
Ġjingm ane
Ġr khie
om in
Ġmyns ngi
Ġjam es
h o
y f
sh ew
Ġtha p
Ġme ecl
Ġtha it
ip aw
Ġkhl ur
Ġsynn iang
bapt is
Ġnong lam
ti c
g ar
Ġ eng
ub lei
Ġnai wieng
Ġmuk otduma
Ġk ontrak
Ġsha id
Ġb et
Ġshy ieng
Ġbs f
ff ai
Ġj oit
Ġcomm ission
3 6
p ur
ba ton
Ġp as
Ġko idi
oot ball
g ram
Ġjingti m
ĠL al
yrkh ong
Ġra j
Ġp oint
Ġla ban
Ġha n
K J
Ġb lang
ynd i
Ġhang tei
.... ....
Ġp un
Ġha sem
Ġl ieh
Ġteh lakam
Ġkhus lai
ĠR aid
ĠNong k
Ġdork has
ĠBasa iawmoit
Ġn aitung
Ġjingp eit
om en
ĠH ato
Ġtha rai
Ġmrad khlaw
Ġpyn urlong
Ġcomp any
l op
Ġsha dien
ĠH ukum
Ġla in
m ane
Ġkynr um
Ġsha it
Ġnongb ud
ng in
Ġs niang
kh lia
Ġp ra
Ġr ad
Ġjingpyn shai
Ġjingti h
x i
ha jar
aw ei
Ġjingsh eptieng
Ġa c
in o
Ġa cc
Ġjong no
ver n
p er
ĠÃ¯ing jaiÃ±
v ir
Ġia treilang
Ġlam phang
yrng am
pl iang
Ġh ep
mar y
Ġkl iar
d id
Ġ ĉ
Ġpha tok
od y
iti z
ecretar iat
Ġshikat dei
Ġi synei
Ġt ak
Ġjingkh ynra
ĠL ang
Ġe li
Ġdr ok
p ei
Ġ4 5
Ġm da
Ġn ep
shan iah
ynt iew
Ġsy iar
illa ge
Ġar liang
ing jain
a sh
Ġr an
ĠP etr
Ġcl ub
Ġleh niam
r uh
Ġkan did
la ss
Ġkhang lad
Ġjingba tai
Ġd aniel
ynn ad
Ġlap ang
are en
Ġs in
Ġc ase
br u
Ġm ission
Ġjngoh kai
Ġp eople
Kat ei
Ġm ul
ĠK pa
ĠH adien
Ġ3 7
Ġkylla lyngkot
Ġu ranium
Ġt an
Ġnom bar
Ġkam on
Ġjingj ur
Ġnonglam ktien
s c
Ġn iah
Ġ es
ĠY outh
j ied
k ynti
v an
sh yrkhei
Ġk m
la ne
Ġs aiÃ±
jar i
Ġjingai ei
m ed
Ġp om
Kum ba
al l
aid kam
us e
Ġto ur
Ġkol ej
3 4
Ġsha l
ĠÃ¯a m
Ġtr ad
b ong
Ġitynn ad
p ah
ĠBa khuid
ĠY m
ĠâĢ Ļ
i eit
Ġd is
Ġban se
Ġi mat
b l
ec h
je e
Ġkandid et
Ġjingia da
ĠKh lieh
Ġjingma ham
Ġkhun langbrot
e ar
Ġsam uel
p r
Ġmat lah
p le
ĠN amar
Ġiak hih
ian ce
Ġkp er
Ġha m
Ġshi t
p ong
Ġs bai
Ġp ep
Ġsh lur
p areen
Ġp lan
ka Ã¯ah
ĠRo y
al d
Ġsec ondary
KJ GP
Ġ .
Ġm er
r ep
ik or
Ġ3 3
o u
ĠK o
Ġre v
l om
Ġs ut
op h
Ġsha ne
bi lat
Ġia m
Ġsha lan
in d
ĠA utonomous
Ġar ea
ed ul
Ġkh yn
ĠJ oseph
Ġb yn
ĠB en
ĠI sa
ffai rs
e e
Ġhe alth
Ġj ordan
Ġp yng
Ġ3 6
ĠA l
k oh
Ġj hur
ĠÃ¯a da
ĠJ er
rai m
b ol
v i
Ġkum wei
shi t
itiz en
j ir
y an
ĠH YC
Ġtha la
Ġsh ngain
Ġhi stor
Ġt ala
ymm an
Ġkh eiÃ±
isa bet
Ġsup reme
Ġk una
ĠT e
Ġha neng
en ce
ti fic
ng ar
ĠS ngi
l oi
ĠN o
ĠE M
Ġed ucation
? "
re en
kh ong
Ġjingph ohsniew
erin t
ng it
Ġring mraw
Ġj ohn
N G
op ing
Ġpynkh eiÃ±
Ġk Ã±ia
ki wei
oh ipaw
Ġwar jri
Ġkynr iah
Ġ20 21
/ /
j ih
Ġu pper
z oram
ĠKi ne
ng ad
Ġjingsh na
Ġlais en
edul ed
Ġdew bilat
Ġnongpyn iaid
Ġi t
Ġjingia leh
ĠA aron
b on
d e
ip ur
b nai
p ar
tt p
Ġsh ella
lei n
4 5
c ha
n ah
Ġs yngk
ĠS olomon
ph ran
Ġ201 2
in do
Ġth ylli
Ġmo ab
Ġl en
A C
Ġryn san
f er
ir ia
Ġdem ocratic
erint endent
b le
Ġjing shaniah
Ġi nd
: //
ĠA s
Ġsah kut
Ġro ad
kyn thei
Ġg n
ĠE C
g n
yn Ã±iew
S h
Ġt yll
ri p
b neng
Ġp ai
Ġun iversity
m ukul
x th
Ġh yndai
Ġlym ne
ĠT ham
paid bah
ja har
b rai
Y F
ng im
Ġba ha
a lang
Ġsu in
Ġp radesh
it or
v ement
Ġs ociety
Ġjingj ah
n alor
ĠJ u
Ġs ad
ka ei
Ġsa hit
s nem
Ġb ol
ka s
Ġsch eme
ĠS e
Ġ19 8
t un
ĠJ HADC
ĠJ ohn
ĠF KJGP
Ġc ard
yll iang
kit ei
ĠSt udent
Ġh o
ish ot
Ġris ain
ĠP astor
ec ial
Ġ3 4
sh or
ĠI LP
Ġmaws iang
3 1
Ġk n
p ih
Ġjingth iah
r yng
Ġh ttp
Ġpyn st
it os
r ei
t en
ĠS ha
ĠKat kum
0 5
Ġunit ed
Î ·
Ġg e
ic k
r ist
ng or
Ġkyn dong
ak ynduh
Ġjan ai
Ġg ospel
istri k
ymm ei
W D
l yn
Ġg uwahati
Ġjing nang
Ġe jahar
ĠLal oo
ot el
end ment
ĠL ah
Ġlicen se
ĠN angta
Ġjing lah
ĠM at
Ġsh iah
ĠM odi
Ġmyn no
Ġthoh dieng
S hi
Ġjingpyn i
ĠRe g
Ġb o
Ġkan a
Ġpynh er
ĠAb raham
syn don
Ġjong ngi
Ġhi nd
Ġd ud
tri k
A B
Ġha iing
in cent
ak ren
ĠjingÃ¯ arap
ĠHN LC
Ì Ħ
Ġr ishot
Ġjings awa
Ġa k
kum no
Ġpynkh yllem
Ġphar shi
m s
Ġla kh
âĢ Ķ
Ġku li
Ġmar k
Ġst et
3 3
Ġng uh
Ġjings dang
Ġmih khmat
istan t
v is
Ġw er
Ġe laka
c om
Ġda lade
Ġtn um
ia s
Ġnga p
ĠK am
Ġre j
r yngk
Ġkord or
Ġmai rang
Ġjing kam
Ġpyn leit
Ġ ord
Ġsynd ah
Ġjeh o
g y
ĠJ on
Ġtur oi
Ġkh ur
B hoi
Ġda m
ĠS aw
Ġad elbert
ĠSyn juk
Ġsh n
b iang
Ġsha jrong
Ġw ain
Ġ7 0
ĠM U
oun t
Ġha ll
b uk
Ġs n
Ġnong thep
Ġjingp ynr
Ġpyns lem
ĠLap ang
th ied
Ġia tai
Ġdr mukul
er y
Ġbak yntang
ĠA ll
Ġs un
Ġn ei
ut e
ylla i
ar ia
Ġr on
N LA
Ġrym bai
n aduh
Ġk op
ĠJ ames
Ġp ui
li on
Ġmaws ynram
b uh
Ġki eng
Ġjingia roh
Ġjingpyn s
Ġstudent s
r eng
w in
B an
er a
ynd ang
Ġma g
Ġv i
um p
kh lad
Ġk eiÃ±
Ġjingp l
Ġper mit
Ġsha ei
Ġleh kmen
/ -
Ġr m
Ġsha phrang
ĠNong stoin
lar em
Ġbha lang
ti n
ph ri
Ġpyns uk
lum lang
ĠWar jri
s at
Ġsh e
ĠP WD
oli cy
Í Ĥ
Ġi uh
Ġjingpyn long
Ġsch edule
3 2
c a
Ġks ai
Ġnongr it
ag ue
Ġn uti
4 8
ĠB oard
ro up
6 0
Ġkyn jah
ĠL aw
Ġka por
Ġha ki
yr iem
Ġpynsngew thuh
Ġr at
Ġpyn triem
Ġshi syndon
Ġs neng
Ġpyr da
Ġjingk er
Ġdo ctor
Ġth ymmei
eng al
Ġjingh iar
Ġjingpynkh reh
ĠPynsh ngaiÃ±
j ait
v a
ish on
Ġpynd ait
am ot
ĠS ub
ĠNong s
Ġky ang
ĠM ai
Ġjingkh eiÃ±
ĠDe velopment
Ġpyn tha
Ġr yngk
Ġt yrkhong
ĠS im
ynd it
Ġsp orts
ĠPyn ursla
Ġben jamin
ĠS al
ol og
Ġthung kam
Ġgn la
Ġpyn thymmai
Ġmaw long
ĠW an
Ġjingd ie
k en
Ġshong suk
3 7
4 7
ha ar
ow n
Ġsha n
ĠS ait
ek trik
Ġlym da
istr ate
Ġw ith
Ġkyr duh
w ain
Ġt on
Ġsha neng
Ġkyn j
ous e
Ġc hi
li k
Ng am
Ġp ohi
Ġpyn donburom
ĠM ed
Ġb yndi
Ġa ad
ĠÃ¯oh pdiang
yn da
Ġpyn it
Ġjingt yrwa
ĠComm ission
k ylla
Ġw elfare
istr y
ĠS oso
Ġkhar shiing
Ġpynh eh
ile ad
A i
o id
s ain
Ġk ub
Ġpynp ait
Ġki lom
Ġj entil
Ġh us
Ġbr an
Ġnongia thuh
Ġo ut
itizen ship
Ġb sa
Ġf c
Ġdieng phna
s tad
tha d
had ness
hadness ar
Ġo lib
ministr ation
Ġkana an
Ġ oh
ien ce
b en
ir ot
Ġkontrak tor
th iang
ĠP at
Ġarta tien
Ġnongia lehkai
Ġ5 00
B alei
s ang
Ġia soh
ĠN ar
ĠR ang
ĠE n
Ġser v
ĠÃ¯ak ynduh
sp ort
ĠBad onbor
sal om
d i
ĠD em
Ġjingpyn donkam
Ġmaw p
3 8
m l
ia k
ynr ad
Ġmul uk
ĠH am
Ġlum lang
Ġkh n
Ġjingia don
Ġhil l
Na ba
sar ong
ĠBab ilonia
ĠM ember
Ġj irang
Ġla b
ĠS i
es sion
W O
ob in
Ġnongk ren
D ei
Ġk wai
Ġs os
Ġjingsngew thuh
ill iam
lo o
s ong
Ġjingpyn mih
and er
Ġm unicipal
Ġpyn jari
Ġdon kupar
Ġsoh wain
Ġth uh
Ġsngew khia
Ġjingd ih
aiÃ± tia
Ġwah lang
ĠOffic er
Ġar tad
Ġjingpynk ylla
a lap
ĠO r
Ġpolit ik
at ive
Ġc ab
en s
us lai
Ġlyn nong
s wet
Ġpro ject
ĠR es
Ġrangbah duh
Ġm iat
ĠS ab
Ġbym dei
Ġpynd una
Ġjingsh ngain
Ġt ynjuh
oc ess
Ġth uk
ĠV ice
ĠPhi listia
Ġka wang
Ġjingk oit
Ġ3 8
Ġkd ar
dit ional
ul it
et er
Ġmaw k
ĠG NLA
Ġjingshem phang
r ed
Ġb ish
Ġnong leh
Ġshah shitom
Ġkh yllem
Ġkyn d
il ding
Ġoffic e
ĠP yr
Ġph iah
Ġpynth ut
ĠRa j
s or
ĠH enshad
Ġ201 1
Ġm ait
Ġjingpyn im
ĠÃ¯ing syiem
Ġmut lop
Ġsyr ia
Ġdon bok
ynr ut
ra ce
Ġjings ah
Ġjinglait luid
id e
Ġjingk ulmar
t ain
ĠÃ¯a s
k em
ph ylla
Ġed om
v in
ĠM al
Ġjingia teh
ryngk neng
Ġnongk rem
Ġsngewtynn ad
Ġp i
Ġr yndang
Ka ba
sh en
Ġpol o
s nam
Ġb y
ĠB eth
Ġil ekshon
ĠJo shua
H C
ĉ čĊ
Ġ19 5
Ġsei soh
ĠDon kupar
j er
Ġpyr sa
Ġass yria
yl lei
Ġpoi m
ĠP a
kit o
Ġpro f
Ġpohi ing
e kai
k ing
Ġshi bnai
Ġst ed
pyn ban
pyr thei
S S
ĠA R
âĢĻ .
ynt ieh
ala nd
ĠCent ral
Ġ Ã±
Ġjingkh lad
ĠÃı a
Ġrad bah
d uid
ka jia
Ġg u
uth or
Ġkh oit
Ġpro gram
ele kh
s ta
Ġpres byterian
ĠM ynta
Ġpaid lang
Ġeng ine
Ġpynj ulor
ai l
Ġc ha
Ġj oint
Ġp s
Ġp rincipal
Ġnong thaw
ri k
Ġmar amot
Ġkhar kongor
Ġ Z
ĠK yn
ĠH ynÃ±iew
ĠPetr os
p c
r ung
ne t
Ġkhlieh riat
Ġkub ur
Ġba bun
os it
Ġris k
Ġmawsh un
Ġsaw a
r on
Ġsngew sarong
Ġp yll
Ġbas niew
ĠT a
Ġmar bam
Ġker kut
ĠJeh o
er tific
ĠB S
ĠSup reme
Ġkum ar
Ġtha d
ĠA i
Ġjingd ap
Ġwah duid
ne p
ĠJ aiÃ±tia
Ġum mat
Ġriew kynthei
Ġpaw nam
H U
r ym
ĠAd elbert
Ġliang pyrshah
Ġ3 9
ak ma
ĠMaws ynram
Ġpyn wan
Ġsh uti
tr ai
U wei
Ġs aphriang
Ġkhr ing
Ġf a
i oh
Ġsh la
Ġjingpyntrei kam
Ġnongiathuh lypa
Ġph c
ist ar
Ġkhad ar
Ġdon burom
Ġpa la
Ġd istrik
e as
Ġk li
Ġkh uri
Ġja khlia
Ġk ulmar
Ġ1 000
Ġsa bha
Ġtrei lang
Ġbu aid
4 3
m ah
Ġja iaw
Ġnongp eit
Ġla loo
at eh
Ġsan i
Ġjingj ied
ĠKat ba
Ġkt hang
Ġmaw phlang
Ġni ut
Ġhistor i
ti ve
Ġko b
Ġshad em
Ġphyr nai
Ġlah duh
Ġman asseh
Ġmyn hynnin
Ġs ul
Ġp ah
Ġml ien
Ġjingiak op
Ġmu da
Ġwork ing
Ġd ri
Ġr yntieh
th ony
Ġd ar
Ġengine er
ĠN ew
Ġar tylli
Ġsop ti
Ġs o
le y
Ġjingm ynsaw
M a
Ġjong phi
ang nud
ul es
Ġan tad
wa y
ĠE m
Ġphut bol
Ġba p
Ġba shisha
o ut
Ġba j
Ġt ong
Ġc om
ĠP ublic
Ġks ew
Ġnongt uh
j aw
da y
Ġjingp ynd
ĠKhar shiing
Ġneh u
ĠPres tone
Ġ ah
Ġar pa
ist or
Ġ8 0
Ġam endment
kha wai
Ġjing hap
Ġmar baniang
Ġlab our
S T
t d
Ġia shong
ĠK ynrad
Ġel isha
Ġjingpyr shang
ĠUm sning
yrng iew
ĠPar liament
f a
t es
Ġt yngk
Ġsh lei
ĠS ociety
uk hi
Ġmaw hati
Ġacc ount
D O
Ġr iat
Ġsha ta
ĠL ber
kt iar
b ur
yn na
it ed
al e
yll on
Ġb us
r is
ba ri
ur se
Ġha jir
Ġmyn n
ĠT ha
Ġsam aria
ĠjaiÃ± kup
su in
rop e
Ġia pher
Ġjingsh lur
Ġjingmih pat
Ġjingk tah
Ġum roi
Ġf ootball
Ġpynj lan
3 9
c hal
Ġass embly
stit ute
Ġjingsh lei
l u
t yng
Ġmaw kyrwat
Ġjingt ieng
Ġbad on
leh rain
ĠMU DA
t hang
Ġshil liang
Ġpynmih pat
d ivision
Ġha no
Ġt i
Ġi ktiar
Ġnong thymmai
Ġlong briew
ym p
d ep
m yntoi
Ġp alei
Ġju sti
Ġpyns akma
Ġqu ar
ĠNongk rem
m oh
ta tion
kh lem
Ġbar it
Ġ4 8
ĠAR PA
T I
U n
s y
Ġs yrngiew
Ġt b
Ġph uh
ĠDep artment
ĠK ar
Ġum iam
ĠKa shari
P C
Ġh otel
Ġmarwei n
Ġd pei
Ġna dong
Ġc s
ĠL ad
ĠPynsh ngain
Ġkyn sai
Ġbn iat
phi n
ertific ate
N alor
Ġd i
Ġst ieh
itar a
h e
Ġjing angnud
ĠN oh
Ġjingkyn thoh
Ġjing deng
c tion
Ġs ot
Ġsal ia
Ġt lang
ed ar
Ġhn yf
Ġia r
Ġth wet
Ġkynt on
tha t
vern ment
Ġd har
Ġb eiÃ±
Ġjingpyn khuid
ĠRym bai
Ġd eng
oh pdiang
ne l
kha id
Ġmaw thoh
ĠLa ban
Ġjo ab
b in
Ġha ei
Ġri p
ng iah
Ġia lang
Ġs ob
th e
ĠM ih
Ġmih pat
ast er
ub en
Ġisa ak
Ġjing lam
Ġb ih
ĠM uk
r u
Ġla kam
Ġjing ot
on ia
ĠJ ordan
Ġri bhoi
Ġr ani
um ai
Ġai om
ĠE li
Ġst ing
Ġsab baton
Ġsul oi
4 9
n ational
Ġj ob
ĠH ek
K in
M yn
Ġna dien
ĠN G
Ġpynk san
Ġparliament ary
Ġs iej
Ġkit khlieh
K awei
Ġd us
Ġw ing
ur ity
ĠSam uel
h iar
ha th
Ġj yrngam
Ġpyn baptis
th em
ĠB alei
ĠW ork
ula tion
k os
al um
Ġj yr
Ġi shu
Ġpyn lip
Ġwan phai
Ġjingk ynmaw
Ġshong dor
s ur
ĠT ri
Ġnar endra
Ġm udui
Ġkh yll
ang ne
sha p
ĠU pper
sp ung
ĠSh ella
D R
Ġs boh
Ġia w
Ġbab ilon
Ġp olicy
Ġna phang
ĠS hang
Ġbyrni hat
ĠHynniew trep
d y
k ular
p ara
Ġkyn jri
Ġf ederation
ĠSec ondary
ut ei
Ġc an
rap h
Ġka jih
men d
Ġsah teng
Y nda
ĠK yr
Ġc a
ir dar
Ġba bu
Ġp m
Ġh ome
sngew thuh
Ġphar isi
ĠRe v
ĠBan k
l ub
Ġt yllai
ki r
A I
c el
Ġpyn ap
Ġng t
Ġsh ullai
Ġnong sha
Ġor ganis
S E
Ġs ection
ynn at
ĠKa ba
ja y
EC L
g al
Ġmed ia
Ġt ah
Ġban yngkong
Ġsha dong
Ġf ir
or ld
Ġsha wei
Ġh enshad
Ki ba
Ġpynt ngit
Ġkh ep
Ġshi n
li r
Ġres ult
Ġsob jek
ar ta
Ġi jli
ĠM adan
Ġth rang
Ġpri mary
Ġjingia pher
ĠJ ud
por ation
vir on
Ġj es
or e
u ne
ĠD ivision
6 6
Ġj e
is m
Ġjingkh iah
Ġ :
Ġb ody
it o
Ġdus mon
Ġm il
ar ong
Ġsan bor
Ġtem ple
Ġc har
ĠB as
Ġar ti
ĠR ong
Ġskul bah
i ur
Ġh ura
im ited
Ġmas hin
Ġmal u
Ġjingjur ip
Ġtrad ing
Ġj os
an t
Ġhigh er
r ie
s el
Ġj umai
Ġm b
kha p
mat ion
Ġla not
sa Ã¯ah
Ġap p
Ġkol shor
Ġhe ad
Ġline n
T ang
Ġp ei
Ġr eng
Ġr om
Ġpha inal
Ġbor der
Ġ4 2
Ġthap niang
Ġrip od
ng iang
poh liew
Ġlieng suin
Ġs noh
ĠL ok
nam ent
o und
Ġkhun swet
Ġjingkyr duh
Ġjer em
ĠD aniel
Ġsyiem lieh
Ġjingleh rain
bu it
Ġro bert
Ġs w
kat to
Ġk ba
Ġjing lap
Ġshi hajar
.. .
kor dor
M S
p ha
Ġjingth ew
ĠE ph
Ġmag istrate
Ġu p
Ġp yllun
rai shan
ĠJing khawai
ĠÃı ing
Ġreg ister
ng iew
er o
ĠT ynsong
Ġkit bok
ĠR is
4 4
Ġs kum
f t
un o
ĠS c
bor lang
ĠÃ¯ap om
ust om
Ġc lass
as oh
Ġa ffairs
Ġil ektrik
ĠÃ¯ai neh
; .
Ġd an
Ġt duh
Ġw omen
Ġjings am
kat no
ĠSta tion
ĠMan ag
Ġs ecretariat
Ġp ap
sngew bha
ĠMo ab
Ġkiba n
Ġa hab
ath iah
ĠSch edule
shap hat
d ew
e x
p ost
ĠS ocial
ĠC lub
e ba
k rang
Ġar spah
ĠE x
Ġdieng duh
ĠP ri
na gar
lan ce
th ut
Ġbha briew
Ġjingh eh
Ġjing wad
Ġsha rum
Ġjingj ulor
Ġch yne
Ġpuk ri
Ġm yr
Ġr ngai
Ġsh Ã±iuh
ĠK A
Ġam it
kh oi
sp ector
br on
Ġjingkh uid
Ġmi zoram
o y
ĠÃ¯a dei
th ma
ul ong
ĠC S
Ġ4 4
una chal
Ġjingr iam
end er
ĠKhar kongor
for mation
ĠWah lang
Ġp ump
Ġjing shad
Ġmyn shem
Ġdur khmat
ad on
ĠR an
Ġkhr ong
lyng doh
nap ara
ĠDem ocratic
K H
es ti
Ġdaw ki
ĠF r
v t
Ġ x
Ġs m
Ġph ria
Ġjingkyn shew
Ġhep rit
j h
l ukhi
Ġs kim
Ġpyn eh
ylli p
Ġum dih
ban i
ĠF C
Ġ9 0
sh oh
ĠI nd
Ġnongs iej
4 2
S ha
Ġs ieh
Ġkha n
ĠB i
thad raishan
Ġr isa
ti ce
Ġjingk ynt
Ã¯ i
Ġsha w
Ġot sher
ĠTh om
shi llong
Ġjingkh raw
Ġmar khmat
Ġthaw ain
ĠMe ECL
a iah
Ġph om
Ġg andhi
Ġg roup
Ġ200 9
Ġpynth or
Ġaw ria
Ġjing Ñĸ
ĠS C
Ġpynb itar
ĠAss embly
h eng
k ohnguh
Ġja b
ĠT hang
Ġres ol
ĠEl ection
Ġz one
Ġong u
Ìĥ .
Ġv illage
ĠJu tang
Ġh ese
ĠS u
ĠT am
ak or
ine h
Ġfor est
s ad
ing syiem
sh et
ĠC omp
Ġriew stad
Ġpy ut
Ġkynj oh
D on
it ting
sha in
ĠA p
ĠR ai
Ġv ir
Ġsain ar
Ġpyn hun
un ity
Ġjingk ut
ĠG uwahati
Ġriew ngeit
Ġlait umkhrah
re a
ĠLa jong
um an
kh o
ult ural
ĠÃ¯a lumlang
in a
Ġseng kmie
Ġjingpyn paw
lyn nong
Ġk j
Ġt dem
on i
Ġth iat
tr e
Ġjingsngew bha
ĠÃ¯ak ren
Ġeph raim
ĠPol o
t yr
Ġs l
Ġh dr
ĠJ ymmang
k iew
Ġban eh
Ġh s
kh er
Ġc r
ap om
nga b
Ġsoh iong
pl y
ĠRo bert
6 5
nar phna
l ish
Ġp osit
ĠL ai
Ġ7 5
Ġsup erintendent
Ġfr ont
Ġrm iang
ĠNG T
g o
u ber
Ġum pohliew
Ka ei
Ġpa ka
ĠNE HU
ĠMai rang
b eh
Ġnoh phai
Ġtynr ah
Ġfor um
Ġeli jah
Ġsien jam
Ġcem ent
ĠM ot
Ġjingpl ie
Ġtr ep
ĠT ang
ol d
Ġbai bl
Ġshang pliang
Ġpyns niew
Ġsyn od
Ġjingkh ublei
ni uh
Ġnongp op
oit ri
Ġkp ut
Ġjing ud
sh lur
Ġjam in
Ġkup ar
Ġphyr ngab
ĠBS F
K itei
s orkar
Ġs osp
ta b
th ngan
Ng in
Ġam pareen
Ġsym pat
Ġhan m
n ie
Ġda y
ĠM ission
ĠP ala
Ġbun kam
ĠNai lar
Ġshar ud
r up
Ġon line
ĠUnit ed
w iang
oh kynti
l en
ĠB ri
Ġj yn
Ġ201 0
Ġkt ieh
Ġpynjah burom
Ġjingpyns lem
Ġpynm ong
ww w
ĠIew duh
Ġs sa
Ġjingia lap
Ġpyns leh
j ylla
Ġj yll
ĠÃ¯a lap
ĠMar baniang
u ct
Ġj yrwa
is e
ĠK ylla
Ġg hadc
Ġma ha
âĢĻ ,
Ġi h
Ġnong jop
tei dor
Ġriew paidbah
Ġpeit ngor
Ġpynt bit
ĠNoh prah
j ab
k lur
ai ong
kh nang
ynta thiang
ĠEd ucation
ĠStudent s
Ġjusti ce
s k
Ã± iang
Ġsynr eit
Ġcs wo
Ġvir us
h u
id eon
ph ong
Ġpoh ing
ĠP eople
Ġag nes
g ra
v c
Ġk ner
am a
ĠS ordar
Ġbym myntoi
Ġst ar
ĠKum ba
s ot
yr pang
char ge
Ġ20 00
Ġmaw khar
Ġeast ern
Ġsngewtynn at
A N
ĠP ulit
a c
Ġn et
Ġpha ra
Ġjingb ymman
ĠSh uh
ĠSa bha
u gh
Ġnong khlaw
Ġkum to
kh iang
Ġkyll um
e la
Ġki juh
Ġp yllong
ĠL uk
ja ka
Ġpla sti
uthor ity
Ñ Ĺ
Ġt itos
tr hem
Ġjon athan
Ġhus iar
S C
Ġia jan
mar e
Ġsoh p
Ġjingkh laiÃ±
Ġsch eduled
yllip mat
ti kna
id en
ĠH alor
ĠJ ylliew
ĠMaw thoh
R D
uk or
hai os
Ġsp ecial
Ġang nud
a ge
Ġk him
ai shah
Ġpyn bam
ĠK s
tr ol
ĠMaw phlang
Ġhynriew phew
ĠBen jamin
b ym
ĠP radesh
ĠUn iversity
Ġmed ical
Ġphara oh
ĠM unicipal
Ġpar amar
Ġsu it
ĠPro f
Ġhind u
Ġparamar jan
Ġb na
Ġshi phang
Ġjingth ut
u al
Ġba al
Ġ4 1
4 1
m p
ta ct
as am
Ġli ght
Ġpyn tieng
ĠT ran
Ġjingp yllait
Ġjings arong
ĠMih ngi
at ha
Ġman a
ĠMaw kyrwat
Ġnongr wai
Ġsos kular
Ġlyng raw
Ġjingpyn iaid
Ġin ner
Ġsynr op
sha id
aph er
d ge
iar ap
Ġf e
Ġmo vement
ĠJa iaw
S a
Ġshah jop
Ġall iance
Ġs ik
Ġna ki
ĠS ym
Ġbr ai
ĠP er
Ġsngew lem
ĠMaw k
Ġmot phran
oll oi
w el
Ġj ulor
Ġr ap
ph oh
Ġma k
Ġ4 7
ĠpynÃ¯ eng
Ġjingpynb eit
Ġsi xth
ĠKhlieh riat
Ġkh mut
ĠK itei
no lo
Ġpr obin
Ġjingt em
lin ia
Ġer iong
ĠS un
Ġph e
ord ekai
Ġact ing
Ġmanag er
O C
Ġsnieh doh
arta tien
4 6
j ok
ĠS had
ĠP ur
ĠA N
Ġmus lim
R I
Ġbad uk
ĠL ong
Ġdu lir
Ġnongia said
Ġsak ma
Ġt in
oc al
Ġjingkh lain
Ġthang khiew
Ġle vel
g en
Ġpynl wet
ha poh
Ġj n
Ġp oitri
ar ieh
Ġman ipur
Ġte ach
ĠPres byterian
use ta
Ġord er
ĠÃıing jaiÃ±
Ġl o
um er
ylla h
ĠN alor
m al
Ġla tip
Ġr ti
ĠG andhi
Ġpynj op
Ġjingt bit
Ġdu itara
Ġs ian
Ġsngew nguh
Ġjingd uk
pyr khat
Ġjingpynr ung
s ng
ĠK umar
ĠHil l
Ġindia n
Ġpynd ik
Ġam mon
Ġkhoh siew
i ta
Ġng on
Ġda ka
Ġpynst ed
ia lam
Ġla nd
Ġpyn tikna
Ġo id
ĠjingÃ¯ as
ĠK ana
Ġmut dur
ĠNg am
ĠO lib
Ġjingbuh beit
ĠK ol
Ġjingj rong
alum lang
viron ment
k un
v al
Ġu t
ĠNongs iej
sh ngain
ph et
ch er
ĠMin ister
p uri
Ġk thong
Ġb engal
Ġlong sem
Ġw oh
Ġjings uba
Ġ3 00
Ġmet er
Ġass istant
ĠSoh iong
Ġnei g
u si
z a
Ġjingsngew nguh
Ġam larem
ĠEl isabet
9 0
Ġnong rah
Ġh ouse
pyn i
Ġta xi
ĠCent re
mend ment
ĠP ha
ĠjingÃ¯ ohipaw
. âĢĻ
Ġk en
Ġn ujor
Ġkh lei
Ġman bha
ch iang
Ġka long
Ġh or
pat i
t uh
ĠÃ¯ oannis
Ġsng ur
tha n
ĠMaw long
Ng im
Ġias aid
7 0
p ort
Ġp u
Ġt aw
bun al
ĠF ederation
Ġjak arieh
ĠNai lur
ÂłÂł ÂłÂł
s bun
Ġna la
Ġc amp
Ġ10 8
Ġserv ice
Ġl ung
Ġphi kir
Ġg ad
Ġwat er
Ġbu ilding
ĠCS WO
Ġd d
yr nai
ĠS yria
Ġnoh sngi
Ġri lum
Ġpynt ngen
Ġran ikor
Ġsosp on
A T
b ir
Ġp al
iew spah
Ġc itizenship
ĠE laka
Ġdu jok
are th
ĠEd om
m y
ĠÃ¯a leit
ĠK onstitwensi
V C
ap ung
ĠH all
Ġshong sain
ĠM us
Ġja c
Ġjingp an
ĠâĢ Ł
Ġkynt hah
ĠKana an
Ġd ung
Ġm id
Ġr ec
Ġkynr an
Ġbaha ing
f e
er ub
ĠH DR
Ġsa ian
Ġmar ngar
Ġma ta
iaw bhalang
Ġcon tact
Ġmin istry
ĠAg nes
Ġda vid
Ġnong kh
ĠA rea
S O
g is
Ġtha bah
leh em
Ġg ilead
Ġjingdon lang
w ard
it ion
ynr ew
ĠSh ullai
onstit ution
ĠNai wieng
buk hadnessar
Ġs ein
Ġb indo
Ġpynb ud
Ġrai j
! "
N aduh
i ut
Ġjylla u
ain ing
Ki wei
Ġkomp ani
Ġmp cc
olog y
Ġnongsha rai
0 1
ĠS ynd
Ġshong shit
Ġsah narphna
Ġsaw kmie
ĠW elfare
B I
N E
w al
ĠJ yrwa
Ġ19 6
Kum no
eni or
Ġtran s
d al
p ion
Ġsh un
Ġsha p
am i
ĠJ AC
Ġne bukhadnessar
Ġab salom
Ġtyll ep
m ir
Ġjingp a
Ġml uh
Ġbor bah
la l
an ai
Ġnang no
Ġpyllait luid
Pyn ban
f ul
Ġp uta
Ġb do
Ġp ain
Ġw a
ĠJ us
ĠN aitung
Ġta x
Ġsha ka
ĠI aiong
hang ta
bu i
Ġtik na
by f
bo ok
H aduh
Ġk lim
Ġkyn shew
ĠD oh
Ġ4 3
Ġ5 5
lyng ba
ĠRo ad
n y
w n
Ġs nep
Ġt oh
ne er
ĠD is
ĠMaw khar
Ġkhong pong
Ġfr om
Ġnong thied
Ġtran sport
m ur
Ġk nia
Ġpat iaw
Ġ4 9
re at
dor bar
7 5
Ġk on
Ġl it
or y
Ġpynb it
ĠV i
ĠIn ter
Ġj uti
Ġd ain
Ġai r
ĠJ ob
ĠN ag
ĠD ur
Ġg ali
Ġjingj ngai
ĠUm roi
Ġprobin s
Ġs aid
Ġm ic
Ġpyn lang
Ġpyn wit
um bai
ĠpynÃ¯ aidkam
ĠNar endra
ĠSynd uk
Ġn iang
Ġb er
Ġnong m
Ġc ertificate
Ġv incent
Ġbyn shet
ĠSal m
ba k
Ġt ech
Ġr ben
Ġna g
Ġbat bor
ner s
ag og
Ġti ka
s iang
Ġp o
Ġn on
Ġis o
Ġl itar
ĠL i
Ġkh um
Ġh oping
Ġshi trhem
Ġc han
yngk iang
ĠAss yria
Ġthom as
vis er
Ġrej istar
c ial
Ġia la
Ġr ngiew
ri h
ĠJing thoh
Ġ et
yn jah
Ġt ynnad
Ġda s
ad em
ĠM L
Ġjings mai
tr y
Ġg a
amar ia
Ġm is
ĠK or
ap deng
ĠMaw sh
Ġram brai
U ta
k ren
Ġp en
Ġpyn kha
ĠM DA
ĠC ha
Ġo ver
ath oli
8 0
s erv
Ġba san
Ġt irot
Ġm or
em ino
Ġbym ngeit
ĠSyiem lieh
Ġposit ive
p eit
s yntiew
Ġkh yllipmat
Ġnong shim
Ġjingpyn tip
20 21
bu lance
Ġ ent
Ġn c
Ġkat dei
ĠP rincipal
ĠC hi
Ġmuk him
a khun
Ġd ik
ĠD har
ĠA I
Ġjings neng
Ġlyn shop
t ar
ar m
al ly
Ġa ks
ĠMar wei
Ġn oc
ic ket
Ġjingkh uslai
ĠTh oh
Ġdri ver
t is
Ġd ait
Ġjingshi t
Ġjinglong mraw
Ġpublic ity
k ynmaw
Ġs uid
ban on
Ġ6 5
ks eh
Ġjer oboam
rist ian
ĠB e
Ġpyr that
ĠE ngi
ham pion
ĠPhar phri
ia gra
ka d
ĠS ut
oan is
Ġnongt em
p ut
r angbah
Ġm eh
id a
Ġ200 8
Ġnongs umar
Ġj aw
Ġr ule
Ġjingk hih
Ġjingr ung
U no
Ġly iur
ĠMan asseh
ven tion
Ġkilom itar
Ġlatip lang
d s
h ooid
j on
w ork
Ġba shyrkhei
Ġd iaw
Ġm am
kh raw
ma jai
Ġkhl uit
Ġad ministration
at rei
Ġpynk yndit
b lang
Ġla mare
Ġkyn bat
ĠH oping
ynn iaw
us on
Ġsyn agog
Ġjingi eid
Ġpynkh laiÃ±
ecret ery
Ġkur bah
ĠNg in
Ġan vc
r iel
y er
Ġkyr thep
Ġum bam
ĠG e
Ġ4 6
ner al
fic ation
ryng kham
Ġp ylliem
jan a
Ġias noh
Ġs bun
Ġkyn jat
Ġkha it
ĠNong thymmai
Ġad ditional
ĠTh em
Ġjem ino
chi k
n on
r ing
hi l
kha dc
ĠR om
im elekh
ĠKa ta
Ġkhana tang
Ġjab ieng
, &#
Ġ X
ĠM B
Ġtr aining
Ġph un
Ġmar y
ost el
Ġpynph riang
ĠThom as
5 00
t iang
ĠB riew
ĠT our
Ġv ide
shai Ã±
ber ation
Ġnongp ule
Ġt ein
ĠS SA
Ġmet bah
Ġnongap langbrot
Ġbasha tei
m ang
kh el
ĠR ani
Ġbs uh
ĠEngi neer
Ġjing tap
Ġkh yllah
ĠS ur
ord in
Ġsngew hun
kum juh
Ġel isabet
Ġin jek
Ġch c
Ġarta t
ĠRym phang
ĠParliament ary
S I
dei n
fic it
ĠRis aw
Ġia n
Ġb iej
at ip
sh ma
Ġjingia tai
Ġjingth ep
e ak
p eng
Ġn urse
Ġl ot
kh iah
ĠM r
Ġbah eh
ĠT ei
le x
Ġjingd heng
Ġbei jot
Ġkop i
Ġsl oit
H angta
Ġs dien
Ġb lah
it ies
Ġprogram me
Ġt wad
Ġban beiÃ±
Ġpyn shah
ĠÃ¯ ar
Ġioh lum
Ġmaw ryngkneng
I L
u kh
Ġb l
Ġsngew kmen
ol f
Ġpynk loi
Ġpr ocess
Ġaks iden
k san
Ġia teh
Ġlyng khuh
Ġfor ces
ĠAN VC
Ġmih paw
ĠNong khlaw
ii i
Ġas st
Ġryn jah
Ġka diang
ie t
ĠS ecretariat
Ġth ur
Ġlum rit
Ġtyng khuh
2 00
r c
en ith
ĠjingÃ¯ aleh
Ġrep ort
ĠSait jain
illiam nagar
Ġu dei
et y
Ġpha dar
ĠN yngkong
Ġpar ad
Ġsum er
ĠSp orts
ĠRan ikor
8 6
B un
Y N
z e
at i
Ġda b
Ġmyn thi
Ġv ab
Ġbs ein
ib eon
8 5
K am
l un
p ura
ba ng
Ġp yngkiang
Ġr nga
Ã¯ on
Ġd koh
Ġr um
nong rim
ĠH er
ĠJ os
Ġjingm udui
Ġbu hai
ĠAm pareen
ĠEl isha
Ġs ia
Ġr byf
Ġmyn h
ic es
Ġpr ot
Ġiap hi
gan j
Ġjingit huh
ĠIsa ak
Ġnag aland
p erson
Ġn ylla
ie u
Ġi it
Ġh uri
ĠB or
es er
Ka ta
Ġf inal
t ung
Ġ /
Ġs nar
Ġjingpyn lut
ed e
Ġs s
Ġjingia tylli
Ġa ud
ĠG u
eop les
ĠSab baton
7 3
Ġth iang
al ong
ĠP S
up h
Ġstad ium
ĠLam phang
Ġkhyn Ã±iuh
Ġr s
aw ki
ĠS han
ec k
ĠSan bor
Ġtb ian
Ġjyll op
nolo gy
r as
Ġjing lum
Ġjingk nia
bor n
ak hi
H E
u sh
Ġri ght
Ġkyll uid
Kat to
Ġnongb ri
ĠKylla lyngkot
Ġjing kah
Ġpyn lyngngoh
ĠJ oint
yns ai
Ġsu iÃ±
ĠJo ab
g ani
Ġs ylla
Ġia ineh
Ġiing mane
Ġnongpyn im
Ġtyr peng
Ġjong nga
Ġsh ri
ynr ai
Ġpha si
Ġbi ble
ĠThang khiew
Ġph ohsniew
ic a
khat duh
Ġkylla in
Ġsec urity
K ham
U m
r oit
s ut
Ġha ti
Ġaad haar
r ut
Ġjing noh
Ġjing artatien
ĠU tei
Ġpr od
ish op
ĠTha bah
b yr
Ġj h
Ġl ep
Ã¯ ong
Ġleh bein
Ġtha t
ĠE ks
Ġsaw spah
sng iat
M aw
p uh
Ġ Q
ĠT im
Ġa f
Ġkd up
Ġsain dur
Ġpynsngew sih
Ġtala si
an tine
Ġkh long
kh mih
ĠS erv
Ġjingk yllon
st one
Ġg er
Ġbym hok
ĠKa ei
Ġtour nament
gani z
J H
e ast
k ot
Ġj or
Ġn h
Ġt op
ĠS amaria
ĠU ne
ĠJ entil
ol un
Ġjingm ang
ĠOr ganis
gis la
U tei
an da
ĠS hah
Ġhiar thma
ĠV AB
m ap
ĠB yr
ĠI s
ĠKi ba
Ġpaw khmat
Ġsim on
b ymman
ĠB indo
z ar
Ġs ih
ĠS ar
Ġtr a
ĠP HC
Ġa hi
Ġa has
l ynn
s m
v ate
Ġp il
Ġha mar
Ġnong lum
Ġioh lad
ĠA ad
Ġma jai
ĠMaw hati
Ġpan sngiat
Ġsc ience
Ġvide o
p en
or ial
ĠM et
Ġeh rang
Ġmin ot
rat is
Ġmal ki
p an
Ġs il
Ġpynk ulmar
Ġte am
ĠSyn od
ĠÃ¯a don
Ġmyn ne
ĠT rep
bor ah
Ġsut nga
uph ratis
Ġj ynd
Ġj yllei
Ġu to
Ġm ep
ĠÃ¯a bam
Ġkynt ing
Ġpynb un
Ġjingt lot
A r
Y M
c s
Ġk shaid
Ġs yllok
ik e
Ġman briew
ce book
ĠHynÃ±iew trep
j it
Ġia mih
Ġng iah
Ġkha napara
Ġto wn
Ġ15 0
Ġlyn them
j aintia
Ġkha i
li us
no d
Ġbym don
Ġel ec
ĠV incent
Ġeks am
Ġl er
âĢ ĺ
Ġpar ish
ĠW ing
Ġjingkh ia
Ġpl uh
ĠSaw kmie
Ġp erson
ĠS er
Ġc m
tri c
Ġam or
ĠĠĠĠ ĠĠĠĠ
k put
p i
Ġl ip
ĠJ es
Ġsngew synei
ak hih
Ġsy ier
Ġcor poration
Ġsngew lyngngoh
ĠI ng
ĠFor est
Ġham let
Ġjingiadon lang
w eng
Ġk ud
kh lam
Ġme gha
ĠN eb
Ġtha ba
Ġ5 2
br am
Ġmet Ã¯ap
Phi n
ĠHe alth
Ġba ka
Ġt ender
Ġsha lor
Ġnong ri
ĠT rad
Ġjings aphriang
ĠR TI
Ġpr e
Ġap lai
gisla tive
K ito
Ġp uit
Ġb ok
Ġl ur
es tine
Ġleh rain
ĠJ emino
st em
Ġap ot
ĠShang pliang
d am
Ġk lang
Ġia khaid
Ġm omin
Ġkh wai
Ġsha t
ut o
ĠU r
kha ra
Ġa sh
Ġra shon
ks u
Ġhe bru
c er
Ġd at
Ġl imited
al eit
Ġg race
Ġin stitute
Ġpynr it
ick y
w ait
y p
Ġkyn sh
od om
ta li
ĠJ irang
ĠSh em
Ġlei lieh
ĠBa la
Ġmynba rim
ric ulture
ĠHN YF
Ġk edar
Ġm es
ĠP ang
ĠShi bun
ĠF ootball
Ġshad kmen
ĠHigh er
ĠFr ont
c or
Ġs irdar
Ġd om
ur er
20 19
ĠRam brai
vir us
N ong
Ġs liang
Ġar sien
Ġbha rat
Ġpynb iej
Ġjingkh mih
Ġpang niang
821 2
Ġ200 5
ĠJus tice
b iria
Ġb is
ĠM ei
ph ra
Ġlum pung
ab oh
ers ia
b ei
w e
Ġt or
ynr an
al ek
Ġlang pih
ĠNong thaw
ĠjingÃ¯ athuh
d en
Ġjingt ynjuh
Ġre uben
sit e
a kajia
Ġb iria
Ġai cc
Ġ5 6
ĠCh yne
Ġsyr iem
Ġba paw
ia lehkai
ĠH in
ĠD am
Ġsyn sar
ab riel
ort em
ĠEast ern
Ġtak si
Ġpyng ngad
Ġrej ister
Ġpah uh
Ġk hi
Ġm ir
Ġkhr up
ĠNong bah
Ġkhyr iem
Ġias oi
Ġthan ad
rih ms
H I
eh oboam
ĠB at
ap oh
ĠD ong
tha p
Ġsynr ai
Ġpynit huh
h ol
Ġk e
Ġs on
tip hi
Ġhang to
khu it
ĠV illage
ĠTh e
Ġkr istan
gre e
Ġpynwan dur
ĠK in
ĠJ ait
ĠA cc
ĠA hab
Ġse at
ĠLait umkhrah
m m
Ġpyn iar
Ġkh erub
Ġmyn tor
ki l
ĠD an
ĠR ah
Ġjingi ohi
ĠIndia n
ĠhynÃ±iew phew
ĠDa vid
7 9
N C
h er
ĠP lan
thi r
Ġle ague
uc tion
Ġsyr nod
tai ew
Ġsal m
M ar
k nieh
l ien
yn ad
Ġkat juh
Ġbar ieh
ĠN C
ĠR B
Ġg reen
Ġ5 3
ton io
Ġmb ose
Ġr as
ĠK awei
ĠJ e
il p
Ġjingm ong
Ġmaw iong
Ġjng um
ĠĠ Ġ
Ġher od
Ġisa iah
Ġarti cle
Ġ ep
Ġs d
Ġkh eit
aw an
ĠT ar
Ġmar i
tha bah
ĠKh yndai
Ġiap yn
Ġias yllok
Ġrang li
Ġpyng rope
ens us
Ġs el
Ġar med
for mer
Ġout post
Ġpyll eng
Ġbadon burom
Ġnong ot
as on
Ġum saw
maw long
i or
m us
Ġi i
ot hi
ĠP i
Ġjingb yrngem
Ġriew bymman
Ġ5 1
and id
eb ul
ĠMan ipur
Ġaad har
ĠEph raim
Ġt wa
ol oi
man o
ĠKh yr
Ġdr ug
Ġu s
Ġp uson
Ġw orld
ur ch
ĠS ad
ĠP ass
ĠA S
Ġshym la
Ġpynj ynjar
Ġan ti
ĠMP CC
Ġex am
esti val
Ġpain khana
* *
a bam
v iew
th en
ĠK an
kha si
Ġg ram
ĠG HADC
Ġjingd koh
b il
y al
ha el
Ġha w
Ġkh la
Ġc ar
ĠA ffairs
Ġa ka
Ġphar phri
o kh
u in
ba s
Ġb thei
Ġkyn sha
ĠH at
Ġmaw kordor
soh moh
Ġgo vernment
ĠFor um
Ġquar antine
ad ab
id on
oc ese
tiphi ket
I G
p m
Ġr ural
ka lang
et erin
uc k
Ġmawsh ynrut
a lade
b ed
u li
Ġs mit
as ar
Ġsngew rit
Ġa sher
ĠSh e
eterin ary
Ġm r
Ġh el
Ġai reng
et ing
Ġlyng kor
Ġkhat saw
Ġsup er
0 4
ba sa
ĠS umer
sh mir
Ġf inance
ist ol
Ġbe aiÃ±
Ġcon tra
ow el
Ġshad ap
ust r
Ġpuk ni
Ġjeho shaphat
ĠMot phran
shma el
b na
Ġha d
Ġkh ni
ĠS ep
Ġhi r
Ġpha m
Ġtha m
Ġnang kiew
ĠNong pyn
Ġtyng shain
ĠSi xth
9 9
M an
p f
ĠM er
adem y
h oc
Ġj su
ĠS oi
ĠH ese
ĠT yr
ĠI I
Ġjingpyn lait
Ġv al
ĠMaw p
ĠKi tab
lut e
jah rin
for m
ĠEli jah
c ement
g i
Ġ eit
la Ã¯a
Ġu juh
Ġd h
or ge
Ġsh ut
ĠK al
Ġkhr iat
Ġel eas
ĠSch eme
ĠÃı oannis
cel lor
k jat
m dc
n ath
r ew
Ġt iew
Ġkh op
Ġleh bha
Ġco de
Ġro shan
Ġjingpynkh ein
Ġjud ia
Ġd olloi
ĠH an
Ġar unachal
ĠR on
tha in
est er
Ġhese kai
ĠRai j
k iang
n ad
Ġk long
Ġs eh
Ġs do
Ġjing bah
ngew bha
Ġjingsngew lem
hal lan
ĠBab ilon
J ing
Ġwan lam
Ġshong man
Ġjeh u
Ġsyngk ai
u bab
Ġpyn don
kh ublei
Ġpha wa
re e
ĠUm iam
Ġjeh oi
Ġt his
ĠA iÃ±
Ġph ylliew
ĠSch eduled
Ġbasha phang
ĠMuk him
Ġorganis ation
d in
la tion
Ġpyn kham
Ġw in
er ce
is hah
kh ynd
ĠM ary
Ġkyr huh
ĠH AN
Ġjingpyn duh
hair person
iel d
Ġrym bui
Ġjingduh nong
Ġtyngk ai
P F
y s
Ġia lum
Ġi ph
Ġkh wan
ĠK en
ĠB ha
Ġph rang
Ġsoh tun
Ġdie sel
Ġhe bron
Ġmal oi
R C
Ġt ab
Ġri ck
Ġpa k
Ġjingb iang
Ġdoh ling
ĠSup erintendent
k ol
Ġp ress
ĠP ak
ĠA ng
ic s
ĠW omen
Ġship ara
yns ur
ĠY nda
d own
Ġr ules
Ġpyn lehrain
ĠB ody
Ġin formation
Ġmanag ement
oph y
Ġt ngen
ĠÃ¯a wan
Ġda ju
li h
ĠP ynd
Ġpyns aphriang
Ġhynriew spah
serv ation
olun te
m ei
Ġjingp diang
Ġtyng shop
Ġmal ngiang
fer ence
Ġvi ctor
Ġneig rihms
b thuh
n it
Ġnong spung
kh en
Ġpynk men
Ġpi lat
a shong
Ġb tap
kh oh
Ġjingj ylliew
Ġcomm unity
ĠAct ing
Ġtri pura
ĠJon athan
Ġet c
Ġthur mur
j ym
j al
m ad
p d
Ġs en
Ġd m
ul l
ĠD i
Ġa kar
Ġbai bam
ĠDe ut
myn ba
Ġbap li
* âĢľ
c on
Ġp ower
Ġm ordekai
Ã¯ eng
Ġw eb
op er
Ġ5 8
Ġjingt wa
ĠBa al
Ġan thony
ju ne
Ġlais pah
sam la
ĠJer em
ĠHAN M
k roh
m und
w ul
Ġha man
Ġsh niuh
Ġjingia trei
Ã± iar
ĠR ap
Ġjingwan rah
ĠMo vement
pur ew
Ġshn at
Ġha in
Ġh ostel
Ġshi ra
ĠD awki
Ġar sap
Ġf ood
Ġjingt hang
soh tun
ĠĠ Ċ
Ġes ther
Ġryngk ew
7 8
s ieh
Ġba l
Ġj ngi
Ġp istol
Ġw as
ĠA mendment
Ġsngew dei
Ġkren beiÃ±
ĠAss istant
Ġ* âĢľ
Ġsym boh
Ġjingias yllok
Ġno ah
Ġmil lion
E m
f ety
ia thuh
Ġjing lyngngoh
in th
ĠB DO
Ġjingp hah
Ġg ideon
Ġdieng doh
Ġrah ul
Ġam bulance
Ġnongshong shnong
Ġser tiphiket
ĠSym bud
ĠHin du
Ġshi ni
ĠI m
Ġdieng soh
ow ell
Ġris aiÃ±
Ġbasha thie
Ġp nar
uh or
Ġsh ynna
Ġar sut
Ġjings lem
Ġpynkh ie
Ġur ban
d ait
h eh
Ġka h
th or
ĠK HA
Ġc ol
ĠM omin
Ġsngew skhem
Ġ5 4
jing it
Ġcorona virus
Ġian ujor
d eit
Ġd iang
Ġban bein
Ġi bit
Ġsha tri
ĠD o
Ġtrai shnong
Ġa bi
Ġsah ep
ine t
ĠAm mon
qu e
ĠSta tes
ĠWork ing
raph ew
. ,
K an
n iap
t le
Ġia wan
Ġna ei
Ġh ooid
ym deit
Ġkyn dang
ĠS y
ĠU ba
ĠNg im
Ġdum bur
c em
n at
ai r
Ġl ynn
Ġl ocal
ĠN ep
ĠR yngkat
os s
Ġkhr oh
Ġpoi wir
Ġco un
Ġ14 4
Ġj wat
hi r
Ġnong lute
ĠS hal
Ġioh thiah
ĠH ar
Ġa sha
Ġks ing
Ġco ach
Ġde ficit
Ġfor ce
hara oh
K A
Ġr hem
Ġna h
Ġsngi u
Ġsp ort
bi eit
ĠRangbah duh
ĠMaws or
Ġbran ch
Ġjyn thut
9 7
b h
Ġk es
Ġba ngeit
Ġla r
Ġd war
ĠÃ¯a shong
th up
ĠK r
op e
ĠP haraoh
ĠA nd
Ġlyng khuit
Ġmat haios
ĠjingÃ¯ aroh
ish ian
Ġad ministr
Ġsta nd
Ġpol isi
Kh ie
ĠThoh dieng
p u
Ġjing at
ĠS mit
ĠM or
Ġmyn leh
ĠJ ong
Ġkhun bynriew
ĠKi wei
ĠPri mary
ebul un
l ieng
Ġla ya
Ġn ot
Ġna jan
ĠÃ¯ athiah
Ġkyr siew
ĠD ang
ĠD as
mih ngi
Ġpr um
ni hat
Ġcon trol
ĠMus lim
ĠMawsh ynrut
u bor
iew trep
ĠR ynjah
Ġkynt ur
Ġpynj ur
ĠPhar isi
l ym
Ġn da
Ġpyn deng
Ġpyr em
Ġeleas ar
j istor
hi la
ang no
Ġkha in
si m
Ġjingpyn shisha
Ġnang bah
rad u
Ġcomm ander
Ġ200 7
our ces
Ġmaws or
Ġinter national
........ ........
Ġac tion
Ġt it
ĠL ine
mie d
ĠNong bri
Ġ5 7
br ary
ĠAd ministration
rym bai
ĠMarwei n
' t
Y n
Ġban teidor
Ġshi bynta
ĠM ic
ĠH istor
re g
e ah
Ġba lai
Ġia long
oh li
Ġi bein
ĠT irot
ĠC or
Ġjingiak nieh
Ġin c
Ġjingpyr ta
Ġias uk
ĠÃ±iew beiÃ±
tain ment
M C
Ġs us
Ġha shen
Ġm od
Ġl uk
ka sh
ĠS in
Ġa uthority
Ġkham bha
Ġreg ulation
Ġraj ya
Ġtyll iat
ĠAll iance
bin us
m itar
p him
Ġm ain
Ġl p
Ġl ower
Ġsha tai
it e
Ġnong lait
Ġlong k
ynr ih
ĠS tad
ĠN OC
hap deng
ĠJing pyn
Ġshet kylla
ĠPr ocess
Ġjingjah burom
5 1
Ġk ni
Ġd ai
Ġnong d
Ġw ieh
Ġkyr doh
Ġnongs eng
Ġkai khlaw
ji ju
Ġia ngi
Ġm ass
ĠS o
ĠR iti
Ġbeth el
atholi c
Ġs enti
Ġia trei
Ġnong shah
ĠN I
Ġar ch
Ġum jer
Ġkl un
rim e
etr y
eak er
ĠPang niang
Ġki ng
Ġb in
Ġm uhor
ka ji
ĠB lah
ĠP ost
ĠH or
ĠN eh
Ġtha h
iv ek
Ġkhar bani
Ġlam bok
ĠLat ip
tyng khuh
Ġp ad
Ġl td
Ġkha th
mar eh
ĠT itos
Ġri war
Ġma lik
bha h
nd ra
Ġsaw bthuh
ynt em
ĠKh yriem
ĠMi zoram
itor ium
Ġord inance
Ġha jrong
Ġb ur
ĠM ag
as yllok
kha nd
Ġtn aw
ĠG ilead
ĠNong hikai
Ġjingr oi
lut ion
Ġjer i
ĠHe bru
a ka
y ang
Ġt el
Ġbad no
Ġkh or
ĠP ai
ĠH aduh
Ġpynia khun
ning star
Ġbi har
Ġpolit ishian
Ġkhap ngiah
Ġm oh
Ġi oanis
Ġr yntathiang
un ar
Ġc ell
Ġbah ok
Ġph riang
Ġ200 6
Ġbyr then
Ġfa cebook
Ġsenti mitar
U ne
Ġha juh
et re
Ġum soh
mat lah
ĠpynÃ¯ aid
Ġkar bi
me ghalaya
Ġbala am
Ġnep ali
b ynna
Ġla nong
Ġm t
uk hadnessar
ĠU ranium
ĠH angne
Ġjings ngap
ĠG race
ib eah
Ġpy iar
Ġjingkynt u
Ġjing rai
Ġb ynniaw
ĠB u
ĠG ad
ĠW ei
Ġnongsh et
Ġlam wir
istr ation
ĠLam are
Ġinter net
Ġkhlei Ã±
Ġka jong
Ġm y
am an
ĠB engal
Ġiak nieh
Ġam en
Kat no
ĠPyn iaid
Ġpynhiar kput
Ġchar les
lynn ai
p ynd
Ġm ah
Ġjingk em
ĠL an
Ġa ug
Ġv iagra
Ġtyng shaiÃ±
Ġbat skhem
ĠÃ¯ing bishar
ĠAm larem
for cement
Ġex c
Ġnet work
ĠNeb ukhadnessar
Ġt dong
Ġi wbih
am briew
Ġun der
Ġnongsh na
Ġnongp ut
Ġen vironment
Sh wa
ĠByr nihat
5 5
ut er
yng khong
ĠM is
Ġjings ep
ĠL amin
ĠI ing
Ġks an
ĠKh ie
Ġjingsh yrkhei
Ġbas aw
Ġjingph la
Ġbish ni
Ġtaw iar
Ġweb site
Ġl in
yng rope
ĠB o
ĠU wei
Ġjingia sngewthuh
as k
Ġme ti
ĠMaw ryngkneng
ord er
ill er
ĠKum no
ĠAb salom
Ġm ong
Ġsah miet
rym bong
ST A
7 6
Ġia thoh
ka iah
Ġnong iarap
sh eba
ĠP HE
Ġpyns an
ĠE s
Ġpynj em
Ġnongi oh
Ġpynt yllun
Ġjingias oi
ĠAd ditional
Ġsum o
Ġryng khat
Ġshal yntem
D ang
Ġ ?
Ġp ip
Ġm ess
Ġl ock
hi sh
Ã¯ aineh
kh mah
om bor
Ġlyng khoi
up ara
hang ne
Ġpur no
ĠAn thony
ĠSp ecial
ĠM es
ĠJ an
tr aw
Ġsngew shyrkhei
sa khar
Ġkhlieh duh
Ġde gree
ĠRo shan
Ġlyngkha i
Ġpynkham ti
p oi
p ule
Ġs oso
Ġioh kem
ĠP o
Ġshah jingit
Ġar t
ĠR ep
Ġg il
Ġpynk oit
c us
Ġ asa
Ġka th
Ġd rai
Ã± i
Ġf und
Ġjingiak ynad
ĠjingÃ¯ adei
Ġlam khmat
atip lem
ĠLatip lang
Ġ !
ha si
ta lang
Ġpyn lah
ĠM yr
Ġ4 00
pyn long
ui Ã±
eb us
lin k
l oh
Ġng uid
ul om
Ġpynsh oi
ĠHe ad
Shi llong
kh la
ĠS ai
as aid
Ġsam son
Ġjingpyn kup
Ġkhraw bor
Ġrang ialehkai
- -
d aw
Ġki ang
Ġha ing
Ġm ian
ang ka
en a
Ġw icket
Ã± iah
Ġmaw lynnai
Ġjingiak ob
Ġal ong
ĠDoh ling
ĠRah ul
Ġjeri kho
em an
Ġbar abor
Ġpyr man
Ġdur bar
Ġkhyr dep
Ġsta tes
Ġbeth lehem
b hur
i f
Ġc bi
Ġc ustom
Ġtr ophy
Ġsah dien
Ġtour ist
ĠHam let
ĠÃ± iut
ĠManag er
Ġteach ers
e y
m o
Ð ĩ
Ġm ortem
Ġkh lein
Ġw ill
ud p
Ġum dum
Ġin spector
naba s
Ġchi ld
ĠAI CC
Ġpak istan
M P
a khlad
y d
er ran
Ġph raphew
Ġy ear
had ad
hal upara
Ġnongai buit
Ġjud as
Ġsin ai
j in
k wah
l ok
Ġjingk ord
Ġshong duh
nes is
Ġreg ional
A P
b eth
Ġban i
ĠT ein
ynt iat
thoh lieh
ĠShi ra
Ġpl ied
Ġkyrd em
Ġsait jaiÃ±
ister i
Ġpol ling
Ġjingsha lan
ĠAs st
Ġkhyll ie
Ġnc p
d l
ĠT ea
Ġjingm ap
Ġky iuh
Ġjingit ynnad
erran ian
! âĢĻ
5 6
U ba
b s
g g
Ġs ma
Ġkh nai
Ġnong j
ad e
ĠU ta
Ġar ts
Ġg om
Ġlai Ã±
ĠMar ngar
ector al
Ġnongs yntiat
Ġdum a
Ġjinglam ler
sh ing
sh eth
ĠL ab
men song
ĠG a
Ġpeit kai
ĠKha m
ĠKh ubor
Ġch eck
Ġsha rai
Ġshi taiew
ĠP oh
Ġmar ten
Ġpynk yrpang
ĠG ali
ĠNong lait
Ġ6 6
Ġpass ah
ric ket
Ġsab bha
ĠJer oboam
ĠPur no
K HADC
h oh
om i
Ġjingk hai
Ġme eting
Ġing sah
Ġkhat wei
namar kata
Ġmot or
Ġtri bal
Ġpun khun
sot ti
ede kaÃ¯ah
Ġdrai bar
5 7
: &#
R E
y ier
Ġia wer
Ġjing ban
Ġjing weng
Ġmaw pat
Ġmaw nongrim
Ġkd iah
Ġkhar krang
Ġbs eiÃ±
tt ar
ĠMed ical
Ġplasti k
Ġpu ja
Ġ 8220
Ġba khatduh
Ġi c
Ġi w
is on
Ġc ity
Ġc andid
Ġleh sbun
ĠG ospel
Ġmet or
re el
Ġdr o
II I
Ġshe khem
Ġca a
Ġgali lai
Ġparad oh
ĠServ ice
L eh
Ġt en
kam ni
ain ia
Ġmaw rie
ĠJing don
Ġjai l
L yng
p resident
Ġp n
yn in
Ġnong Ã±iah
ĠM ak
Ġioh pdiang
ĠE le
ĠMar i
ĠNE IG
ĠWat er
Ġmynn or
Ġmid ian
Ġp uh
Ġpyn wai
ĠP alei
Ġmaw lyngk
Ġks ang
Ġhigh way
Ġsyr not
bri dge
ĠMal ki
ĠC itizenship
ĠL useta
ol ution
Ġpa jih
Ġjingpyn iap
Ġiap oi
Ġryn ieng
Ġjinglam phrang
1 00
Ġs enior
ne la
ut ia
âĢ ¢
ĠM id
Ġpaid bhur
ĠE ng
Ġpynb ynta
ber b
Ġkhat san
Ġjerem ai
ĠNag aland
d at
Ġb ut
Ġjylla ka
si c
ma cy
Ġwah eh
Ġjak poh
Ġjingpl uh
Ġserv ices
Ġtrans former
Ġkud am
7 2
I C
g et
ar ing
en nai
ĠH ad
br ia
Ġjingpynr em
Ġmawp rem
ĠPha wa
Ġmawlyngk niap
h ep
m ulong
Ġkh mied
Ġda mas
sha phang
ĠB un
Ġpha d
Ġpa ta
Ġmaw thadraishan
ĠO ut
Ġnar tiang
Ġsub ject
Ġquar ter
8 9
m eng
Ġm isteri
Ġleh beiÃ±
si l
Ġri f
Ġsngew lehrain
Ġpul om
Ġjingpyn Ã¯ap
ĠKh raw
Ġin charge
Ġy o
Ġsi ma
Ġnongleit kurim
Ġs mat
es os
Ġjingia tip
il y
ĠL and
Ġshong nia
ĠI so
Ġkyll ut
Ġkr ung
ĠKur bah
Ġkath oli
p ass
r ot
Ġba ar
Ġha teng
Ġbad ei
ĠC har
ĠA L
ĠL eh
Ġpar o
Ġpynk ohnguh
Ġjingth ied
Ġjingth rang
Ġjingi w
Ġsan spah
Ġjingsh ukor
Ġtyr os
Ġaw ard
Ġpynph ong
W A
b niah
k u
n al
Ġk jp
Ġr ally
en ik
er ica
ĠK tien
Ġlah kmen
Ġpyr sad
ki ta
ĠP ugh
ĠH ome
ĠL icen
nem sniew
Ġpyns ngap
Ġjingb urom
Ġ5 9
Ġin f
ran t
Ġle banon
Ġtri bunal
Ġbaha khlieh
ĠSut nga
D ivision
e shon
t em
w ood
Ġd ip
Ġjing le
Ġpr ie
Ġcon tainment
ĠO p
ĠPetr ol
sur ance
s un
x y
Ġb h
Ġb il
Ġw kh
Ġkum tei
eng ali
Ġkha Ã¯i
Ġc ultural
da la
ĠP yngrope
ĠH ouse
ĠA in
ynn ah
Ġbym kohnguh
jing ia
ĠBang la
ĠBab u
ven ue
sat i
Ġsik ret
Ġs wer
Ġla lot
Ġm umbai
Ġr oll
ĠS n
Ġc ulture
ĠB ak
da jied
Ġg ate
Ġhang tai
re ar
ĠDa y
ĠJa ka
ĠGo vernment
Ġpun jab
Ġkatholi k
e o
e kh
m uri
p s
Ġ ;
ha ka
Ġh u
Ġhi t
ĠH o
ĠI A
Ġpynj anai
Ġjingkh ie
Ġkhar puri
Ġsynt iat
Ġeph od
ĠQ u
Ġd yngkhong
Ġm om
oh thiah
sh yr
Ġjingia i
Ġph ud
Ġmaha dei
ĠPer mit
i ra
y iap
Ġt ymp
Ġr b
lang sohmoh
st rum
Ġmon lang
ĠIn stitute
Ġsot ti
ĠTran sport
Ġtech nology
l uit
Ġ )
Ġha bud
âĢ ¦
sh tra
ĠâĢ ¢
Ġriew blei
ak hin
sa ia
Ġab imelekh
ali fication
bo sheth
Ġhind i
ĠSim on
Ġia nga
Ġt yllun
Ġkat ai
Ġkyn shi
ki ei
ĠD um
Ã± ium
Ġlam bor
ine beh
ĠMa jaw
Ġkhyndai lad
Ġthei sotti
Ġbish op
ĠKs iar
radu ate
Ġu ss
Ġl oit
Ġsha jan
Ġai nong
Ġc hallan
Ġsat ar
ĠjingÃ¯ ada
Ġlam in
phi w
ĠY n
Ġsec y
Ġli lam
ĠPublic ity
a y
v it
Ġm rs
ym ent
Ġjings ma
Ġmar pyrshah
Ġpa ham
Ġ5 000
Ġlait lan
Ġing khong
Ġkhar lukhi
ĠpynÃ¯ oh
Ġab ner
ĠSeng bhalang
Ġex amin
Ġshal lang
n um
r khie
Ġl or
ad er
st ieh
Ġks iang
ĠW itting
Ġres ident
ĠBar eh
Ġjingjah thait
Ġsn iawbhalang
Ġmawk ynrew
s kor
ng mat
as uk
Ġjylla ha
Ġf ran
tha la
Ġjan a
gh bridge
Ġlieng bah
ĠLab our
H ooid
Ġk g
Ġia tylli
Ġm ur
at es
Ġkh em
in ar
ĠB ai
kha n
ung oh
Ġph yllung
Ġiak ane
ĠJing lait
ca tam
lik eshon
strum ent
5 4
g ation
l ynti
Ġ %
Ġnong rem
Ġnong jri
Ġc hampion
ĠJ en
Ġma ji
Ġsem i
Ġlyn Ã±iar
Ġkor phiw
Ġor ganiz
rip tion
cor ona
" .
O SE
r and
Ġk ynrei
Ġn es
Ġsha bong
li w
Ġjingleh kmen
Ġmas k
ĠRi ght
lo w
Ġpri vate
Ġron nie
he al
ĠMr k
ĠsuiÃ± bneng
6 8
6 9
b ishop
y e
Ġjing lyng
ĠS har
Ġtr iang
os ia
Ġpynb thei
ane e
Ġ6 7
pl ing
Ġbai eit
Ġbas khem
star well
Ġmanag ing
jir em
k ano
Ġkh ra
Ġw itting
al iang
Ġbar li
as i
Ġsk ei
Ġkol kata
Ġjingpynk iew
ĠShad ap
5 2
h n
r wiang
s iej
Ġba jur
Ġt uber
iew phew
Ġc are
ĠT rip
ph yrnai
Ġa j
ĠÃ¯oh thiah
his ien
Ġjingbym don
Ġjinglut e
Ġplan ning
7 4
j ngai
p w
Ġs r
ar ter
ynr oh
kh leh
ĠM on
Ġpha war
ĠC HC
ĠA hi
ĠA ug
Ġtei linia
Ġreg ion
ĠAp ostol
ĠLan ong
b isu
i ei
Ġha la
um n
mar a
ĠR yng
Ġks eh
ĠÃ¯oh kynti
ĠMaw thadraishan
Ġch er
ĠLyng ngam
ĠAm or
Ġsyr tap
ric k
Ġ197 2
b m
u ei
Ġs q
Ġj ri
Ġd kut
ĠÃ¯a said
iew bein
ul lam
Ġap likeshon
olunte er
c ription
k n
th ew
Ġc ensus
ĠB order
ĠJ am
kha i
Ġa uto
ĠI aw
Ġpyns awa
ĠG reen
ĠF e
Ġ8 5
Ġjingdon kti
cc l
Ġsc reen
Ġgo od
Ġtoh met
P R
T C
Ġd ng
Ġna than
Ġc ec
ĠJ aid
Ġsngew phylla
Ġg s
bid i
ks is
ka y
ĠK edar
ĠM em
Ġv dp
Ġbak yrpang
esh bon
ĠPro ject
Ġinter view
Ġhistor y
Ġpai em
. )
K I
Ġka le
Ġha ve
Ġt liw
at ei
li ght
ĠH ous
ĠT own
ud an
Ġjingp ra
ait lang
ĠNong spung
Ġam pati
Ġch ristian
ĠKhar lukhi
ĠLe ague
Ġsup ply
ĠSt ep
byter y
Ġplasti c
t ngen
Ġt up
ta lion
Ġpyr d
ĠP M
Ġmar khap
Ġnang tei
Ġlang sning
mu la
Ġ6 8
Ġjingshah jop
ish na
Ġmin ing
Ġal e
shim et
Ġbet han
kas ia
ĠAad haar
Ġiapyn beit
Ġlock down
e hi
m ynt
s ak
Ġt al
at har
kh nam
ri l
ti h
ĠB os
ĠN DA
to it
tha ba
ĠMaw iong
ĠSh ri
Ġ7 2
Ġnar puh
Ġbang la
lic ation
ĠLe vel
Ġz enith
Ġpolit ical
Ġtour ism
Ġcab inet
Ġmynn yngkong
ĠTrip ura
Ġs ed
Ġs odom
Ġp li
Ġsh rong
kh ein
ĠD D
Ġsngew triem
mat i
Ġbun bah
Ġma yr
ĠG er
Ġdaw bah
Ġjingt eh
re ement
Ġpynshi t
Ġstep han
ks uid
Ġsy stem
ĠRe uben
dieng jri
ĠOffic e
ĠSoi tan
M at
n c
p e
Ġi d
Ġsh lem
ĠS S
ĠS k
Ġjingia kajia
Ġmar ks
Ġnang mih
Ġpynj ia
Ġlut ksan
Ġad viser
Ġkhyr nit
hara shtra
Ġli beration
Ġsut ing
ĠSc ience
reat er
ĠNC P
ĠPai em
T A
Ġw ir
ĠR ural
Ġpar ab
Ġjingpyn donburom
Ġkhr um
Ġsoh ryngkham
lem ent
pyn beit
ĠKhar krang
ĠSait jaiÃ±
5 3
6 2
K im
Ġp e
Ġd y
Ġth wei
ir am
tha i
Ġdieng pyn
Ġtar iang
Ġbom b
Ġchi na
6 4
G S
w i
Ġn eng
ne y
ĠÃ¯ ew
Ġkha lai
ep endent
Ġkyr ng
Ġkit rwiang
ĠA sh
st er
shi liang
Ġsaw angka
and al
Ġlam phrang
Ġad am
Ġdirector ate
Ġjingph et
Ġham saia
Ġsyngk ien
ĠMal ngiang
ĠRong biria
c omm
n ei
r yn
Ġj ylli
ĠK mie
ĠH S
ph ylliew
Ġiing syiem
Ġbam ut
ĠBa bha
Ġjingbam sap
ow al
Ġnongs am
ton ment
Ġtri be
sai wul
ĠMin istry
Ġjingsah kut
Ġmam la
Ġdamas kos
P him
v ing
Ġp d
Ġm it
Ġjingk yang
ĠP eoples
ĠD ar
Ġar met
ch ers
ĠShi bidi
Ġkhat phra
Ġpang nud
f u
l umar
u aid
Ġk un
Ġn usi
Ġnong shad
ĠB neng
ĠJ ain
ĠA c
Ġjingpyn sh
Ġjingb thei
Ġbi lat
ĠPar iong
Ġiashim bynta
vern or
o a
t ep
Ġba ri
Ġn hai
or a
ta ge
ap an
Ġleh kai
Ġbun jait
Ġel ia
Ġdr ama
han an
Ġad c
Ġbi lor
ĠÃ¯ai shah
Ġbyr tong
Ġbasha poh
Ġpynshah shkor
Ġmynh ynin
ĠPak istan
K SU
ĠK im
Ġc onstitution
as ta
ĠC RD
leh se
rad e
re as
Ġiap om
alor e
Ġnongpyn i
Ġkord it
Ġfir st
ĠDur iaw
umn uid
F A
r yngkat
Ġba jrong
on sar
ĠÃ¯ uh
Ġw ell
ĠS irdar
Ġphi lip
Ġpat haw
ĠP un
Ġjingpyn hiar
myn jur
Ġrick y
h ra
ng ot
Ġp ersia
Ġd en
Ġb el
Ġm ishon
ĠS uk
mar t
ĠT ech
ĠN angbah
ĠD u
Ġa bram
ic ial
Ġpan poh
Ġad kar
ĠPyn ban
ib le
tain ia
khara Ã¯ah
H apoh
S B
p et
Ġba jan
Ġs tr
ai m
Ġb est
Ġh uman
ĠS wer
ĠK I
ĠP B
ĠP ra
na ta
Ġkale b
b us
s en
ĠB er
ĠU C
kha d
Ġjingb eh
bok lang
Ġlicen ce
Ġent ry
Ġcontra ctor
ĠHese kaÃ¯ah
E O
M en
d iaw
o yment
t ml
Ġs ig
Ġn em
Ġt ian
Ġt ara
ĠB har
as nam
ĠA sher
ma li
Ġlyng skor
Ġhaba r
Ġf er
Ġpr uid
rin t
Ġshil ynter
Ġjos ai
ĠKol kata
Ġparab riew
8 8
o or
Ġs ylliang
Ġu cil
Ġr ehoboam
Ġlong shuwa
ĠK JP
li ff
Ġc hairperson
Ġth ut
ĠP al
ĠT om
Ġmar poh
Ġbam ja
Ġdur blei
wat la
ose shon
Ġmus la
Ġtak rain
Ġmawp ud
Myn ba
ĠJait bynriew
M DC
f ederation
n ic
z o
Ġm m
Ġl g
as ai
kha rai
Ġpar iat
Ġg olf
Ġ6 9
Ġdew lynnong
Ġsu chiang
Ġsim eon
Ġpynm yntoi
Ġag riculture
Ġhat majai
ound ation
Ġkon sti
ĠNep ali
Ġs ecretery
ei l
ing bishar
Ġt at
Ġi beiÃ±
Ġna jrong
yl e
Ġc as
as ad
ĠN H
st r
Ġmar uti
Ġshong kai
Ġjingpyn lip
dc l
and i
Ġam alek
yrng ia
Ġnongkha Ã¯i
Ġcom so
ĠTei linia
p ot
Ġ one
Ġt es
Ġl useta
Ġng op
Ġw iang
ĠM en
as him
Ġjingk ohnguh
ĠN aduh
ud y
Ġf estival
Ġks am
Ġpynia khlad
bri j
Ġrkhie beiÃ±
Ġpynst et
era cy
the nes
ĠPass ah
0 6
Ġ 82
ba nd
ba tai
Ġba halor
Ġha khlieh
ing ton
Ġr ed
uk ta
ĠA ir
Ġma jistor
ĠjingÃ¯ alang
Ġdie r
Ġre shon
Ġrym pei
ĠÑĹ ing
ĠPro gram
ml uh
ĠRobert s
c m
k e
k hi
k ieng
Ġba shan
Ġd ig
Ġn ur
ĠÃ¯ ng
Ġh ss
ĠK ot
ra ft
ĠT r
il d
ĠR ules
Ġpar asnam
ane sh
Ġ6 2
Ġis lam
Ġright s
Ġjingkhai i
Ġkyrng ah
7 7
A R
I R
O NG
Ġna ph
Ġjingk hap
ĠP an
ĠA ud
ĠL y
ĠL imited
Ġlait kor
Ġkynr up
Ġ19 48
ĠJon es
ĠJud ia
ĠStad ium
5 9
d om
k ra
it ional
ĠK it
Ġjings op
ĠL eb
Ġum ling
Ġmaw bynna
ĠKhar bani
Ġcomp lex
ba ti
Ġs ek
Ġpyn noh
um ent
Ġsh rah
am on
sh ken
Ġkyr ain
ĠA h
il m
ieh noh
Ġmar ket
Ġ6 00
tan t
ĠLyng khoi
Ġjingbym lah
ĠHe bron
Ġshar ing
omin ic
ĠLang pih
ĠJeho shaphat
ĠCor poration
0 9
r ta
Ġm iaw
Ġw illiamnagar
kh ur
om o
sh na
ĠM ah
ap ur
Ġun i
ĠNong ialam
ĠMe gha
Ġcomm and
ĠAm pati
kyn tien
Ġgu ard
Ġjingpynd ait
a shem
a kah
n ical
u a
w ners
Ġp eter
Ġi shyrkhei
Ġkyn toit
Ġshim iet
Ġa li
Ġa kasia
Ġjingb ieit
lo od
Ġpla yer
k nia
m el
t c
z areth
Ġs onia
Ġjing da
Ġja catam
ĠC BI
Ġjingj aboh
nd uli
20 20
Ġjingr ing
nai tang
ĠPyn thor
Ġshylla ngmat
ari us
Ġsed ekai
Ġka w
Ġs iaw
Ġt oll
Ġi ne
Ġkat e
ut ta
ĠS DO
Ġja la
ĠC C
Ġkren bein
Ġsk ud
Ġe jh
shi sien
Ġlam mihngi
Ġnongk ynti
Ġtor ti
C EM
R B
ĠÃ¯a soh
Ġc um
Ġc up
Ġjingk dew
ĠP nar
Ġg og
Ġjingpyn kut
Ġe v
Ġ19 47
Ġjo ash
ĠKhr n
Ġ200 3
Ġnongkha i
ĠJeh u
ĠRaj ya
a khlia
p ower
Ġ [
Ġda ki
Ġkyn ad
Ġc ricket
Ġjingp ut
ĠC om
ĠA ction
Ġkham bun
Ġsaw kun
Ġco al
Ġpynkh raw
Ġkl ep
20 15
Ġjingai ti
Kum juh
Ġpynr iewspah
Ġbab e
Ġgo al
Namar kata
Ġtrad e
ĠSe Ã¯on
Ġprod uct
Ġelec tric
ĠPi lat
enik ton
nata ka
c l
Ġs yl
Ġj lan
ei soh
Ġia thir
Ġjing niew
Ġw e
is ta
kh reh
oc ument
Ġv eterinary
ĠF ran
Ġch urch
ĠAr unachal
Ġkaiph ot
ĠTri bunal
Ġkhni ot
ĠRon nie
b yndi
Ġi shmael
Ġnong iew
ĠJ SU
ĠT uber
ĠN e
ĠG roup
rad han
ĠjingÃ¯ alam
Ġpro berb
ve y
Ġjingkynt ait
Ġnaph tali
l ep
o lar
Ġjingk yntiew
Ġkit khia
Ġmaw roh
ek ka
Ġkhr ui
ĠjingÃ¯ am
Ġcon s
Ġlym b
Ġkhyll iap
ĠBas an
AT AM
k ein
s kur
Ġ empl
Ġha s
ka l
ĠS or
ĠM ad
ĠR iew
Ġjingth wet
Ġo c
Ġkhr iam
Ġde borah
Ġkhat lai
ine s
Ġle gislative
Ġ197 1
ĠSab bha
Ġorganis ing
ĠOrganis ation
ĠEng lish
r ting
s umar
Ġm s
ĠS ei
ĠK J
ul y
ĠC amp
ĠR iang
ol ia
hang no
Ġjingth ombor
ĠF inance
ro und
Ġkhrist mas
Ġat om
ĠIn ner
Ġpynit ynnat
ĠTa xi
ĠComp any
Ġscreen ing
s oi
Ġha shwa
âĢ Ł
ĠP ress
ĠL ot
Ġpar k
ĠW orld
Ġjingsh et
20 14
ĠBan teidor
M ano
p ud
p ulit
u ary
Ġs tang
Ġb la
Ġm ccl
Ġr ain
ĠÃ¯a shem
Ġh ur
is hai
Ġai bor
Ġar rear
Ġjings angeh
ĠW KH
Ġag ency
Ġbos co
Ġtak ma
Ġind ustr
ĠÃ¯as yllok
Ġjingpynd ep
Ġhese kaÃ¯ah
ĠMB OSE
dein khlam
ĠUr ban
ĠKHA SI
9 5
b es
c is
h et
k er
p res
r om
Ġw apung
ĠS on
ĠS yngk
ĠM oo
Ġmaw bah
ass am
ĠjaiÃ± phong
Ġbakh laiÃ±
Ġjingpynk yntang
Ġ0 5
Ġrud nong
ĠÃ¯am briew
ĠMet bah
9 8
g ency
Ġba y
Ġba zar
Ġla n
Ġkh ynr
Ġsh ynriah
sha t
da Ã¯ah
ok pot
ĠD al
ĠF ood
Ġjingr is
Ġad hoc
Ġra khel
Ġan tonio
ĠPar ish
Ġsar ma
art iang
Ġiadon lang
ĠPhar eng
ear ch
Ġmark ylliang
ĠSn iawbhalang
p ham
Ġr uth
Ġr khiang
ĠS il
ĠS us
ĠR yntathiang
im al
ĠG il
Ġjingsngew skhem
Ġbakh lem
ĠIn spector
Ġsal onsar
ĠKyn thei
Ġx ii
ĠVi ctor
byr tha
ĠSep ngi
a bad
k g
n s
Ġki aw
Ġd up
Ġn ob
Ġjing ÑĹ
Ġt ait
aw l
ĠS ein
ĠP yllun
Ġel ek
Ġst em
20 13
Ġch e
Ġpynsh eptieng
Ġ200 4
Ġpynm eh
Ġben ami
ĠBeth el
kay ukta
6 7
R S
j o
k tah
m la
Ġsh eng
Ġda bor
ep co
ĠH angta
ĠL td
Ġjingm lien
Ġpa y
Ġnongia shim
Ġf arm
Ġdew byrtha
Ġy ou
Ġbala jied
ĠSup er
Ġsab ut
Ġshar ma
ĠPol it
mal ki
ĠShal lang
ĠLicen se
p ing
Ġr ak
Ġr ngad
Ġsh ynr
ĠS ecretery
ĠK yntang
ork i
ĠJ N
ĠT haw
Ġpr oseshon
Ġkhar jahrin
tynn at
Ġmap hi
Ġjingiap ait
ĠPhi n
Ġtim othi
Ġniew kor
atrei lang
Ġbis wa
h ynriew
Ġka lah
Ġla id
Ġt yn
Ġshi jur
ĠK iang
ĠA uthority
Ġg ur
rai Ã±
Ġmaw t
sa iah
Ġjingsngew kmen
soh pen
ĠNa ba
Ġmai eid
Ġ0 1
ĠHer od
oper ative
shyr pi
ĠDum bur
a j
a sha
j akor
n iaw
t ed
Ġs ynrang
Ġp iat
Ġl ing
Ġc ur
et ur
Ġjingia shong
lam ler
Ġsa fety
Ġar ab
ĠG ideon
Ġ7 4
Ġjingbym kohnguh
ĠÃ¯ai sah
Ġthong ni
eri kho
ĠKyr men
Ġmess ai
H angne
R P
y o
Ġla ka
Ġi tei
Ġr c
yr khat
ĠM oh
Ġar e
ph on
82 30
Ġ3 000
Ġjingth ngan
Ġ6 4
Ġcent er
gan athan
Ġthan at
ĠBu ilding
M B
n pp
Ġp ong
Ġpyn thoh
ka iaw
kh iat
ĠS ylliang
Ġc le
ĠR icky
Ġg abriel
Ġma jaw
Ġko hath
Ġmet ric
Ġ6 3
Ġ7 00
ĠjingÃ¯ ohkynti
jing pyn
ĠComm ander
ĠKhar puri
Ġfor m
Ġshang pung
tap ur
Ġjon ah
Ġge orge
ĠKar bi
mus iang
ĠEle asar
e v
f ield
g ative
Ġt yndong
ar ch
am ily
ĠM u
ok e
ĠA P
lyng ka
our ce
ĠSt ar
Ġse Ã¯on
ou kas
olog ical
ĠInter national
ordin ation
d ul
Ġm d
Ġi pc
Ġsha bi
ĠK e
Ġkha wai
ĠM C
Ġjingpyn j
mie j
ret ari
lar pih
Ġsat i
Ġcomm erce
Ġsy aid
Ġwork er
Ġac ademy
Ġsad ok
ĠHat majai
m da
p ro
Ġba sh
Ġs idon
ai sah
Ġl u
ĠÃ¯ athuhlypa
Ġth or
Ġjingia m
ĠJ pw
ĠC r
yll en
Ġsam rkhie
Ġtip briew
Ġ7 9
qu ir
Ġat m
ea ce
ĠLang sning
ĠReg ional
Ġsn ier
ĠMawk ynrew
Ġteach er
Ġchan cellor
k y
t ur
ing doh
Ġl et
yr mang
th ing
ot t
ĠP la
ĠC M
ĠC ard
Ġshong wai
Ġad v
ĠMar iang
Ġed itor
ig en
ies er
shem phang
ĠLap alang
Sh uwa
uct ure
Ġbymdon dor
hol s
ĠRB YF
Ġiph ieng
Ġjingpynsh oi
I D
i ous
Ġha b
as noh
Ġpha lang
ĠC ement
Ġpar king
Ġjingth er
20 18
Ġde f
pat hai
Ġsynr em
Ġad ong
Ġbyr sit
Ġkor inth
Ġshal lan
Ġprot ection
Ġmom bati
Ġsek retari
Ġba shong
Ġs die
Ġia bam
it ee
th iaw
Ġw al
kh or
ĠS yr
Ġbar eh
mat h
Ġriew khuid
Ġsan ad
ĠjingÃ¯ athuhlypa
20 16
Ġbe er
istan ce
Ġphew se
stur dy
Ġarch bishop
6 3
U R
p ai
p han
Ġla war
Ġd gp
Ġia ishah
sha it
sh eptieng
Ġpyr thuh
Ġhi man
ĠD y
Ġri k
Ġtha b
ĠA DC
ĠR im
Ġbha van
ir ls
iat har
ĠMaw pat
Ġkur kalang
Ġjingr iew
Ġlehnoh ei
Ġpynkup bor
ĠTa x
Ġmyr siang
Ġlongk pa
ĠUC IL
b teng
d ap
s um
Ġp bm
Ġia tip
Ġc eo
ĠB ran
Ġpat lun
as ylla
ĠA M
Ġjingj yllei
82 43
ed i
Ġnongia leh
Ġjingsngew rit
ner gy
ara Ã¯ah
Ġan y
ĠAr ts
Ġkhong sit
Ġkynd iah
Ġnusi p
A D
H LC
S hah
d ai
d istrict
Ġs ebulun
ne dy
Ġsh yll
ĠS ynshar
Ġc atholic
ĠA bi
Ġlyng ngam
don ia
Ġsyn jor
ĠMaw rie
Ġ6 1
Ġjingleh hok
Ġ7 8
Ġbu y
urs ing
ess or
Ġli brary
Ġpynit ynnad
tre am
ĠBala am
igen ous
K yn
c ard
e donia
p har
Ġk ram
Ġjing ap
or rah
Ġsha m
Ġlong trai
kh on
ĠS ah
Ġg ath
Ġjingb ud
ĠNong thoh
ĠF ir
Ġmat ti
Ġcon servation
ĠO rd
Ġias am
Ġmi kah
Ġbo ok
ĠPyr khat
Ġjingtieng burom
ÂłÂłÂłÂł ÂłÂłÂłÂł
ĠSin ai
. (
L ai
b ution
Ġka s
Ġb ike
ie re
Ġlong shwa
am endment
ri day
ĠU no
Ġne epco
wan lang
ara yan
Ġphet wir
Ġnongs iang
ĠIn formation
ordin ator
pd eh
J aintia
h y
h ya
y ut
Ġka shmir
Ġt iak
Ġb jym
ĠS en
ĠS el
ĠS onia
Ġkam phylla
Ġioh nong
Ġ1 20
ĠH otel
ĠC ol
Ġg ar
Ġbak ynsai
Ġem er
Ġsar ang
ator y
kt hang
bir th
ĠTour nament
R AI
S ngewbha
d up
Ġka liang
Ġp um
Ġr ab
Ġna lade
er ve
ĠM ano
el estine
ĠJ I
ĠJ op
Ġman ik
Ġpynk yllon
ic hols
Ġsyn ei
Ġsur i
war i
hur y
Ġjingis ih
ĠFor ce
ĠSec urity
Ġsohp et
ĠIs lam
Ġtra ffic
Ġperson al
Ġcol ony
Ġluk ha
Ġtara jur
) ;
j oy
k m
t ymmen
Ġl iew
Ġnong hiar
ynr um
sha ba
ap ara
ĠJ erikho
ĠD oktor
ĠâĢ ŀ
Ġg ibeon
Ġlum shnong
Ġbam pong
Ġriew sniew
Ġjingt uid
Ġbhoi rymbong
Ġbas tad
Ġpynt wa
las nai
Ġsynn ia
ĠLi beration
Ġtein well
Ġrum a
khynd iat
Ġexamin ation
str uction
H ynnin
p ol
s niang
w est
Ġk lass
Ġs lip
ka li
ĠM E
Ġioh kam
ĠC ustom
Ġjings ynran
ĠL ym
ph niaw
Ġpynp ur
Ġ7 6
Ġam erica
ro w
ĠTh ong
hil ls
Ġyear s
ĠStep han
b ul
l uh
v esti
Ġd ec
Ġpyn Ñĸ
at ed
en is
kh Ã±
sh iang
yll ien
Ġpa li
trei kam
Ġf ish
mu ganathan
eph thah
aleh kai
asa Ã¯ah
Ġreg istration
Ġmi neral
Ġkad aw
Ġpynph uh
Ġsiang shai
cha mati
Ġkilom etre
Ġjes se
ĠPynd ap
0 8
um snam
Ġnong mane
Ġsngi ka
Ġjingk yntur
ĠH ind
Ġpynj ynsur
Ġlap bah
Ġam os
Ġcon ference
Ġpynt uid
Ġlaw sohtun
Ġkr ist
tyr nga
kher jee
ĠPun jab
m em
Ġba hai
Ġp am
Ġm yng
Ġw hi
ĠS ain
ĠM umbai
ĠB al
ĠC ultural
te g
Ġv olunteer
Ġjingt ur
gh mara
jing mut
Ġkhyr im
ĠCh ristian
Ġhe aring
ĠÑĹ oh
Ġgo vt
Ġnom bor
yan mar
gen star
ĠJAC ATAM
Ġbapaw nam
Ġjingkord it
Ġtup ia
l on
r ukom
z awl
Ġp et
Ġha nd
Ġia leit
Ġn rc
Ġi o
ĠS em
uk i
Ġleh hok
ki ll
ĠN on
ĠC han
Ġum kiang
Ġel ectoral
ĠNong rem
ĠW illiamnagar
jar at
ĠF IR
ĠCh er
par ing
Ġbaj ylliew
Ġnes o
Ġhiman ta
P ha
k id
x ed
Ġba lieh
ha ri
Ġd es
Ġjing lyn
Ġr hah
Ġsh op
ĠT em
st ai
tr ew
Ġg ibeah
Ġlang rin
bu li
Ġpol lution
ĠÃ¯ai long
Ġsy ing
Ġ197 3
rist mas
jin iar
ĠGali laÃ¯a
l eng
r b
r ein
Ġs bak
Ã¯ ada
Ġh osia
ynr ing
ĠS hab
ĠC hampion
ĠL P
ph p
Ġshim por
Ġ20 22
Ġ8 9
Ġkhar syntiew
ĠY o
Ġsoi l
ĠSam son
ket ball
myn tri
Ġpathar khmah
Ġjon es
cha y
ĠSha phrang
Ġmait phang
Ġsnoh kti
Ġaud itorium
Ġmod el
ĠProgram me
; )
I V
c b
v es
Ġj ebus
Ġl ist
Ġi oannis
Ġr us
an ujor
Ġw hat
am e
li g
Ġtr uck
Ġshong s
har ai
Ġjingd iah
Ġpr em
Ġkhar khana
ĠPar iat
Ġmu a
ĠNamar kata
tific ation
Ġbo as
ĠChi ld
ĠPB M
Y WO
c an
Ġk dang
Ġla shem
ne um
ĠN artiang
ĠC AB
ĠL o
ĠL iang
Ġshim ei
maw phlang
Ġ9 4
Ġtynr uh
Ġy our
oint ment
Ġse kharai
kan ah
ĠMag istrate
ĠBran ch
ĠOrd inance
H o
a cc
Ġs qu
Ġu ttar
th mu
Ġnong kam
Ġnong dih
Ġth len
ap p
Ġtr e
Ġkyr ni
ĠP om
ĠC EC
ĠA ra
ĠL it
ĠI C
Ġpynd kut
ĠKha napara
Ġlait lyngkot
ub i
tam ent
Ġsp ain
Ġam an
ate g
Ġkhong wir
Ġshang kai
Ġshil oh
ĠZ one
ĠTar iang
Ġn or
ai gn
Ġi ta
on al
an cy
Ġth iar
Ġpar iong
Ġg en
Ġman dal
Ġpa c
Ġpynia pher
est ar
bab el
rim s
Ġal ex
ĠSoh ryngkham
ĠAm it
Ġkhad dar
Ġnongai ktien
ĠBar im
ĠSp ort
Ġjingkam ai
Ġjingpa lat
ĠHistor i
ĠNI AM
xy gen
kn or
Ġdng iem
olia th
5 8
9 6
m g
Ġj halupara
Ġp neum
Ġd oloi
Ġn ec
ur ant
ĠC ertificate
ĠA T
ĠA sa
ĠL yngk
ph or
Ġma harashtra
Ġjingpyn bha
Ġsurok bah
ĠSh yllong
Ġde al
tynn ad
ĠAr ch
ĠSeng kmie
Ġ37 1
pr iah
ĠPlan ning
ĠShe khem
ĠJerem aÃ¯ah
Ġbur ia
Ġmrs sa
Ġjingkhap ngiah
Ġba tip
ha saÃ¯ah
Ġs leh
Ġs iar
ar ai
Ġpyn leh
Ġsh el
th ung
Ġc ap
Ġtr eas
ĠD M
Ġar my
Ġsoh kh
Ġpr oh
Ġ7 1
Ġ8 00
Ġkhar kamni
ĠAd viser
ĠLe banon
Ġas ia
Ġis ai
Ġwork ers
Ġjingit ynnat
Ġby e
ĠMid ian
, âĢĻ
a hati
b jp
c ongress
g raph
o ud
ha im
la shai
Ġha lade
Ġjing Ã±iew
Ġi v
Ġng iam
Ġshi kyntien
ĠM ordekai
ĠU s
Ġjingia ther
Ġme dit
ĠT er
ip athar
ol ding
Ġph yrng
Ġsyiem ship
Ġliang synshar
tha ri
shi bun
ine ma
ver y
Ġram hah
Ġ200 1
had ar
Ġcor p
Ġnongshim wai
YM B
Ġkhath ynriew
D S
T E
Ġla l
Ġb ir
an ia
Ġdon ald
Ġnong tong
Ġnga b
sh e
ĠM ass
ĠP aid
Ġme sh
ĠA D
Ġjings yier
Ġg ener
Ġpynb uaid
Ġiing bishar
ss ar
Ġdr don
ĠjingÃ¯ akajia
ĠKum juh
Ġres earch
Ġis sakhar
Ġadministr ator
7 1
I n
k hih
Ġs te
yn Ã±iuh
Ġkh ymdeit
Ġsh o
ĠÃ¯a long
ylla w
Ġwan niang
ĠP eter
ĠT YN
ĠD ak
Ġjingpyn ia
Ġjingj ubab
Ġbn iap
tia n
Ġ7 3
Ġmat rik
Ġjingbym hok
Ġ25 0
Ġmang a
Ġrem dor
du a
Ġbasha bar
ĠEn vironment
Ġresol ution
Ġtein wel
ĠDam as
Ġiw tung
ĠOp his
% .
S aw
T O
U ei
b ylla
f i
r wai
s op
s kum
Ġp eoples
Ġt ngit
Ġt asam
Ġm eng
at ing
Ġkh utia
ĠS YMB
Ġuba n
Ġmyn ha
ĠP olicy
Ġpha se
ĠJ khÃ±
Ġsa tang
Ġjingpyn shlur
gha n
ĠjingÃ¯ aid
Ġmo tion
Ġbala k
Ġtar i
sam thiah
ession al
Ġjyr sieh
ĠTrad ing
Ġklong snam
Ġnem sniew
Ġpneum onia
j en
m ynsaw
p ait
s uid
Ġk no
Ġba phylla
Ġjing lip
Ġna ga
ta urant
Ġsh ond
it endent
ynr em
ad u
ĠB eh
Ġbar nabas
Ġjingm ad
ed er
ĠNong rim
ĠW illiam
ast ar
Ġkylla n
Ġin surance
ish ni
ĠJing ia
Ġphar macy
ial is
ib on
ĠAb imelekh
Me ghalaya
Ġen forcement
eri ka
Ġjud ge
Ġes ra
Ġkhan as
ĠBi har
ĠTyr os
ĠTea chers
p df
Ġba lamler
Ġu l
yn jor
Ġn er
Ġjing rah
ne st
ĠB J
ĠP eit
ĠA k
Ġlyng d
Ġlyng ngai
ynti p
ĠW apung
diang diang
Ġde ath
ile e
ear im
05 2021
ĠBeth lehem
ĠLong kmie
Ġmis s
Ġdh s
Ġnongj ngoh
ĠTYN RAI
p on
p ep
y wo
Ġk tha
Ġki lan
la th
Ġr owel
ne has
Ġkha rai
Ġc ialis
Ġpat ar
ien t
ĠP ump
ra j
Ġjylla haba
ĠC lass
Ġum khrah
pa lat
Ġpyns a
Ġpyns ep
istri bution
Ġto wer
ĠjingÃ¯ aishah
ĠComm unity
10 1
ĠDe borah
Ġur iah
ana Ã¯ah
ĠKhong wir
Ġkynj ang
Ġsos thenes
Ġtab let
Lyng ba
Ġuni form
) -
a has
v ind
ba kla
Ġj ynr
Ġjing hun
Ġi ss
at phoh
um a
ork ha
ĠD ew
Ġjings uh
ĠR il
ynn ud
Ġg ames
Ġjingpyn sngew
Ġjingkh yllem
hoi r
ĠV DP
Ġres ources
Ġtyr nem
Ġshe ba
Ġbharat i
ĠOut post
ĠChar les
Ġshond ur
B ah
Ġka in
Ġba jam
Ġr ia
ĠÃ¯ ateh
Ġw it
ĠS nem
Ġth ie
ul d
uk an
ĠT ra
ĠD GP
hang e
ath er
Ġv ehi
jing tip
Ġnongb et
Ġmo o
Ġthi r
eb el
las kein
Ġsec ond
ĠsaiÃ± pyrthei
Ġiuh roit
Ġval ley
Ġpyrd ain
ĠSYMB AI
T he
U DP
j em
Ġt v
Ġm ath
Ġpyn ngam
Ã¯ athuh
Ġw ard
sha w
ĠB ible
ĠA ward
Ġtang on
Ġum ran
oc h
Ġiing sah
Ġneh em
Ġed mund
onom ic
ĠÃı oan
Ġbakhraw bor
Ġmyr thong
Ġsian ti
ĠSut ing
ĠJaid bynriew
ĠShab ong
Ġmedit erranian
H S
U la
a u
d ung
t u
Ġ om
Ġs ti
Ġs to
ong san
yn nong
Ġn os
Ġl ud
Ġi sh
in am
ĠB h
Ġjingia lum
Ġjingia iaid
ĠH SS
ĠC an
Ġtha mula
Ġum pling
Ġa chik
Ġjingpyn wit
ĠG abriel
Ġnalor kata
Ġnongpyn baptis
rain ing
CC L
ĠIsa iah
ĠZ enith
Ġcandid ate
J ubab
k yntang
m c
la g
Ġp and
Ġw ine
ĠS ection
ĠC ulture
Ġum den
Ġmar tin
har y
ĠNong t
Ġv ivek
pl uh
Ġ8 4
Ġshoh doh
Ġjun ior
ĠÃ± iah
Ġpen al
ĠNeh ru
ĠSk ul
quir y
ateg ory
m ain
x ing
Ġka jia
Ġba th
Ġia shem
ing ut
at kum
Ġnong mensong
ĠH el
ĠD istrik
ĠL ak
Ġne gative
Ġa ff
ik ai
nd er
Ġnongsh ken
ĠjingÃ¯ ateh
had em
Ġjingba t
Ġpynph ieng
ĠDirector ate
Ġsuin bneng
ĠÃ¯as iat
Ġapp lication
Ġmaha jon
Ġlit er
ĠKhyr dop
Ġphyrng ap
E d
M A
Ġn inebeh
Ġkh Ã±ium
un ior
ur u
ĠS ier
Ġju lius
Ġa ap
Ġbor n
Ġv ot
ub e
Ġnongb uh
ĠSoh tun
ium a
ĠLam bor
Ġĉ Ġ
ĠReg ulation
Ġjes reel
Ġgali laÃ¯a
Ġsuid niew
Ġjana ta
ĠBos co
omo tion
b el
j eng
p ra
Ì ģ
Ġki u
Ġb lood
ta char
Ã¯ an
Ġshi wat
Ġsng aid
ĠS iang
ĠP re
ĠN et
ĠC O
st ing
Ġmar sien
Ġkynth er
Ġpynkh uslai
ch en
Ġv ec
bun sien
stit ution
end ipathar
Ġkol om
ĠAd am
ĠAb ner
gy pt
Ġmis pah
0 7
3 00
j el
p hah
Ġjing rem
ta w
is oh
is kam
ĠD olloi
Ġym don
tei n
Ġsk ain
ch um
iv ing
Ġnongsh nong
od o
ĠSh uwa
ĠLe gislative
Ġcomp uter
Ġjerem aÃ¯ah
Ġasher ah
ĠKr istan
6 1
N SB
k el
u f
Ġk ohli
ba in
Ġr yns
Ġnong batai
ĠS yl
ĠK ad
sh un
Ġum mulong
Ġnang roi
Ġriew shimet
re ne
ĠjingÃ¯ aineh
Ġbak ur
bi li
Ġcon v
Ġkhyr wait
Ġ18 73
ost ar
Ġsi kh
ecretar ies
Ġeng lish
( &#
? âĢĻ
p rem
t ember
Ġs yng
Ġp yl
Ġha dr
Ġr owell
ta war
Ġnong bam
Ġw illiam
as than
ĠN athan
Ġmaw kyr
ĠE dit
Ġo xygen
Ġel ektrik
ab il
Ġdu lan
Ġjingai lad
Ġ200 2
uc ational
niam tra
Ġcomp ound
ria ge
Ġeph esos
tic s
sk ul
Ġchan nel
Ġiasnoh kti
Ġlyngd khur
NSB H
8 4
a kim
s ecretary
v k
Ġ ath
Ġka is
ba it
Ġs bi
Ġbad a
Ġsh rip
Ġsha in
ĠS W
ĠK pong
sh ym
es ron
ĠD om
ĠD ik
Ġri jiju
ĠC EO
Ġma ki
Ġiathuh lypa
Ġsan jay
Ġjingbym biang
ard ar
kyr teng
Ġjingph ylla
ĠDon bok
Ġjingiathuh lypa
nap deng
Ġdis aster
Ġmic hael
Ġmep dcl
gg ai
P S
c han
Ġk ei
ng op
Ġka l
Ġha math
ka wang
in i
Ġsngi ha
Ġjingia pyni
Ġjingk ynrei
ĠT raining
ĠA li
Ġjings bun
Ġlyng a
est on
Ġtam il
ĠKi ta
Ġch ennai
Ġmem orial
Ġsar ah
ĠLam bok
ĠNE SO
chi ne
olar ship
Ġshongs aiÃ±
Ġhadr ian
E L
n yngkong
r ian
r upang
Ġs mart
ai long
Ġb yllien
hi ma
Ġi li
Ġr ock
ne d
at ure
ĠS K
Ġjingia pynbeit
da k
ĠP oint
si r
Ġshong shngain
Ġg od
Ġg rant
Ġjingb ei
Ġjingd up
Ġbak men
HA I
rat ed
Ġtyr pad
Ġnei gh
ĠManag ement
Ġrik od
ghan istan
ĠBJ YM
0 2
d sta
m ission
o da
ng aid
la ganj
Ġu h
Ġla don
Ġia dih
Ġia tyngkhuh
Ġjing hi
Ġpyn tr
en ing
Ġw rit
ĠC ell
ĠA pp
ĠÃ¯oh knieh
Ġbat talion
his ynei
Ġjingt ied
Ġ7 7
Ġang long
Ġneh ru
ll ing
.... ...
Ġpres bytery
Ġjai pdeh
Ġtim e
ĠReg ion
Ġsun n
Ġdi ocese
Ġchar ge
Ġsik kim
Ġinc ome
Ġtymp ew
ĠRight s
Ġbethan y
Ġdiengpyn Ã¯eng
' m
s dang
u da
Ġr anee
Ġpyn dei
Ġng ain
er ing
ĠS m
ĠS ik
ĠN as
Ġkhun blang
Ġjings iat
Ġma y
Ġnongia id
Ġpynia s
Ġst one
Ġcomm itee
Ġjingkyr huh
Ġ8 7
ĠnongÃ¯ ada
Ġpynt lot
kyr dem
ĠCon trol
Ġpur ew
Ġjingshim khia
Ġ198 0
Ġiar yngkat
Ġrap sang
Ġjingpa hara
Ġep ic
H angno
S oh
c en
Ġj lang
Ġla wan
Ġla ingut
Ġha l
Ġjing thaba
Ġb engali
Ġr ek
Ġna s
Ġh ylla
ĠB nai
ĠD k
ĠL ower
Ġmar wet
od e
Ġpynj aboh
Ġst ore
Ġkynr iang
Ġlei lei
ĠO C
qu arter
nb oard
kyn hun
Ġjingh uri
char d
ĠPr ot
tic ulture
Ġsih on
Ġgil gal
Ġjingle hisynei
vesti gation
1 000
c i
r istan
Ġk thaw
Ġjingia jan
Ġri l
Ġsam lin
Ġpa ki
Ġjingpyn baptis
Ġlang rut
ĠKa shmir
Ġf ree
Ġap thap
Ġem ri
Ġpla te
Ã¯a kim
Ġmu sh
Ġplan t
Ġcha nd
Ġjos hi
ĠTran s
ida vit
Ġss lc
Ġras ong
ĠThong ni
Ġbahai ing
8 7
d an
o f
Ġs ning
Ġj l
Ġi x
Ġpyn ngeit
ÌĪ âĢĿ
op o
har khand
Ġkl umar
athuh khana
ĠPhi lip
ĠNongs iang
old en
ĠKhyr im
Ġexc ise
Ġorganiz ation
B A
L um
d yn
t op
Ġk ri
Ġk rat
Ġd raft
Ġia t
Ġm reng
Ġl yntang
Ġi chamati
ĠS enior
ih on
na Ã¯ah
ĠR C
Ġsngew bit
Ġshong knor
Ġshym priah
Ġsyn Ã±iang
ĠE h
Ġ12 5
Ġre b
ĠUm soh
ĠSt en
ĠLait kor
Ġen jiniar
ĠPat sha
ĠEx c
ĠPo etry
H N
t ech
Ġba sngew
la ri
Ġb thuh
Ġpyn man
at ainia
is era
ĠS ngewbha
ĠK ohli
Ġbr ieu
et ri
Ġtr ust
Ġri chard
Ġg raduate
ynd iang
ĠW al
Ġbat bit
Ġin j
ĠUm saw
ĠKat no
Ġjak oid
ont ep
Ġkhyndai phew
ĠAn tonio
ĠNo ah
ryng hep
ĠKhyndai lad
Ġhad ad
U DA
ng t
Ġba phyrnai
uh roit
ĠS um
ĠC ity
up ta
tam ia
ĠShi l
Ġsem inar
Ġbakh lain
ĠKong san
Ġrang dajied
ĠaÃ¯ om
Ġbyn da
ca use
ĠSu chiang
ĠJos aÃ¯ah
Ġjynd at
ĠAS HA
Ġrif le
ĠDamas kos
opo tamia
c ing
g er
Ì Ĥ
Ġka b
Ġba ki
Ġia lumlang
Ġm iller
Ġkh yllai
Ġw jh
Ġshi da
ĠS I
ĠB ud
nong bylla
Ġkyr don
Ġhi s
da b
ĠP rint
ĠJ ana
har am
Ki ta
Ġam asai
ĠpynÃ¯ asoh
bu in
Ġjingpyr khing
Ġwei ghbridge
ĠAn ti
ĠNongpyn im
khynd ew
K hasi
d od
k sha
ha lang
Ġj oram
Ġt ista
Ġm g
Ġl up
Ġi b
Ġr oh
ĠÃ¯a mih
Ġlong dien
Ġkan bas
ĠB ynta
ĠH uman
ĠT en
si ness
Ġmar cus
Ġpa tan
Ġjingpyn bor
Ġmaw ngap
Ġmaw thabah
le ague
Ġpan map
ram er
ro y
Ġpro vin
Ġjah burom
Ġnongs iat
ĠAd ministr
Ġpynth ud
ĠDa ju
Ġpynshong shit
Ġnew s
ĠHam an
cher ra
ĠMawp rem
ĠTein well
ĠAc ademy
teg rated
P M
h ung
i fer
Ġu da
ia jer
Ġt om
Ġt lai
Ġna n
ka p
Ġda l
Ġh ol
ti m
al oni
Ġjingk yndit
Ġdang go
ĠL ane
ĠR ab
ĠI PC
Ġsyiem iong
us tine
Ġpyns uba
oc ate
Ġpynkh ynn
Ġphai khmat
Ġsoh niamtra
Ġjingt est
Ġbud lum
Ġpl eng
Ġ9 5
Ġlyngk dop
ĠkhlaiÃ± bor
ĠKur kalang
Ġbol ero
Ġbo ys
ĠJud as
Ġkj it
ĠJI NG
Ġtreas urer
I LP
h yc
Ġki p
Ġj as
Ġd ominic
Ġha sa
Ġm uster
Ġl ib
Ġna zareth
Ġpyn matlah
Ġh eshbon
Ġw el
es to
Ġtr iem
Ġjingk thang
ĠH u
ĠJ ail
ĠR el
up ur
Ġmar dih
Ġjingpyn thymmai
Ġo d
Ġriew shlur
ab le
Ġkl ob
ge ne
ada v
Ġiew mawlong
Ġwest ern
ust ur
ĠAm alek
Ġnongpyn Ã¯ap
Ġker ala
ĠNE E
Ġmer ari
ml ien
Ġjingiatip lem
ĠBai bl
H O
S him
g ate
s uiÃ±
t iar
ba ki
Ġki lah
Ġt ie
hi bosheth
Ġpyn lyng
Ġkh nap
ĠB A
ĠP him
Ġpaidbah u
ĠR owel
yngk ang
har d
Ġbn oh
ĠE JH
Ġsoh k
ĠShi m
Ġ8 8
end ro
ĠAr my
Ġbri dge
Ġta Ã¯
ĠLam phrang
Ġpas iaw
Ġmission ary
ĠTri be
Ġsirdar ship
ĠDu itara
Ġjingris ain
9 4
m adan
s ait
la no
Ġs nap
Ġs udan
Ġj lih
Ġr gh
on line
Ġna omi
th o
ĠM ul
bor mi
ĠA men
wa li
st yle
Ġsngew thikna
Ġshong sah
ek iel
Ġdor phang
ĠG S
ĠNong jri
Ġpynj akhlia
Ġjingshah shitom
ĠjingÃ¯ atiplem
Ġkar nataka
Ġab el
Ġsub jek
ess aloni
Ġag reement
Ġjem nud
Ġpost s
ind ia
Ġabi jah
reg s
Ġbharati ya
Ġnas areth
d awa
v ak
Ġp neh
Ġjing iehnoh
Ġr wiang
Ġsh yllong
Ġnong n
ĠK ito
Ġkha te
ĠB is
as hi
ĠA J
Ġar un
tr ucture
Ġsngew kh
ir it
Ġf oundation
Ġriew hadem
ĠKha n
ĠKh ymdeit
Ġ8 6
ĠCo un
Ġkhar lyngdoh
iw son
aph tali
kyn thup
Ġiam ir
Ġshaw kad
Ġnongm ynsong
jal ee
power ment
Ġnonghiar pateng
Ġril bong
i ot
o ber
Ġt oi
Ġr aliang
Ġkh ulom
ang a
Ġsha kur
ym pang
ĠS eiÃ±
ĠS edekaÃ¯ah
ĠK ynd
Ġkha ra
ĠM ait
ĠB ol
ĠU ei
el y
nong ialam
Ġja bain
Ġme g
ĠC onstitution
il bert
ct v
Ġbym tip
men tal
ban jel
Ġiak op
ĠNong shken
Ġ6 66
Ġbak ongsan
awa har
uc ifer
Ġpres cription
Ġsynd et
ĠMan ik
syiem lieh
Ġrkhie bein
iak ren
Ġengineer ing
Sha phang
ĠOrganis ing
Ġlynn iar
Ġmayr ald
Ġbari dua
Ġalex ander
Ġryns ied
Ġjinghi ran
dyn ald
ĠtaÃ¯ ew
Ġshakur iaw
; &#
E I
d har
h ied
s ella
y aid
ng ur
Ġs ungoh
Ġla sk
Ġha Ã¯ing
Ã¯ aid
Ġjingia tyngkhuh
ĠH it
ĠA K
kha w
ĠL ynti
ec om
Ġv s
ĠKh lur
Ġra ja
nai or
Ġed en
Ġjingph iah
pt en
ĠSim eon
ĠPat haw
ĠEm pl
shoh noh
ĠDo ctor
Ġpip a
Ġwkh d
Ġneigh rims
M L
S hisien
s eh
v ember
z ine
ng iam
Ġba shlur
ia i
yn ne
Ġjing tah
Ġb tin
ĠÃ¯ uphratis
Ġnong tih
er Ã¯ong
sha rai
Ġth et
ĠN i
ĠC up
Ġlad rymbai
ĠG ram
Ġf amily
Ġcon federation
ĠBa shan
Ġkhyr wit
Ġky aid
Ġben hadad
Ġkhap sor
Ġrobert june
Ġpynbam phlang
Ġadministr ative
ĠHind i
Ġkrist mas
K ynmaw
c ome
k yndit
ng eh
Ġka pten
Ġba il
Ġt ien
Ġnong talang
is ation
ĠK er
sh yiap
ĠB ishop
el ement
el para
ĠP erson
ĠT had
ĠA has
ĠR ehoboam
ynd iat
Ġe ven
Ġriew khraw
Ġ9 6
ĠCo al
ĠV ivek
Ġias yriem
kyr shan
Ġkhong jirem
Ġgo yal
wit ter
ĠNongk ynrih
PC O
ĠSiang shai
Ġmush lia
k on
k ari
Ä «
ng er
Ġba Ã¯aineh
Ġs war
Ġn ion
Ġb im
Ġi thaw
ĠÃ¯a sam
iew kor
Ġnong phet
Ġh m
sha no
Ġc c
Ġth ym
Ġjingia tainia
ĠP N
ĠP e
tr un
ĠG ur
Ġriew tymmen
wan rah
Ġing dorbar
Ġnongr ang
Ġram ah
hat ma
Ġsyr ti
ĠEl ia
oth er
Ġkynsh rot
Ġnob el
E ast
k rem
s lem
v iagra
z er
Ġ xi
Ġba kordor
Ġs tan
Ġt icket
Ġb iam
Ġpyn um
ti cle
Ġkam ut
Ġai Î·
Ġjingia t
as eng
ĠA AP
Ġa la
Ġjingpyn thut
mih pat
gha t
ation s
Ġdew i
bi w
Ġre venue
Ġem bhah
Ġle ah
by id
Ġkor ah
Ġjuk i
Kh lem
ĠGo vt
Ġiuh kjat
ley out
Ġger shon
get element
ĠKhraw bor
ĠShar ma
khad duh
Ġpynsa ja
getelement byid
. &
9 1
O ng
f kjgp
g ail
j ew
l ed
r men
t ynrai
Ġba kha
Ġs ession
Ġn uit
Ġt ek
Ġsh or
ĠÃ¯a lum
Ġkyn ud
iang thohlieh
ri w
ĠB r
Ġjingp ur
ol ith
yll ut
Ġg vk
Ġma ka
Ġlum diengjri
ĠNong buh
ch el
Ġshillong ka
Ġjingsh oh
Ġiaka jia
Ġnongk ynrih
La shai
ĠMa jai
ĠJo ash
qu alification
kyn san
Ġgo vernor
Ġjingpynkh iah
Ġpyntha me
atholi k
Ġsylla d
ĠKal eb
Ġmass ar
ĠIA S
ĠAP HLC
" ,
8 1
c f
f ew
s ei
Ġs ner
ia tion
Ġp t
Ġla sar
Ġha kane
oh knieh
Ġng or
Ġdon sap
th iew
yng ngad
ĠB et
Ġbar ak
ĠP ara
ĠP ersia
ĠN aphtali
Ġjings oi
tr on
Ġph y
Ġg reater
Ġg anesh
ek s
Ġnongia lap
ub elpara
Ġkur a
Ġshillong u
pyn paw
Ġbak ut
Ġsiew dor
Ġsiew spah
him elekh
Ġtynr ing
alei ro
Ġjingthung kam
Ġkhoh reh
Ġryng khiang
ho laganj
oph el
Ġcan tonment
ĠManag ing
Ġahas ai
ĠEs ther
Ġemer gency
j ang
k ylli
m b
v ers
Ġki ad
Ġla ong
ar mer
Ġi la
Ġr ss
an ts
Ġh y
Ġlong kur
kh ynnah
li fe
in ter
sh ut
ĠT rop
Ġsngew sheptieng
ĠI shmael
Ġg as
ed ek
ĠG og
Ġriew rangbah
Ġjingiak ut
Ġbak yn
Ġam p
Ġkhar sati
Ġjingbym khuid
ĠRi war
ĠRi jiju
Ġjingr isa
Ġsta ff
jri wal
Wat la
Ġex per
Ġjingbha briew
Ġsab on
Ġtieng burom
Ġjot ham
ga ta
sor a
Ġ195 1
Ġgu est
Ġtyngk rein
Ġmynh yndai
Ġdrug s
Ġlar kam
Ġlymb ung
kid ar
M DA
e es
k ran
n u
o la
p y
Ġp is
Ġm el
ne w
it ish
Ġw ww
Ġwan paw
ĠC ar
noh kti
Ġtyng ab
ĠMaw thabah
Ġbai eid
Ġmang i
Ġjingias uk
Ġkhong lah
ĠAg riculture
ĠGo yal
Ġso han
Ġmynn in
ĠTam asa
tyr shi
ĠTour ism
Ġpyl lein
cen tage
Ġlasar os
A le
P eit
g u
h ieh
i ri
p el
s is
Ġs edekaÃ¯ah
Ġt ir
Ġm aster
ar wal
Ġong ha
om er
ĠN ang
ĠD ip
ĠR ad
no it
Ġpar t
Ġma hila
ir ect
ĠG atphoh
Ġsang sot
lan try
Ġphar ia
ria th
ĠHigh way
ĠRa khel
oth y
Ġpynjah thait
Ġ197 9
Ġjud icial
ĠBi lat
Ġsel ection
Ġchampion ship
ĠNEE PCO
H MS
H apdeng
S uk
h spdp
s ec
Ġs wet
Ġla thi
Ġd to
ar sap
Ġr ation
an chi
Ã¯ akhin
Ġsh ow
Ġsh ngaiÃ±
Ġnong th
Ġnong traw
er ies
Ġshi rta
ĠS odom
ad ih
âĢ ĵ
li pp
Ġc la
Ġc ctv
ĠM CCL
ĠP A
Ġf ilm
shi phew
Ġpr oph
Ġ8 3
ĠSyiem iong
ran i
Ġ13 3
ĠKhar syntiew
ver b
Ġkhong lam
ĠEl ias
Ġtim es
ĠMin ing
Ġ199 8
ĠMU A
ĠÃ¯as ylla
ĠX II
khara iah
ĠMes saÃ¯ah
mynt du
ocument getelementbyid
0 3
A mendment
c ab
s ia
v ision
Ġs ada
Ġs ister
Ġn ok
Ġm eit
Ġi triem
Ġdon nam
Ġdon akor
Ġw ang
am ih
ĠS D
ĠK atholik
Ġjingia shim
Ġjingia thir
ait met
kha l
Ġjings at
ĠR ic
Ġma akah
Ġpa shat
mih khmat
Ġpynp eit
Ġf in
Ġbam on
Ġbat yng
Ġdieng pyni
ub lish
Ġap ply
Ġjingioh ipaw
Ġpur iskam
kham tam
Ġkr iah
Ġ199 0
Ġpynst ing
Ġ195 2
sta ble
Ġmic heal
Ġtel eph
Ġpip e
kran et
N PP
p yllait
el son
Ġjingk ynduh
ĠT ymmen
Ġjingp oi
ĠR em
Ġo b
le e
Ġco urse
ĠMaw roh
Ġ19 60
ĠF er
ĠLyng ba
ĠRi f
ĠCh urch
Ġphar ep
Ġro om
wad i
ĠKhong sit
Ġer nest
Ġ199 3
vern ance
Ġhus band
ĠSi kh
Ġpal estine
Ġtech nical
lym ne
Ġart et
Ġgom er
Ġwrit ten
8 3
d khot
Ġ 000
Ġp jah
Ġna du
ĠÃ¯ it
Ġnong lang
kh ep
ra cy
si ve
ĠA chik
kha ii
Ġum ngot
Ġph eil
âĢĿ .âĢľ
Ġf i
Ġiak ob
Ġv c
Ġsat lak
Ġmadan rting
Ġem ail
ĠComm and
Ġmon dal
eph er
ĠJing mihpat
istr ar
Ġias iat
Ġsyr os
Ġsal it
tt ara
Ġinter biw
tyng ka
Ġarti kil
Ġnongkh rong
HI S
ĠMyr thong
ĠHad rian
ĠFe nela
Ġgolf link
Ġshyll uit
banjel is
% ,
c hairman
e um
k k
n l
Â ħ
Ġ ontep
Ġk oh
la b
Ġj it
Ġd own
Ġm ok
ta te
ne xed
Ġkh Ã±iang
th ophel
Ġh on
ĠM d
Ġbar em
ĠP deng
tr ation
mat e
Ġkhl ieng
Ġjingb ishni
tha mar
Ġpynj ai
Ġwah kaji
ĠF a
ĠF inal
Ġnongtrei nongbylla
Ġde li
Ġjingwan phai
Ġbas ketball
ĠKat to
Ġnar ud
Ġres erv
Ġser ah
Ġtyr so
Ġkr is
ĠJu lius
Ġmark os
ĠMai eid
ĠPa ham
ĠGe orge
ĠAad har
ĠSad ok
Ðĩ a
Ġsqu are
? .
N o
c r
f ar
r unar
s ngap
Ġs ri
Ġs ecretaries
Ġj yf
Ġna th
Ġong ka
Ġkha shor
Ġph on
Ġ20 23
Ġpynk yn
Ġpynb ieit
Ġsur vey
Ġkhynn iuh
ynt hi
ge neral
ĠKhar jahrin
Ġnongpyn iap
Ġpla za
Ġwork shop
land ing
Ġcom ing
Ġjos aÃ¯ah
ĠMic hael
Ġempl oyment
Ġreb ekka
7 00
B uh
N apdeng
P DF
V M
k ynt
p isa
r os
v ed
Ġs yrwa
Ġn ile
Ġl ied
Ġr od
em en
ĠS idon
ĠP hadar
Ġjingpyn jari
Ġo ther
isa bil
Ġpynkh ynÃ±iuh
Ġv acc
Ġtam ar
Ġpr asad
Ġpyniaid kam
Ġand hra
one y
Ġpynsh na
Ġnongb eh
kyr men
Ġlieng suiÃ±
Ġas aph
Ġli fe
riew blei
Kh mih
Ġpri ze
ĠSec y
Ġsai Î·
Ġsai pan
Ġpi us
sur ok
9 3
X X
e g
j oh
n upur
r ose
w ara
z ed
Ġs b
Ġp uid
Ġha na
Ġi shong
Ġi jot
Ġr enikton
Ġna d
ĠÃ¯a dih
sha ssar
Ġkane ka
ti l
Ġkam rup
Ġc al
ĠU P
Ġjingia khaid
Ġpyr tuh
Ġjingk ob
ĠP han
ĠT al
Ġtha i
Ġjings akhi
Ġmar bisu
Ġg st
Ġg round
pa lang
Ġjingpyn shong
ast ieh
Ġof f
Ġmet re
Ġdur briew
Ġjingt uklar
Ġrep ublic
Ġnongs ain
sap p
ĠIn strument
Ġjingpynk ynmaw
Ġkad esh
ĠĠĠĠ Ġ
ood land
ĠLang rin
Ġ198 8
ĠMed ia
Ġfront ier
atha gata
Ġjynd iang
** **
Ġkhni um
dat baki
Ġjynr at
ĠProt ection
Ġbail ut
F C
f il
o ad
ia da
Ġm ost
Ġban d
Ġban tei
Ġi ii
Ġlong ryn
kh yndai
Ġshi kol
Ġkyn pham
ĠS R
id ien
op ter
ĠT ynring
st udy
Ġma ian
Ġks aid
pl ie
ĠjingÃ¯ ohi
Ġdie lang
Ġjo e
Ġab ishai
Ġjingias iat
Ġta lang
ĠNE C
ĠKo hath
ĠAs ia
Ġkynd ok
ĠChi na
Ġlor ni
ĠSei on
Ġkri ket
awahar lal
9 2
b hih
k loi
n n
Â ¬
Ġka it
Ġha i
Ġha k
Ġr oit
or and
on light
Ġna p
Ġnong wad
ĠK saw
Ġai d
ĠM S
ĠH us
Ġum tyrnga
im um
Ġma ga
Ġma chine
Ġtip blei
Ġpynp halang
Ġo wners
ath on
Ġhills u
Ġriew said
Ġduh nong
ĠComm erce
ĠV eterinary
Ġlak men
aph red
Ġbang alore
Ġpla kad
ĠSam lin
ĠCon servation
Ġkom ishon
ember s
Ġryng hang
Ġkilom eter
Ġpm g
ĠInd ustr
Ġpynthor umkhrah
Ġfe nela
ĠSo han
Ã±i ot
ĠWKH D
Ġkhynr aw
ĠTem ple
Ġlask ein
Ġproph et
L ong
a ki
i us
s ch
Ġki riath
la y
Ġs ib
Ġia shah
Ġia die
Ġt ynd
Ã¯ os
un i
Ġkyn um
ĠK astar
Ġth nam
Ġbr isoh
al iar
mar i
ki la
ĠJ yndiang
ĠN RC
ĠR owell
ph u
shah shkor
yll eng
Ġnang iaid
Ġpynk yr
Ġnongia p
Ġe nergy
ak ut
ĠKh law
Ġ19 50
Ġtei bor
Ġ8 30
jing shai
ĠMar tin
Ġdak aid
Ġle gal
ĠAr ticle
ĠSta nd
Ġpynm lien
Ġno tification
Ġraj nath
ĠPa y
Ġjyr hoh
Ġsm am
Ġcr pf
Ã±iang thohlieh
Ġcm j
Ġbapaw khmat
ĠBha van
ĠRap sang
-- --
Ġrek od
Ġteleph one
I A
I B
j ng
m aster
Ġ ol
Ġk ulong
ei j
Ġha ir
Ġl ive
an ah
Ġsha b
Ġnong bat
Ġh ous
aw ria
sha l
Ġkyn diang
ĠS ham
ĠS ebulun
Ġjingia nia
Ġjingia thep
Ġshnong u
ĠN HAI
ĠA bram
Ġmar bud
Ġg rik
Ġjingb ret
Ġlang knia
ĠE sra
Ġrai khoh
Ġjingt ngen
Ġing mane
Ġch em
Ġre lation
mai l
Ġhynniew ta
Ġag atha
ĠLum shnong
Ġ199 7
Ġah med
Ġpei j
RI HMS
Ġcamp us
Ġtoh jaw
ĠJos hi
ĠDang go
ĠHistor y
pet bneng
ĠAud itorium
Ġiss ue
ĠKastar brij
k dew
s up
x x
Ġ Ã
Ġj ew
Ġn un
Ġm os
ta la
Ġkh ung
ĠK om
Ġai wai
Ġc am
ĠM andal
ĠB ro
Ġbar andi
ĠP as
Ġjings leh
ynd ia
Ġbym suid
Ġpa ia
Ġkynt iap
mie r
Ġpynp oh
ĠE se
ĠKa li
lo wan
ĠKhar lyngdoh
ow kidar
kin o
Ġben ch
Ġbei Î·
Ġaw ak
vi tation
Ġpai p
Ġryngk oh
Ġprof essor
ĠKyn shi
Ġbaj ngai
Ġjingot sher
ĠTri bal
Ġkj dsta
Ġwoh nia
Ġpo etry
ĠTim othi
ĠTech nology
Ġgog oi
Ġpenal ty
tachar jee
ĠTrop hy
ttara khand
6 00
e li
m ing
m rad
m ynsiem
Ġk raw
ha Ã¯ah
Ġd et
Ġd uty
Ġjing nguh
Ġpyn shad
it ynnat
th li
ur ope
sha phrang
ĠS B
ĠM iller
Ġth yr
Ġshnong ka
ĠR gh
Ġbym i
umar i
Ġde v
Ġsu kher
Ġad oni
Ġad dl
Ġal binus
ĠCon ference
Ġbab iang
Ġjingpynk ynriah
Kh ublei
ele br
Ġdis p
lom a
Ġsn s
Ġnongpeit kai
Ġhamlet son
Ġmes saÃ¯ah
ĠAcc ession
Ġyo jana
ĠAra b
oud hury
Ġaff idavit
Ġpyntr oin
orand um
D STA
M ukul
W an
c red
f red
g ad
h ukum
h tml
o x
Ġj ha
Ġd han
Ġna no
ta cherra
Ġnong pathai
ĠK P
Ġc ategory
es al
ap thngan
et ition
si us
ĠC a
kha wa
Ġsngew meng
ĠI l
Ġg re
Ġma b
bha vi
Ġo g
ak jakor
Ġnongsh ukor
man y
ĠF estival
Ġmat ch
Ġ10 1
se o
Ġjo el
Ġ13 0
Ġjingkhang i
ks on
ĠDor phang
Ġsub division
ĠDon ald
Ġml p
Ġpur on
kong ngor
co vid
Ġjingshong kurim
pr os
ĠJon ah
ĠEn forcement
Ġpyll ut
Ġpap er
Ġcr pc
ĠSur ok
Ġhel p
ĠKal bari
ĠJingpyn paw
Leh se
chum iere
Ġmawkyr don
Ġpynman bha
W ar
c les
e f
g es
l os
Ġ Ä«
Ġd khat
Ġha li
Ġia bit
Ġjing n
Ġt mier
Ġl oukas
Ġkh noit
th long
Ġkyn hied
Ġc inema
ĠM ishon
ĠL ar
ct ober
ĠG en
ĠG ath
Ġo bed
ĠSh eba
ĠjingÃ¯ oh
Ġpynsh oh
Ġkar mel
ow kaiaw
Ġjingkhang lad
Ġsup pl
ko th
Ġgo a
Ġniew bein
Ġriang do
ĠLah kmen
ĠPyr thei
Ġthad laskein
Ġfir e
Ġsaian tis
ĠDur bar
Bun sien
Ġmir r
Ġshynr ong
4 00
R A
c ip
g res
l ynd
r iti
t ieh
t us
u ja
u va
Ġ Ã±ia
Ġk rit
Ġp vt
Ġkh Ã±iot
lang thari
Ġjingk lumar
Ġpha loh
ĠJ YF
ĠT yng
ĠN am
Ġshah thngan
kha b
ĠG ibeah
oc a
Ġe qu
Ġlum paring
Ġdieng bah
ĠKh lem
Ġkhar umnuid
ĠMar uti
ĠnongÃ¯ aleh
ĠEl ec
Ġdc a
ĠEd mund
Ġkajing ia
Ġind oor
ĠMat haios
Ġsun day
ĠLaw sohtun
ĠNar puh
ĠRes ources
ĠInd ira
Ġlo kayukta
Ġnongm una
Ġcontra ct
Ġnongjngoh kai
k his
n an
y ieng
Ġ :-
Ġki don
Ġj ym
Ġj eth
Ġia sngewthuh
Ġjing nam
Ġm c
Ġl im
Ġng aitlang
ĠÃ¯ ong
eng er
Ġc ham
ap yn
ĠU la
ok si
na ka
Ġtha lain
ĠR ule
Ġum shyrpi
ĠE r
ĠG ibeon
Ġriew shemphang
Ġjingleh kai
ĠSh wa
Ġing basa
Ġ8 1
20 17
tal y
Ġjingkhang it
ĠAd v
ĠKhun langbrot
oun der
Ġsyngk li
ĠSe kharaÃ¯ah
ryng ew
Ġfc i
yp sy
Ġaj ywo
ĠHous ing
kra bor
khis edek
L ynnong
T haw
d ot
d una
j ection
y iar
Ġs ir
Ġp ers
ei gn
Ġd ia
Ġn ier
Ġt ask
Ġl uid
Ġl ike
or s
Ġna t
er cial
kh eiÃ±
Ġ1 82
ĠP ower
ĠH ooid
ĠN ah
Ġg irls
Ġsyn Ã±ia
ĠG ood
Ġf re
Ġdoh iap
Ġdew met
ja khlia
Ġpan chay
Ġkhat ar
Ġle a
khe ti
Ġper centage
ĠAr un
ala ri
ĠhynÃ±iew spah
ĠRym bui
ĠLait lyngkot
NG T
ĠMed it
Ġoh dur
ĠSym boh
ĠMarwei Ã±
ĠĠĠĠĠĠĠĠ ĠĠĠĠĠĠĠĠ
ĠHese kaiah
ild life
Ġcur few
Ġsns bh
R i
h el
la boh
Ġs khor
Ġj ason
Ġd ano
Ġha ri
Ġr ot
Ġsh yng
Ġsh rieh
ĠK on
yng khuh
li dor
Ġc b
ĠP or
ĠH ur
ud e
Ġju b
ĠR up
Ġpar ti
yll up
Ġg h
dc a
ĠÃ¯oh lait
Ġsoh saw
Ġjingsngew synei
Ġjingsngew diaw
Ġjingkh riat
ĠShi mei
pyn donkam
ish ra
ĠV al
bit ion
Ġab iathar
oo th
Ġbs nl
ĠÃ±iew kor
Ġpolit ic
pr u
Ġryngk ang
ĠjingÃ¯as yllok
ĠLi brary
Ġbal ui
Ġindustr ies
Ġfarm ers
ĠAJ YWO
Ġnongphet wir
I E
d hi
h en
r uit
u j
Ġk Ã±i
Ġu u
Ġla palang
Ġia is
Ġn yng
hi yan
Ġi ma
or g
is had
in der
Ġjingk loi
ĠP am
ĠP and
ĠP AC
ĠD enis
Ġg su
Ġjingpyn t
Ġjingpyn phai
Ġpyns yaid
nd i
iat e
Ġjingi jli
Ġe lam
od us
Ġkynr em
Ġing bishar
Ġjingkren beiÃ±
ĠRi bhoi
Ġnongp an
Ġhe art
Ġres erve
ure au
oram ot
Ġkhoh ram
ĠPat har
ĠOr ganiz
ĠShang pung
Ġrec ord
Ġtrans fer
Ġjh ieh
ĠServ ices
Ġchild ren
ĠLeh se
Ġresident ial
Ġkhanas umari
Ġinj ekshon
Ġadoni jah
F U
k pa
v y
w iar
Â Ń
Ġki ka
Ġs wai
Ġla wai
Ġt ainia
Ġb d
Ġb ip
Ġm his
Ġh ect
ĠS ong
ĠS BI
Ġkam u
ĠM il
Ġth lim
Ġbar ukh
Ġsorkar u
Ġkyr soi
ĠH as
ent s
Ġjings ynjor
ynn iang
Ġjingb thuh
Ġnongia da
ĠG olf
Ġop en
ĠShi loh
Ġmat iong
Ġ9 7
Ġand rew
ĠpynÃ¯ akhlad
Ġnongk nia
Ġkp ep
Ġsy ang
Ġjingiathuh khana
Ġsi las
ĠAg ency
siew dor
ĠMi kah
Ġnep al
van us
ĠIsa Ã¯ah
ĠRaj nath
Ġsil char
ĠAcc ount
Ġanti okh
ĠAT M
b iah
b cc
c omp
c ivil
g rim
ba pher
Ġs na
Ġj ephthah
Ġu tai
Ġd iv
Ġjing ieng
Ġt w
Ġm sp
Ġsha buk
ul ia
Ġhi b
ĠD eb
kha lai
ĠI II
Ġhills ka
Ġriew niam
Ġlait kroh
ob i
Ġwad kam
Ġnongk seh
Ġ15 00
ĠMar bisu
ĠBa lak
Ġjo gn
Ġsch olarship
Ġram oth
lic opter
Ġtyr sim
sor y
Ġpyll up
Ġmak edonia
ĠNag a
ĠGu ard
Ġsylla bus
dala Ã¯ah
etur ning
tech nic
lipp i
Ġawak ening
ĠMedit erranian
' .
C B
s uh
w ner
z ation
Ġba tri
ha in
Ġd im
Ġd arius
Ġjing awria
Ġb hu
Ġm gn
Ġl iam
li os
uk ri
Ġjingia umsnam
mar iang
ĠN ichols
Ġlyng khat
Ġg rade
82 42
Ġf riday
ab ynta
sa khiat
rim rose
Ġshillong ha
ĠShi lak
re am
Ġbe at
ĠKhar sati
ĠnongÃ¯ arap
Ġres ource
Ġsub s
Ġjeh oram
ĠBar nabas
Ġjingsah dien
Ġcan cer
Ġnongrah bor
Ġtaw ah
ĠUr iah
ĠMic heal
Ġuss ai
ĠBhar at
Ġjub ilee
R PF
c u
h or
m ot
m ond
p ress
t iew
t moh
Ġba lat
Ġp k
Ġn ic
Ġt witter
ie b
an ta
Ġng ai
yr dem
Ġdon dor
Ġnong ban
ĠB el
Ġpat ok
ĠJ ala
ĠT reas
Ġdang le
ĠR as
ĠR yngk
ol ekh
Ġbym Ã¯aineh
ir e
Ġmaw mluh
ath oth
Ġel kanah
ĠÃ¯oh rung
Ġsoh trun
Ġshem ai
Ġpl ung
ter n
Ġan na
Ġpynt ud
ĠAd dl
Ġsy ep
og a
Ġis aitmet
Ġmynt du
Ġsuh thied
ĠSan jay
Ġdrok s
Ġtrad itional
Ġge ne
Ġwith out
sta te
Ġsohp han
Ġpal iar
Ġkynjat bol
Ġiph uh
lih ood
ĠJerem aiah
ĠMis s
sic al
Ġrif les
ĠRil um
krabor ty
B S
i tation
j un
p ose
s la
s ein
y technic
Ġha kaba
Ġjing wit
ar adan
or don
at ylli
Ġda loi
Ġh yd
Ġw ho
kh lain
Ġc all
Ġbr ia
es lee
Ġjingk uman
ĠD ri
ĠA f
Ġju bili
ĠR s
ĠR iat
Ġg ot
Ġmaw lasnai
Ġjingj aw
ĠE VM
shi b
ĠW el
Ġpynia suk
Ġkylla iÃ±
kat ta
Ġbak lang
tang ba
Ġbeh deinkhlam
ĠMar ten
ĠUm ling
Ġteh song
15 0
Ġmukul u
Ġag ain
du si
Ġryng khlem
ĠWan niang
thad laboh
swet t
Ġcha ndra
Ġpil grim
Ġpre vention
ĠMis pah
Ġsig nboard
Ġcas ual
ĠJingia seng
Ġpynias noh
Ġmaga zine
O N
T V
a z
n iel
t el
w allam
Ġk tang
Ġka don
Ġs ok
Ġj at
Ġj ynsur
Ġn iuh
Ġr l
Ġr uti
Ġr ona
Ġr obin
ĠÃ¯a shim
Ġnong thain
in ation
ĠM ath
ul sory
ĠB us
ĠP rem
ĠH ok
ĠT est
ĠD oloi
ma as
Ġdang shen
Ġbha t
ynd eng
Ġjingpyn thikna
ir c
Ġlang stieh
Ġpynb yrngia
ĠNong talang
DC L
Ġdoh lieh
ill ing
soh ra
Ġbu siness
Ġra o
ĠMa hila
ĠAm os
Ġres taurant
Ġpathai khubor
Ġmylliem ngap
ctor y
ĠWat la
Ġ197 8
ĠPr od
ens ary
ĠEm bhah
Ġtyngk an
ymp ic
Ġsohp dung
Ġent er
ĠX I
ĠIs sakhar
Ġgom orrah
S M
k ia
k ynduh
y on
Ġba asha
Ġki ha
Ġj ed
ia bari
Ġp eon
Ġp rime
Ġp radhan
Ġd heng
Ġb on
Ġi r
Ġsh yr
Ġda sakhiat
ym pat
Ġkum an
ad ing
in c
el ist
Ġjingia long
ĠJ ebus
ĠT V
Ġjingp ah
ĠA don
il lan
ĠR uth
ĠR ock
Ġmar ch
ĠI X
Ġg r
Ġg an
Ġma kna
ĠW ell
ĠKha ra
Ġdieng thang
Ġlap yn
Ġsoh shkor
Ġthoh bria
ĠKh mih
Ġ9 9
Ġhyn thai
ĠSyiem ship
Ġjingpyr sad
ĠCh ennai
Ġmu khla
ĠPol lution
Ġbyn thiew
ĠTe am
Ġjingpa khang
Ġair port
Ġjingkhih win
ras tructure
Ġkaw eh
O A
d ok
g ut
l iaw
la ia
yn win
Ġia rong
Ġn iat
th ring
am ei
Ġbar ato
lam phrang
ĠC atholic
ent ial
Ġg ut
Ġjingpyn tngen
oc ol
Ġkong wang
ĠShi sha
Ġiap yrkhat
Ġam on
Ġan imal
ly er
ala tia
ĠJo el
ĠTh ymmai
our s
ĠKhrist mas
Ġpynm ang
ĠAb el
Ġlaw mali
ĠLam a
met or
ĠRang dajied
pc r
ĠKor inth
ĠAng long
Ġumsoh sun
Ġev m
far ge
f r
i eid
p ran
Ġia beh
Ġn sc
Ġl bong
Ġr u
ka sa
Ġbah duh
Ġme la
na kher
kha el
Ġju ne
Ġph ieng
Ġph iel
im at
Ġbuh teng
Ġpyns at
ĠE P
Ġe ar
Ġe sh
ĠNong traw
ĠNong mensong
Ġnongk war
ro ad
Ãı athuh
Ġro und
Ġhe licopter
Ġnongpyn mih
Ġsar i
Ġben ai
ĠSup ply
Ġkhoh ruh
Ġrad io
Ġbl ue
ĠJes reel
mus a
Ġsus a
Ġfran cis
ĠPolit ical
ĠCol ony
nakher ib
L ane
M LA
b n
d khar
k ynsai
k dait
t dong
Ð Ĩ
Ġs tream
Ġu ka
Ġt wo
or bid
Ġna dab
Ġkh rai
un ukh
Ġnong tei
is hi
Ġkyn jai
ad ian
Ġkam pher
Ġphi rat
Ġkha nduli
Ġc ong
ot ham
ul bari
el low
as u
Ġshnong ha
Ġjingp ait
Ġtha pa
Ġlyng wa
yll iat
Ġma kri
Ġjingth ok
Ġkhr ei
Ġf ull
ĠÃ¯oh khiah
Ġriew khlaw
maw bah
ham mad
ĠNg aitlang
Ġad haar
Ġmin or
Ġsain pyrthei
kyr pang
ig n
ĠKhong jirem
ĠPol ling
Ġah or
ĠLad rymbai
Ġhoping stone
Ġbl ok
Ġtal ent
ĠAsher ah
tron ic
Ġpmg sy
r ath
Ġki ck
Ġp uri
Ġd sc
Ġha shuwa
Ġia thiah
Ġia thied
Ġn ir
an s
Ġh ei
am y
ĠB amon
ĠU nder
Ġjingia ishah
Ġpyr ton
ĠJ ab
ĠT ynrai
Ġg oliath
Ġjingm ai
Ġlad ei
Ġmaw lieh
Ġpyns miej
Ġ4 000
ub babel
ĠSh el
re y
ĠMe sh
Ġsp el
uth er
Ġ9 1
Ġtynr ong
Ġmo ok
dit ion
rit orial
Ġpynt yrkhong
ĠDe f
Ġkhaw pud
Ġmuk tapur
Ġser ubbabel
Ġse kharaÃ¯ah
Ġphlang Ã¯ap
Ġ199 2
Ġsad ar
ĠRic hard
) :
) .âĢľ
E D
P resident
u bru
v il
Ġ 8211
ba la
Ġs it
Ġs ms
Ġj apan
Ġd istribution
Ġia phylliew
ing mane
Ġr eh
Ġr ome
er ia
ĠS naitang
ĠM eh
ĠM od
Ġbar o
Ġbar hem
bor atory
Ġshah lang
Ġpaidbah ka
ĠR ed
ĠR ona
Ġsam ple
Ġjingpyn sa
Ġpynk dang
Ġe j
ĠNong rang
Ġjingd ro
Ġpynj hieh
Ġin strument
han lur
Ġch okpot
Ġad d
ĠUm mulong
ell ing
ĠIn charge
Ġno tice
Ġdien jat
Ġnongt ung
ĠSa fety
Ġind igenous
nel la
Ġiaw musiang
viron mental
oy ees
NE R
Ġlit eracy
arm el
ras pah
ĠMet or
Ġmoh khiew
ĠMem orial
Ġwhat sapp
Ġbailut ksan
D r
K har
V I
f ied
j hadc
u ah
Ġ +
Ġj harkhand
Ġm yanmar
at ai
un t
Ġlong jait
er ksis
ur nal
is ed
ĠS T
ĠK rem
Ġc hoir
ĠM it
ap hi
Ġbar anda
et te
ĠH A
ĠJ unior
ud ies
Ġma c
Ġmaw eit
Ġkhlem akor
Ġsur be
Ġiak ut
est os
Ġmeghalaya u
Ġpr oc
tam in
Ġhima laya
Ġrit paid
ĠF und
han ia
Ġjam mu
ks erksis
Ġ0 4
Ġisa Ã¯ah
Ġshal lum
di ocese
Ġbap ura
ĠJud ge
ĠKs eh
Ġhor ticulture
Ġsuid Ã±iew
ĠBe er
Ġaf ter
ĠSar ah
ĠBo as
ĠNEIG RIHMS
jingia lang
cm illan
Ġdig ital
Ġhss lc
Ġpynthoh bria
ĠTra ffic
Ġvehi cle
Ġbarem dor
N RE
O S
b ra
p re
Ġj earim
Ġp p
ei ei
Ġn iad
Ġm oramot
ar h
ka la
Ġphi nehas
ul let
ĠB ath
as yriem
ĠJ yrngam
ĠT op
ĠN iang
Ġar shah
Ġg asa
Ġmaw diangdiang
Ġe e
Ġel ias
Ġdistrict ha
lar kam
maw lein
Ġkti k
lah duh
lan ot
Ġ16 0
ks ah
had ur
ĠAl binus
Ġbadon kam
tre et
ĠKs uid
her e
ĠPynd eng
jym buin
Ġcandid ates
ĠGil gal
Ġbeer sheba
Ġtre at
Ġsngewkh uslai
dhi st
orbid ities
b wa
m ishon
n ik
t it
t nad
Ġ =
Ġ q
Ġba khia
Ġba ll
Ġha laya
Ġt ynnat
at eng
Ġsh lip
kh d
ĠK ai
ylla ng
ap er
ynd ur
ic tion
Ġhang amei
Ġe gypt
ĠKha t
Ġpr oper
man ent
ĠjingÃ¯ apher
Ġjingr ben
Ġcon vention
bai bal
Ġphang pdeng
iph uh
Ġnorth ern
Ġmi zo
ĠjingÃ¯ap thngan
Ġshikat ta
ĠLang stieh
ĠHam ath
ĠRes ident
Ġgu jarat
SE O
Ġcamp aign
Ġwapung skur
ĠÃ±ia d
A ss
P L
v io
Ġ ya
ha ta
Ġki bym
Ġp aiÃ±
Ġt ieh
Ġm n
Ġi u
an cial
at iar
ur y
ur es
ew duh
ĠM G
Ġ2 30
ĠC ap
Ġar non
Ġsnem u
Ġph rung
Ġph raspah
Ġma han
Ġman sturdy
ĠG reater
Ġe g
Ġlait kseh
Ġjingleh bor
Ġap ril
Ġsp eaker
Ġ9 2
Ġcon du
Ġbu in
Ġper is
Ġsait sohpen
ĠAm bulance
ese arch
Ġz onal
ĠEd en
Ġline age
Ġer i
ga on
uthor s
Ġbaj yrngam
ĠKol ej
ĠKor ah
Ġaud ition
ĠNongpyn baptis
Ġdai ry
Ġaug uster
sil lai
ĠCM J
ĠPaid bah
Ġiais ah
h ynniew
r od
u age
ba daÃ¯ah
ha sh
Ġp ela
Ġd ol
Ġn ik
Ġb ynnud
Ġm h
Ġm ile
Ġda kaba
Ġh esron
ynta h
ĠS NSBH
ĠS ihon
ĠK ut
ĠK ris
Ġc itizen
ĠB uh
ĠB oy
ĠB engali
Ġhi ram
ra kh
ĠH apdeng
ĠT es
ĠC hairperson
Ġym tang
Ġar eas
ĠR eb
st ra
iah om
Ġa kh
ĠI V
ĠI bid
Ġg reat
Ġnang jur
shar ing
ĠKha d
ĠKh ynnah
Ġde b
Ġwar larpih
Ġschool s
ĠÃı uphratis
Ġjingpynkh eiÃ±
ĠDC A
ach ing
stor e
Ġsyngk on
Ġdar rang
ĠEph esos
Ġmor ningstar
ĠHoping stone
ĠEngineer ing
ĠTei bor
Ġahi jah
ĠBo ok
liff ord
ĠLyngk yrdem
ient ist
isabil ities
Ġcondu ct
S an
d uwai
m im
o sh
v asta
Ġs kill
Ġp eace
Ġt yp
Ġm ig
Ġl ymm
hi ndra
Ġna aman
Ã¯ it
ka w
Ġnong um
is s
ĠS ynrem
ĠK ynsai
sh rieh
Ġc p
ĠM ain
ĠM HIS
ap yr
Ġpyr to
ĠH apoh
ĠJ halupara
ĠA wa
ma sh
Ġjings liang
ĠR SS
Ġum trew
Ġsngew lah
Ġg al
Ġbym lah
Ġpyns yrwa
ed ah
Ġpynia khaid
Ġthaw lad
Ġdoh um
Ġsoh sat
Ġsoh phoh
Ġpr ong
Ġjingleh sbun
Ġang ela
ĠJing tip
Ġnam lahduh
Ġbab el
ĠLum diengjri
ĠBang eit
ĠBhoi rymbong
Ġlais ien
ffai r
vis ory
Ġvi jay
ĠWork ers
Ġjn it
Ġpynbud nam
Ġkynsh oit
ĠTein wel
ĠHad ad
Ġmesh ullam
Ġul fa
ĠSum o
Ġhous ing
gres sive
, '
8 00
U K
d ir
m ieh
p al
Ġki lling
Ġs naitang
Ġj al
ia ka
Ġp ick
Ġjing len
Ġl is
at ic
ka ia
sh ynrang
ĠM I
Ġth ro
ĠD ec
ĠL ocal
Ġshong ksuid
Ġsam thiah
Ġg am
Ġg rand
Ġpyns uh
ĠNong lang
Ġpynia dei
ĠF ish
pyn iaid
Ġin stitution
dp o
Ġkhar malki
Ġch yrmang
Ġcon struction
Ġpynr ngad
Ġsain pyrkhat
Ġjingkhang Ã¯it
Ġ24 0
Ġjingioh nong
Ġtar n
Ġjingpynb iang
ess ment
Ġmu kherjee
Ġz ero
co uncil
ĠMed ro
Ġjes ebel
Ġaug ust
ĠAug uster
ĠFir st
Ġconv ener
ĠExc ise
J AC
d ad
h on
k es
p o
Ġp lain
Ġla st
at er
Ġdon er
Ġkum ah
ti v
ĠM ang
ĠM ond
et tri
Ġjingia phylliew
ok i
ĠT iew
ĠD ustur
Ġtang muri
ĠR aliang
Ġum snam
Ġbym shisha
Ġbym larkam
ĠG ar
oc racy
Ġjingd om
ynt ing
ub ri
Ġst ai
Ġwah ingdoh
Ġbak yr
Ġch ristmas
Ġ11 0
Ġsynr ap
ĠCh okpot
lin da
Ġjingias ylla
Ġat ha
ĠBang alore
ric ia
ĠPro vin
ĠKhong jee
Ġdivision al
Ġ199 5
ĠMi neral
Ġprof essional
Ġcom orbidities
ĠThom bor
Ġposit ion
Ġmor ning
ĠTrad e
Ġnongot doh
ĠMer ari
ĠAng el
hn lc
Ġvacc ine
5 000
A G
E R
L ei
M r
e van
g ade
j m
k ait
s pa
Ġk rang
ba rim
Ġba ghmara
Ġki d
Ġki j
Ġha ggai
Ġt wensi
Ġt athagata
Ġi gp
Ġr r
or m
an wadi
iew burom
en ry
Ġh fu
er ator
ut lop
ĠS ib
ĠS ungoh
Ġai zawl
ep er
ĠB ish
ĠB ye
ĠH eshbon
ĠN ath
ĠR M
Ġa y
ĠI oannis
Ġbun ktien
Ġman na
doh lun
Ġnang bun
ic ulture
Ġim p
Ġdieng p
Ġpara graph
ĠMaw ngap
Ġiap ra
soh phoh
ran ce
Ġpynr ieh
bu da
Ġsei on
onstitu ent
Ġan jalee
Ġnongpyn Ã¯
Ġkhong dong
Ġta ta
Ġnorth east
ĠWah kaji
Ġpynshong dor
ĠIew mawlong
rip pa
ĠSha tei
Ġtb n
Ġiaw phniaw
ĠSun n
Ġneig r
ĠjingÃ¯athuh khana
Ġrick shaw
ĠNeh em
Ġjingkord or
ĠKJ DSTA
ĠMass ar
Ġdrdon kupar
Ġhasa el
. âĢĺ
H SPDP
T h
b oth
y ana
Ġka star
Ġka jaka
Ġd k
Ġt yngkong
or is
sha ndi
Ġruh u
ĠS udan
li ya
sh ei
ĠM yllung
Ġioh jam
ĠJ ar
ĠN ok
ĠN ob
ĠC elestine
Ġseng bha
Ġkit kam
Ġbym riewblei
Ġman shwa
Ġmaw lynnong
Ġpyns yier
ĠE c
ĠE k
Ġe genstar
Ġam non
Ġbu am
ĠMar wet
Ġab out
Ġdong musa
Ġmp da
Ġsy ar
Ġsep ei
Ġas arai
Ġpynth iah
bo xing
Ġ199 6
Ġ37 0
Ġind ira
ĠSait sohpen
di wah
out ube
Ġje nesis
Ġjerem aiah
Ġrobert s
ĠCha nd
ĠJes se
Ġdat ed
Ġkonsti wensi
B CC
f c
g am
i ka
k iar
s ynd
t ymp
v et
ng ian
Ġb c
Ġb ec
Ġsh ynshar
Ġsha na
Ġw kt
Ġkum tai
ut ional
Ġth oin
et e
Ġkyr tiang
Ġhap py
ĠP en
ĠD er
Ġym bon
Ġjings an
Ġlyng kyrdem
ĠL ib
Ġum lyngka
Ġsngew diaw
ĠI along
Ġbym nang
Ġpynp ulom
Ġf ile
sp ong
Ġsoh blei
Ġkut lad
20 12
Ġpynsh yrkhei
ensi ve
Ġra ju
ĠV EC
esh ur
Ġsai bon
Ġraj asthan
ĠLaw ai
Ġprot ocol
Ġnongshet kylla
ĠLym pung
ĠSik kim
Ġcc ib
Ġkastar brij
D c
g s
g ah
s neng
Ġ ĠčĊ
ha jan
ing star
Ġt ig
Ġb uk
Ġm ikai
Ġi dei
Ġr uwai
ĠÃ¯a wad
en ai
Ġh r
kh wan
kh mut
Ġkyn si
ti k
Ġth um
Ġja li
Ġme cel
ĠN er
ĠN inebeh
Ġlyng oh
ĠR esearch
Ġmaw jam
Ġpyns ngaid
Ġnang pyn
Ġtrei mon
oc io
Ġriew runar
ak e
iv ar
je sh
ĠBa khraw
ĠPyn shai
ĠTh ei
dent ity
ig p
ju bab
Ġec onomic
ĠLait kroh
Ġ199 9
gar h
Ġac re
ĠSaw ian
Ġjingpyns angeh
sang ma
ĠPri vate
Ġmak hir
Ġken nedy
ĠWei ghbridge
Ġmayr al
comm ittee
Ġmyng ngor
Ġjingiat ynjuh
ĠpaiÃ± khana
ĠMond al
2 000
L ait
P h
e u
f sa
m t
Ġs ector
Ġp ale
Ġm oit
Ġm astieh
oh lait
Ġpyn nep
iew duh
ynr ah
Ġshi kh
ĠK omp
ep hun
es tic
Ġjingp ih
ĠC ensus
ĠA th
il ity
ĠR ak
Ġshong tynrai
Ġlang sohmoh
ĠG od
ymm iew
Ġkong thong
Ġtyng am
Ġnongsh oh
Ġst ait
Ġdu war
Ġass istance
Ġjingleh bha
ĠSh u
Ġ9 3
Ġcouncil s
phi r
ĠKhar kamni
ĠKhar umnuid
Ġjingma Ã¯an
ĠJo e
Ġmp sc
Ġas ian
Ġsub mit
Ġher oin
ry ting
Ġjeho ash
buk i
Ġvi tamin
ĠDis aster
Ġras hi
ĠTea cher
Ġjinglyng a
Ġwhi ch
Ġhect are
ĠTreas urer
ĠnongpynÃ¯ aidkam
? &#
d im
r ti
u hati
Ġ oi
Ġki ren
Ġs ara
Ġs isera
Ġj had
ne th
Ã¯ aroh
sha ll
Ġai nam
sh ea
Ġth essaloni
ih u
da lai
ĠJ oram
ĠT oll
ma y
Ġjings iang
ol o
Ġtip sngi
Ġmaw lang
Ġpyns mai
Ġnongia khun
Ġf t
Ġriew paw
mu jai
Ġpynkh lad
Ġpr omotion
ob by
ĠMe C
Ġin shi
Ġde y
Ġ12 6
ĠO wners
Ġjain kup
ĠHima laya
.... ..
13 3
Ġek ron
ĠMan sturdy
Ġlyngk rang
ĠÃ±iew burom
Ġlynd an
myn shuwa
Kh yndiat
mi ki
ĠRam ah
Ġthap ba
ĠAs aph
Ġ198 9
Ġgu ahati
Ġca char
Ġmes opotamia
Ġsuper itendent
ĠSoi l
ĠGali laia
ĠPal iar
ĠCC TV
Ġdef ence
Ġdeal ers
Ġsohkh let
vasta va
U F
d il
e ed
g c
p ath
r uid
ng em
Ġba jah
ha khlieh
Ġp in
Ġha jong
Ġjing la
Ġban ia
Ġban ep
hi gh
Ġkh iat
Ġw oodland
ur an
is ynei
ĠS at
ĠS ri
ĠK u
ĠK il
ti na
li nd
ĠM el
ĠM ir
Ġth ret
ĠB il
ĠH ostel
ĠA hasaÃ¯ah
Ġpaidbah ha
ynn o
Ġmar tle
Ġjingpyn neh
Ġkhubor u
ĠG SU
Ġf armer
tha m
ĠW a
ab bas
Ġdoh ksah
Ġlap miet
Ġjingt yrkhong
Ġjingleh khuid
ĠShi wat
ĠjingÃ¯ akren
Ġin vestigation
Ġ9 8
lo bal
ĠUm kiang
Ġlak hish
cc ession
Ġnam dong
ĠAd hoc
og raph
ĠCon s
inal d
ĠAg atha
Ġni ght
Ġ197 0
oun ts
Ġsai wul
ias iat
Ġkieng atiar
Ġcan ada
Ġlo ok
cial is
Ġjh ep
Ġjingpynj lan
ĠAbi jah
ĠNas areth
Ġbaro bor
ephun neh
' ,
G C
K hat
M er
i ohi
Ġs ardar
Ġj ok
Ġp j
Ġd yc
Ġd khoh
Ġb that
Ġm ama
Ġsh ngiam
ĠÃ¯a lehkai
Ġda deng
ah me
ĠS umar
ĠK ynt
ĠP et
ĠN eng
wa ch
Ġjings ei
ĠL G
Ġa ge
Ġmar riage
Ġbor ti
Ġma lai
ĠG ate
Ġf ather
Ġiak atei
ĠNong mihkhmat
Ġpr an
Ġjingkh ynwin
Ġ19 82
ĠÃ¯ing byndi
Ġin s
Ġwad bniah
ram ew
Ġkhar wanlang
yns ngi
han m
10 5
iph om
Ġnongs akhi
Ġres pon
Ġjingias aid
ĠRe venue
Ġnongt du
ĠAg reement
Ġ198 6
Ġkynd eh
ĠPyr tuh
Ġtb eh
Ġhead quarter
Ġkitbok lang
cher ry
Ġaf ghanistan
Ġindustr ial
ĠSyngk on
ĠSus an
Ġmineral s
ĠChan cellor
she et
ĠBeh deinkhlam
ĠWapung skur
! !
) âĢĿ
W ah
b itar
k yntiew
o ffic
s iar
ha nel
Ġj i
Ġp el
Ġp ow
Ġjing shon
oh rung
Ġi kwah
at ty
th ers
Ġc id
Ġc hange
ĠU ss
Ġleh khuid
Ġun iphom
ĠT ong
ĠD han
ĠA uto
Ġar am
Ġjings ylla
ynn ai
Ġph um
kum ar
us u
Ġpa hai
shi n
omm ura
ĠKha na
Ġtyng hung
Ġpr at
Ġwah khen
Ġmen shohnoh
ver tis
.... .
ĠLe ah
Ġon ly
Ġnongwan kai
Ġthei r
ĠBen hadad
Ġ198 3
Ġge dalai
eter an
Ġ195 4
sy iar
asam y
ati ya
Ġjynd ei
ĠNep al
Ġnongshah khot
ĠSai bon
Ġtes tament
ĠRiang do
Ġjl iah
ĠKynd iah
ahme el
B WA
L ym
L FA
g aro
v ia
Ġba ia
Ġj adu
Ġia tainia
Ġpyn khap
Ġpyn bakla
Ġng oh
Ġkh on
Ġw il
ĠK em
ul iang
ĠB om
ĠB iam
ĠB ani
ĠU ni
Ġwan khar
Ġ2 20
mar wei
da lin
Ġjingk lim
Ġmynta ka
ĠP ad
ĠP IL
Ġri u
don bor
no w
Ġg uid
pa ct
mie l
Ġiing dorbar
Ġsaw ian
Ġv er
ab it
Ġtam abil
Ġpynj ngut
Ġin ning
ja c
ĠLyng khat
Ġjingbym tip
ĠMar bud
ĠBa lat
ĠBa hakhlieh
Ġbas uk
Ġ17 5
Ġmo han
Ġy adav
Ġkomp iw
Ġres ort
ĠEl ectoral
ig ur
Ġher ita
Ġsal eng
ĠWar larpih
eri fication
bang la
Ġmep a
kil la
Ġsd ieh
Ġdm ho
ĠGer shon
Ġcons ul
Ġsohpet bneng
ĠYo jana
Ġherita ge
N D
a kha
h ong
l ew
o SE
s tang
Ġu pa
Ġl iving
Ġi f
Ġr ait
Ġh ymmen
ĠS w
in adab
ĠM obile
al ia
lei Ã±
Ġjingia sngew
op ha
ĠP vt
ĠP rimrose
ĠJ as
Ġjingp aw
Ġar a
Ġph ot
Ġshong kun
ĠI sh
iar y
Ġman shuwa
ĠW allam
Ġv is
Ġlyngdoh u
maw saw
Ġop eration
Ġ6 000
Ġjingkh luit
ĠF arm
Ġkhar jana
Ġ12 8
ine wood
Ġsain kupar
Ġshis ur
Ġlyngk ien
ĠBen ch
ĠReg istration
Ġrec og
Ġmep hibosheth
olunte ers
Ġsus an
ĠRyng khlem
Ġcher ra
khi jah
ĠAh med
Ġjingpynsa ja
ĠAwa ken
Ġneigr him
? ,
B lei
C F
M em
R upang
S yiem
b ut
c ules
f y
l ie
s angeh
v ii
Ġka itor
Ġba pyn
Ġn r
Ġjing woh
Ġm endipathar
Ġl iem
Ġsh lan
un ah
Ġnong pluh
Ġw r
ew is
ĠS tone
ĠS hisien
id y
sh iar
Ġkan un
al ity
nong poh
Ġjingia r
ĠH eb
Ġme th
Ġpha idien
ĠT lai
ĠT hai
ĠT rei
ĠN arayan
ĠC P
ĠA le
Ġmar tha
os star
Ġpar ing
Ġkhu da
Ġmaw nai
ed ne
ĠG ener
Ġe kh
Ġe ac
ĠW JH
Ġthoh khubor
Ġkynr oi
Ġbeh mrad
Ġra bha
bu y
ĠUm ran
Ġthe y
Ġbas ngur
ĠTh ma
ond uct
ĠIn surance
Ġser ksis
ric ultural
Ġphlang i
ĠRa ja
Ġkr ishna
oll os
Ġmed al
sing h
Ġthei samla
ĠPr asad
Ġsin ha
sy ier
Ġpei sa
nolo ji
ĠjingÃ¯as ylla
Ġ196 2
Ġash dod
Ġumsaw li
ĠAnd rew
hn yf
Ġbajan ai
Ġfer dynald
Ġadv ocate
lig ion
ĠCan tonment
Ġkais aria
Ġhadad eser
ĠMeC EL
D U
T S
b lah
k aro
s ieng
Ġka rim
Ġki r
Ġki long
Ġd s
Ġd el
Ġd utta
oh nong
Ġi ts
Ġr y
Ġna me
Ġna gar
yr shah
ĠS te
Ġc elestine
ĠM rs
Ġbar iewspah
Ġsorkar ka
ĠN ik
ĠC RPF
Ġngut ha
ĠR ome
ĠR anee
Ġum wang
Ġshim bynta
Ġiing jaiÃ±
Ġkot bor
Ġdieng synshar
Ġjinglong hok
Ġam gut
tal l
bu aid
Ġle ader
ĠSoh kh
Ġlaw s
Ġlaw bah
ect urer
sah lang
Ġ0 6
Ġ199 1
Ġshit yllup
ou gh
ĠOr der
Ġbish nupur
Ġshap han
Ġwa y
Ġmishon eri
yo ti
Ġvot es
kel on
ĠEdit or
Ġdisp ensary
ĠPathar khmah
ĠAwaken ing
M E
S oso
W ei
d el
Ġba te
Ġs elf
Ġj io
Ġjing lynn
Ġi bha
an ias
Ġsh ep
ĠÃ¯ anujor
ka juh
Ġw hol
ut ra
Ġkyn ih
ri d
Ġc op
ĠM LP
Ġth iem
iem adan
op eration
Ġleh bor
ĠH asa
Ġme sha
ĠT alang
Ġar m
ĠR enikton
Ġum j
ĠI oanis
Ġjingpyn skhem
Ġjingpyn pra
ĠG rand
Ġf ai
Ġco operative
Ġco ordinator
Ġpeit mat
ĠNong tung
maw prem
Ġst en
ĠF ilm
oli c
Ġpynsh lei
Ġ18 0
ĠMa jistor
ĠMa akah
Ġnongs ah
Ġrang e
Ġoffic ial
ĠBan tei
ĠWah ingdoh
kan chi
Kh nang
Ġkhap bri
Ġhan nah
par sing
Ġ198 4
olog ist
iak ynduh
Ġkynsh lein
ĠFront ier
ĠPi us
pd ah
Ġlambok starwell
Ġyo ung
ĠQu arter
ĠKad esh
elebr ation
Ġnsc n
H YC
N L
i jah
v iii
ba san
ha k
Ġki jong
Ġs ier
Ġp da
Ġla s
hi no
uh kjat
Ġr ei
Ġna tion
ne a
ka bu
sh ed
ap oi
op hah
Ġjings ain
ĠL asar
Ġkren sih
ĠE genstar
shi sngi
Ġsaw mer
Ġbam duh
Ġdistrict u
Ġdieng khap
ĠMaw mluh
aro th
ner va
Ġin tegrated
Ġjingr it
Ġmin imum
ĠKhar wanlang
Ġper es
ly wood
Ġunit s
Ġias ah
Ġpoh Ã¯ing
Ġher mon
Ġsc oot
ĠWah eh
Ġmed ic
ĠKhong lam
Ġni os
Ġmember s
ĠBar ak
ind ependent
Ġ198 7
Ġron ie
Ġbus kit
arta la
Ġjn at
ĠShan muganathan
ĠShah lang
Ġnongd iemadan
pynd eng
Ġorganiz ing
Ġelia b
ĠSirdar ship
Ġejh d
ĠFran cis
Kyn san
ĠLo kayukta
lari us
ĠJana ta
ĠEP IC
Ġkij ba
K ano
b ot
d is
g on
u es
Ġk k
ia no
ai s
Ġl on
Ġi rat
Ġna wei
Ġpyn ngop
Ġsh ek
th niel
ĠS hap
Ġbr ah
op his
Ġjingp om
ĠR um
Ġum syiem
Ġa ay
Ġa hasaÃ¯ah
Ġkhu b
Ġma hatma
Ġjingpyn ngat
Ġiak said
Ġbnai ka
Ġkhynn iat
Ġcomm ercial
ham med
Ġch owkidar
Ġem powerment
Ġcon f
ĠMar ket
Ġnaba l
neh u
iw ell
Ġbas eisoh
der abad
ĠLe gal
Ġdum ok
Ġsal e
Ġgo ver
Ġex it
Ġjingshong kha
Ġran ab
Ġes ekiel
ĠEM RI
Ġfa ctory
Ġiaw bei
ĠVi jay
Ġdm r
GS Y
Ġcommand ant
Ġche que
phon se
ĠTes tament
Mr k
ĠLasar os
A h
H RI
W AT
a hap
d sa
g in
l way
w ing
Ġj yntang
Ġj yntah
ong a
Ġha h
Ġha ran
Ġn ursing
Ġl ynt
ar yngkat
ne lios
yl on
Ġh ow
sha m
ri oh
Ġc lement
ĠB hat
es a
es hi
Ġbar unar
Ġjingia mir
ĠJ ha
ĠC are
ĠC hallan
ĠL ath
ĠL ask
Ġa himelekh
Ġkham pher
kum ban
Ġmaw tawar
Ġjingj ai
gha dc
Ġhang thie
Ġdistrict ka
Ġjinglong khuid
uth un
oin a
Ġcon stable
Ġal lowan
Ġjingkhang dam
Ġhar yana
Ġthe ology
Ġan n
Ġsynran lang
Ġiaki ne
ĠAm asa
ĠAm asaÃ¯ah
Ġkhie shoh
Ġnongpyn donkam
Ġjai r
do ba
ĠDe ficit
Ġacc ession
iria th
Ġind ependent
Ġ195 8
ĠSer ah
ĠBat talion
ĠKen nedy
mo han
ĠRif les
Ġlymm uh
B ym
K had
e en
Ġ Â
Ġ 00
Ġk ed
ha v
Ġs eb
Ġn it
Ġt ba
Ġb lad
Ġb cc
ar an
Ġi ps
Ġpyn shait
Ġnong shang
ynr oi
ĠK up
ĠK ir
Ġkam kai
sh om
Ġbr eaker
Ġsngi haba
ien ces
mar am
Ġjylla na
ĠJ otham
ud u
ĠD im
ĠC le
ed rick
Ġpynp ep
ĠG rik
Ki ei
Ġkhr ew
oc so
ĠSh ong
pyn bna
20 11
Ġkhar metor
Ġsangma u
jing eh
Ġab dul
Ġmo okh
Ġkhong reng
ĠDe al
Ġta iar
Ġryn i
enti ne
min adab
ĠMylliem ngap
myn shwa
ĠPres bytery
Ġpri ce
Ġpynph yrnai
Ġpra kash
Ġrev olution
Ġsad on
ĠReg ister
Ġsn ieu
Ġhill sha
Ġriat samthiah
ĠFC I
Ġcr oss
ĠjingÃ¯as eng
za ar
ĠGu ahati
ĠDi ocese
Ġstand ard
ĠMor ningstar
Ġphud muri
Shah shkor
Ġrock y
ĠBol ero
ĠEmpl oyment
ĠReb ekka
Ġtyp e
Ġthro ugh
synd ah
Ġriewpaw khmat
Ġneigrhim s
Ġmookh ep
D ieng
O R
a jan
d ocumentgetelementbyid
e al
m r
Ġk w
Ġk onstit
Ġu sa
Ġd er
Ġn arayan
Ġjing oh
Ġm cs
Ġr aw
Ġsh niah
ĠÃ¯a mynjur
Ġnong ujor
kh rang
ĠK S
ot le
ĠM asi
ĠB am
ĠB ishar
Ġbar jylla
Ġbah khlieh
Ġpyr jong
ĠJ ag
ĠT ir
ĠT amar
ĠN iwson
ud din
ĠR ec
Ġa ffair
Ġmar mlien
ĠI mp
Ġma x
ed an
ist ers
ath ed
Ġthaw lang
ĠMaw t
Ġpynj ngai
kit kam
ĠMe g
ĠÃ¯ing trep
Ġwah iajer
Ġkhar buli
Ġiew rynghep
Ġbe la
jing pang
Ġsynr um
Ġad m
ĠBa zar
ĠUm khrah
Ġ14 0
ĠSoh phoh
Ġy outube
ĠAm erika
Ġed ucational
Ġoffic ers
ĠNa omi
Ġpass enger
ej h
Ġmus eum
ho id
Ġkhyn ah
Ġjeho bah
Ġje ep
Ġhead master
ĠTrad itional
Ġpress ure
Ġnot is
Ġmess iah
Ġbil lion
ĠAug ust
Ġcle ar
Ġprovin cial
B JP
C o
H M
L aw
d d
h ia
p ap
p ir
p olice
s ub
Ġ end
Ġba rik
Ġki sh
la Ã¯ah
Ġs ni
Ġs treet
ia hap
ei Î·
Ġia khleh
Ġm un
Ġm ines
ta ble
ĠÃ¯a ka
Ġdon evan
Ġw iat
kh mash
Ġth ing
Ġsngi ki
Ġjingia thoh
Ġjingia pyn
Ġkyr ang
ĠJ uly
tri bal
ĠN ab
ĠN ile
ĠD SC
Ġg olden
82 0
ĠE mer
bad ai
ĠG ot
ĠG anesh
Ġks ah
ist otle
ĠNong kseh
od os
Ġmad ei
itar ian
Ġsp irit
Ġkhang dam
ĠF oundation
Ġkd or
ord it
Ġam erika
ĠLyng wa
ni zed
jing jia
ĠUm ngot
Ġsla sha
lim itation
ĠWest ern
ision er
Ġml on
Ġmai l
ĠGo al
Ġac id
sc om
bl ish
Ġ195 7
Ġbap op
ĠComp lex
ĠSad ar
ĠAng ela
Ġabi gail
ĠJam mu
ĠIaw phniaw
ĠPra kash
pres cription
ĠMu kherjee
ĠSyr os
ĠAdministr ative
kk uk
Ġishong kun
irc uit
Ġcong res
* âĢ¢
2 50
B ang
b um
c ap
f ord
g b
g ed
j up
j isu
r ishna
w as
Ġki por
Ġu ttarakhand
Ġp rah
Ġha sor
Ġn od
Ġb pl
Ġm yllen
Ġl iat
Ġban pyn
Ġpyn artatien
ĠÃ¯ at
sha hary
ĠK ain
Ġkha ma
om a
ĠM ukh
ĠB est
Ġwan u
Ġhi v
Ġjingk ynrum
Ġshnong pdeng
ĠP rime
ĠJ apan
ĠC ham
st is
ol et
ik l
Ġg et
Ġg orkha
Ġmih myntdu
pa y
Ġjingpyn sngewthuh
Ġnongia khih
Ġdep t
ĠÃ¯oh kem
ĠNong um
Ġjingt uh
Ġshem esh
Ġjan sing
Ġjop pa
Ġjingsh un
Ġ9 86
Ġpynr yngkang
Ġlym pat
Ġal to
Ġram ew
for e
Ġcomp etition
Ġreg istrar
min ton
Ġsynt uid
Ġmu ja
myn hynnin
ĠRa ju
ĠMo han
Ġtri bes
Ġmus ur
ĠGo a
Ġpom kranet
Ġjinghiar pateng
ĠJeho Ã¯ada
Ġahi thophel
cer t
Ġcoun sel
Ġnongd har
Ġresident s
ĠCom ing
Ġbla id
ĠPre vention
ĠSW KH
Ġcam era
edne go
F T
N angne
P DCL
W est
d ol
d le
k ynnoh
o ver
p op
v ab
Ġj aph
Ġn is
ing byndi
Ġt ok
Ġt ukri
Ġb ik
Ġb hur
Ġl ucifer
Ġkh rah
ĠÃ¯a lade
ĠS tream
ĠK rit
Ġbar ia
ĠU LFA
Ġmynta u
Ġshnong haba
ĠH eh
ĠN SC
ph iah
Ġsngew ieit
Ġsngew kyndit
Ġph ramer
Ġrangbah u
Ġmar syndah
yll uid
Ġman tri
Ġman if
Ġjingpyn heh
Ġ3 50
Ġrai lway
ĠNong kh
ch e
Ġkl op
Ġsan ction
Ġkylla miet
Ġjingkh rong
Ġmad hya
lem on
DP O
Ġnongk yn
ĠBa ghmara
Ġjo hanan
Ġ13 5
Ġdih sha
are ness
Ġkp ieng
ĠJing lamphrang
Ġbas dang
ĠCh yrmang
Ġper mishon
Ġnongs der
rat i
Ġkhein lang
Ġse ven
ĠWah khen
Ġ0 7
Ġjingman bha
bal lat
ĠBen ami
Ġsad usi
Ġshe lah
Ġsw e
Ġdan da
Ġjab esh
Ġrum nong
ope ful
Ġstand ing
ĠCC IB
Ġsyl het
ĠbakhlaiÃ± bor
ĠPla za
Ġpynleh noh
ĠDew iong
Ġkei lah
Ġdasakhiat bha
ĠProvin ce
vertis ement
M I
P a
b lai
d uk
e or
h ek
p il
p ic
s wai
t et
v n
x t
Ġk win
Ġba taw
Ġj uly
ei el
ing trep
Ġjing matlah
Ġb iah
Ġl wet
Ġr ub
Ġr ida
Ġna sir
ta nd
ne c
yr sieh
Ġnong Ñĸ
Ġw o
am en
am ynjur
er iong
ĠK iriath
Ġc oke
Ġth op
Ġth nem
ĠB rit
ĠU ttar
nong stoin
mar amot
Ġjingk yntip
ĠP ule
ĠP uja
ĠH angno
Ġlyng khuid
Ġju st
ĠL ur
ĠL ynd
ph red
don bok
ol e
Ġg upta
to sh
Ġe ver
Ġel e
ĠNong rah
ecret er
bab e
Ġsoh m
Ġing dong
Ġkhar mawphlang
Ġ11 8
jing kren
Ġpynr iam
ĠUm shyrpi
ĠJing Ã¯
ĠJing im
ĠSoh petbneng
ĠPar k
oo ja
hat tis
Ġkhong jee
Ġsep tember
ĠAb ishai
Ġtyr ut
Ġjingshong suk
Ġjingshong shngain
Ġ197 6
pr ise
ĠAl phred
Ġ198 5
ĠTha pa
lu x
Ġjusti ne
dew saw
ĠRobert june
Ġfe et
Ġ196 3
ĠMawsh un
Ġsuid n
Ġelec tronic
Ġmir iam
âĢ¦ âĢ¦
Ġbethan ia
ĠSS LC
ĠDal oi
Ġjingbud dien
ĠBis wa
ĠGog oi
wach h
Ġrecog nized
Ġkhapbri p
E F
N e
a ct
z z
Ġba thiang
Ġba jakhlia
Ġp nah
Ġla ha
Ġia thaw
Ġb t
oh it
oh khiah
Ġi taly
ne n
ang sot
ĠÃ¯a kajia
em ic
em oth
Ġw ildlife
Ġkam ka
ĠM M
ĠM yanmar
aid u
nong shong
lang k
ĠP ers
ĠH im
ĠJ eth
ĠJ air
ĠD TO
ĠC lement
ĠL A
ik et
ĠI GP
Ġf al
Ġf our
Ġpynd ih
Ġpynia leh
ch ief
sa ction
Ġsoh lang
Ġst or
Ġam ita
Ġ9 00
Ġch nong
ohi bition
Ġpynr oh
ĠMar cus
Ġmon olith
Ġjo y
Ġsor be
ust ral
rit ing
uc er
eb na
Ġmp uf
ĠAb iathar
Ġno vember
Ġjingiakynduh lang
gan ic
Ġpynkup burom
ase Ã¯ah
ĠNongk war
ĠSe at
Ġge hasi
Ġpyntha nda
Ġshan muganathan
ĠSi las
ĠJud icial
ĠPri ze
KH NAM
Ġmak doh
Ġwa iar
HI MS
ashong kha
ĠSy stem
ĠLine age
ĠHamlet son
ĠMak edonia
ĠNEIG R
ku lai
Ġuss iel
ĠPynthor umkhrah
ĠSil char
Ġ94 36
Ġom ri
ĠUmsoh sun
Ġjit endra
ĠIl ekshon
Ġej nc
I ndia
R O
b om
d ah
i lan
i jli
p li
v ar
Ġba ls
Ġba lad
Ġba ck
Ġs well
Ġd p
Ġia khlad
Ġjing mareh
Ġjing lanot
Ġt lor
Ġm ent
oh sat
Ġi thamar
Ġna kata
ĠÃ¯a pher
it huh
em at
Ġh ym
Ġh eman
kh yr
ĠS ap
ri killa
ĠK M
id do
id ence
id ua
ĠM A
ĠM aster
Ġbr olding
Ġmyn dang
Ġpha wer
kam ai
ĠA lex
ĠR S
ec tive
Ġum siang
Ġmaw datbaki
Ġjingb u
Ġjingth ud
Ġkhlem rain
Ġe urope
Ġpynd iaw
Ġjingd iang
Ġv en
Ġ19 49
ĠSh yiap
ĠF re
Ġmat siewdor
Ġjingbym ngeit
istan cing
Ġkhlaw ait
Ġsor bah
haw ar
Ġwei ght
rin ting
Ġsyr dep
ĠIn f
ier s
uba l
kyn don
Ġrieh tngen
Ġli li
Ġkr opha
Ġinter est
ĠNorth ern
dr f
ĠPh ud
Ġeng land
gn la
Ġwer e
ĠKar mel
Ġ196 8
Ġpen sion
ĠJos aiah
we et
Ġke jriwal
ĠBak ur
ĠHous elist
ĠPM GSY
Ġwe ek
ĠMoo khep
Ġgen l
ĠNongt du
Ġtek noloji
Ġpanchay at
Ġshyng oid
ĠBoy s
athed ral
F KJGP
I P
j aid
k li
s ocial
Ġ os
Ġk ro
Ġba it
Ġs id
Ġs aph
Ġp c
Ġd in
Ġd aiÃ±
Ġia shoh
Ġn im
Ġt are
Ġb tah
Ġr ana
Ġna lin
ĠÃ¯ atrei
ka shari
Ġda shin
kh ol
Ġshi ing
ĠP radhan
Ġjylla ki
ĠN R
Ġri baibal
kha dar
Ġjings eng
ĠL as
Ġa z
Ġjingm ana
har oi
Ġjingpyn her
Ġe hajar
ein ah
Ġiak yn
ak said
ĠKi ren
Ġass oc
pl eng
Ġam asaÃ¯ah
ura v
Ġkhar naior
Ġjingkren bein
ĠO f
ro vet
ĠMar k
ĠUm trew
ĠKhar jana
ll eng
Ġmo ther
Ġjah thait
lyng oh
ĠAm ita
Ġmem orandum
kyr ding
Ġjingkit bok
SP A
Ġring dur
ff er
lip has
Ġlynd em
Kh ristan
ĠKhong lah
Ġdis qualification
Ġrev iew
ĠjingkheiÃ± briew
ĠSal eng
Ġdonbok lang
Ġby pass
ĠAi zawl
ĠBas aw
Ġbengal uru
ĠCha ndra
ĠGu jarat
Ġger many
ĠShem aÃ¯ah
jal on
ĠMor ning
ĠRep ublic
ĠâĢ¢ *
ĠTech nical
Ġbla ck
ĠSyngk li
Ġliew long
pol it
ĠChampion ship
ĠUs saÃ¯ah
ostar well
Ġrelation s
tala si
ĠÄ« a
apyr di
ĠDec ember
ĠMukh la
hattis garh
C hairman
V ID
f ir
h ylla
m embers
s r
t ary
Ġk rai
Ġj im
Ġj sm
Ġla chumiere
Ġt ympang
Ġb oi
Ġb holaganj
Ġl wa
hi k
it ha
yr not
ut or
is mas
aw ad
sha b
ĠS aiÃ±
op al
oi r
ĠP il
ud h
Ġjings pel
Ġlyng wiar
ĠR oll
ĠR obin
Ġum ph
Ġsnem ka
Ġpar eh
Ġg ypsy
Ġiathuh khana
Ġjingpyn tieng
rai j
Ġmaw khang
Ġpynk lumar
ĠE lam
ĠE banjelis
iam ond
ĠG om
Ġe lah
Ġrai ot
Ġhil kai
Ġiak jakor
Ġdoh sniang
ĠMaw eit
Ġpr op
Ġsang riang
kat ne
Ġindia u
Ġ12 7
Ġieh bein
Ġ11 9
ter y
shim khia
Ġnam jop
istr ess
Ġpla y
Ġres ubelpara
Ġbs ut
ler y
kyn tein
Ġbylla i
Ġkhyndai spah
les ia
Ġsi ba
Ġsong sak
Ġer win
ĠBar ato
ĠGo vernor
ĠYm bon
par ty
Ġpai la
ĠSha phang
Ġlakh on
ĠJeho Ã¯akim
Ġpei phang
ĠLuk ha
ĠPha se
Ġbymdon bor
Ġvictor ia
Ġkhath ynÃ±iew
ĠJan sing
mynt ing
Ġgoal para
Ġrab bah
Ġprem ier
ĠAnti okh
Ġlup a
ĠRab on
Ġhusband ry
ĠAdon ijah
Ġimp hal
ecreter iat
langk ona
H RC
I NC
m elekh
s ynniang
z ette
Ġk lat
Ġj ig
ia dei
Ġp ork
Ġd un
Ġd istancing
Ġia dat
Ġn iar
Ġb b
Ġb ed
Ġb uid
ynr op
is ra
Ġkyn hoi
ĠS ede
ti r
Ġkam dei
Ġkha id
ĠM yns
Ġjingia shoh
Ġjingk haroi
ĠT eng
ĠT oi
ĠT ob
ĠD arius
ĠC ab
ĠA A
ĠA mar
ĠâĢ ¦
Ġdang step
ĠL ui
tr ess
Ġkiwei ha
im on
Ġma haram
Ġmaw ria
ban anda
ĠG raduate
Ġks ih
Ġthain u
Ġpynd koh
ĠNong bet
ss asta
ĠjingÃ¯ a
ĠjingÃ¯ akhih
Ġin vitation
ish uh
oli n
ĠO bed
Ġ18 41
Ġsta ge
Ġy ard
ĠAm erica
ĠTh yllaw
Ġnongpyn kha
Ġpynm adan
ĠIn come
endra ganj
Ġrel ief
ĠBar ukh
ĠBar idua
eri bah
Ġ199 4
Ġsai lo
Ġrat hai
ĠBS NL
Ġjyr wit
ĠTam il
Ġ196 7
ĠRon ie
................ ................
ĠRep ort
Ġten ancy
Ġpd ot
ĠÃ¯uh roit
ĠVictor ia
ĠCO VID
esal el
ĠElec tric
Ġkwin tal
J NC
R yngkat
S t
S ec
c ec
d ia
o ham
p yngngad
r iah
s in
u ch
y la
ha mar
Ġs lam
Ġs dpo
Ġu se
Ġp ent
Ġjing tian
Ġb ul
Ġm w
Ġm ynr
ĠK san
Ġc ag
Ġth yllaw
el se
ĠH on
ĠT ip
ĠT nad
ĠT ask
ĠN apdeng
ĠD one
Ġjingp ep
Ġjingp yut
ĠL u
Ġkhubor ka
Ġf air
isa beth
shi teng
te e
ĠNong dhar
shan lor
ĠMaw lynnong
Ġsoh myn
Ġdur ga
ĠShi thi
Ġsp ong
Ġkyll ur
lap ara
Ġkhar m
Ġkhar kongngor
Ġnongshong wai
ĠpynÃ¯ ar
Ġjingr ep
Ġkhadc u
ĠO ng
end ar
Ġal so
Ġnongp yndeng
ĠMa c
Ġter ter
kut ta
ĠNa lin
Ġag arwal
Ġjingph er
ĠDon al
ĠKH UDA
Ġjingbha sbun
ĠĠĠĠ ĠĠ
dem i
rop ha
ĠsaiÃ± dur
Sh en
ĠJu ne
ĠSaw mer
ĠLaw mali
ĠEn try
Ġpi lain
ĠKA S
ĠInd igenous
Ġhor on
Ġlit tle
Ġpyndeng rei
Ġmt c
Ġgil bert
Lyng doh
ĠTr ok
Ġshynriah ti
ĠSuper itendent
Ġtyn neng
ĠEJH D
ublish ers
ĠVal ley
Ġjingla lot
ĠSohkh let
Ġmanif esto
ustral ia
ĠSede kaiah
) /
) &#
S ecretary
S umar
d iar
i ki
m or
m il
n h
t l
Î ª
Ġ ),
Ġ ...
Ġka u
Ġs wat
Ġu a
Ġia ng
Ġn tc
Ġn ichols
Ġjing niah
Ġjing talasi
Ġt t
Ġt main
oh lad
Ġr ew
Ġlong doh
ad oh
ĠK shaid
Ġkam poh
Ġai ds
ĠM ynt
ĠU PA
ih un
Ġjingia mareh
ki lo
ĠH is
ĠJ ephthah
ĠN or
ĠN ic
Ġjingp as
ĠC as
ma beth
Ġar o
Ġju ban
ĠR ob
os sai
Ġpar um
Ġma lade
Ġkim fa
Ġbiang u
Ġpynp ei
ĠG ames
Ġo wner
Ġf ield
Ġv an
Ġlait noh
Ġtam a
tam p
pl er
pyn khreh
Ġnongr ing
Ġ12 00
Ġch rist
Ġbe ne
Ġcon dition
Ġsuk koth
ĠÃ¯ap shiliang
ĠBa asha
ĠCouncil s
ĠMa yr
ell er
Ġpoh jait
Ġsim ri
Ġbs c
Ġmaws mai
Ġryn Ã¯eng
Ġjingh ukum
Ġjingkyn jah
ĠRa bha
mas i
Ġen vironmental
Ġqu alification
Ġraj iv
Ġhan an
ĠÃ¯am kthang
ĠAs ian
Ġak hish
Ġelisha ma
Ġtitos starwell
Ġsynrop lang
ĠjingÃ¯as iat
ĠBu am
Ġjingpynhiar kput
ĠBhar atiya
ĠFir e
ĠME PA
cip line
Ass am
Ġshikh yllipmat
isra el
A d
O H
P yr
V K
c ity
g ery
j su
l ess
s er
s ara
Ġ Âł
Ġ ied
Ġka ka
Ġs buk
Ġu k
Ġla tho
Ġha gar
Ġn s
Ġn ig
Ġb ull
Ġb ureau
ĠÃ¯ or
Ġnong pa
Ġnong jied
Ġdei peit
sha kri
Ġshi bit
ĠS well
ĠK ei
ĠB on
long kmie
Ġhi ran
mar jan
ra y
ĠJ ason
ĠD ad
Ġym lah
ma la
Ġjings ympat
Ġdang sah
ĠL en
Ġsngew shngain
Ġmar pa
Ġpa kyntein
ĠG oliath
Ġsk ong
Ġpoi ei
Ġpoi kha
Ġco ordination
ĠNong rep
ĠW il
mu da
br oin
Ġthoh broin
ĠKh nang
pl emen
Ġ10 5
Ġduh noh
Ġbak shi
Ġkhar bhih
Ġsu chen
Ġad iv
ĠO g
ost on
ĠJing kdew
ĠAssam ese
lin ic
Ġsy pros
ĠMP SC
Ġpass port
Ġlyngk tar
oth ers
Ġ0 36
Ġfr ien
oot ing
ĠJeh oram
ĠMi zo
Ġrec om
Ġnongkh ein
Ġmor cha
Ġaud it
Maw prem
Ġson owal
ĠPak yn
Ġlongk ni
Ġpad un
link er
jo wai
ĠDM R
Ġish bosheth
Ġmel khisedek
ĠRock y
blish ment
ĠDone van
5 2021
H ynÃ±iew
e had
g ya
h ospital
i x
m ep
t iel
w ami
Ġba by
Ġki haba
Ġs ide
Ġj rop
Ġp dang
Ġd ist
Ġha z
Ġia shai
Ġt ung
Ġm ore
Ġi dentity
Ġr ok
Ġr os
on s
Ġkh yns
Ġsha iong
ah el
un it
un ction
Ġnong buaid
Ġh om
Ġkyn jing
ĠK ropha
Ġphi lippi
Ġc onstit
Ġth long
ĠB ut
et ric
Ġsorkar ha
ĠJ it
Ġkawei u
wa la
Ġjings khem
ĠL yn
ĠL ewis
Ġum sy
st ed
Ġbha wan
Ìĥ ;
ynd eh
Ġma lidor
bha i
har ist
Ġjingj akhlia
Ġpyns aphred
Ġsah uh
Ġsah nam
Ġkhlem pep
ĠÃ¯oh nong
te ur
Ġv ery
and y
man uel
tam ur
ĠSh ynrang
rap un
ĠF riday
Ġkhlieh tyrshi
Ġjingwan rung
Ġra vi
ĠKhar buli
Ġjingma ian
onstitu ensi
amar i
ĠAr ta
Ġram siej
Ġjingias noh
Ġchief s
Ġrang ad
Ġas ahel
Ġkor bar
sar ia
yc om
jai ur
Ġpolit ics
Ġec onom
Ġther e
ĠRam ew
oph ehad
ĠBen aÃ¯ah
Ġsad dusi
Shi bun
Ġjingsah teng
ĠJeho Ã¯akhin
ĠLai phew
sm c
ĠAnd hra
Ġaug ustine
Ġinf il
Ġstephan son
Ġsig n
Ġlaka dong
phar macy
ĠArch ie
Ġkno ck
eks and
ĠNEIGR HIMS
emat ics
B C
G H
I M
L e
S WO
V AB
c ustom
f o
k om
k oit
n orth
p ri
s outh
s ns
s elling
Ġs isa
Ġp andal
Ġban ri
ar s
Ġr iej
Ã¯ ar
Ġnong trai
Ġh lc
Ġw hen
Ġc y
ĠM R
Ġwan suk
nong trei
Ġja g
ĠT ylli
ĠN un
Ġseng ka
il ui
ph la
Ġum niuh
Ġne bus
tr oll
Ġkiwei u
Ġpar om
yll ieng
kum ne
Ġpa ge
Ġjingpyn hap
Ġnang lah
Ġsah kynmaw
ĠE sh
ĠG re
ĠG rade
Ġe very
br ose
ĠMaw bynna
ĠMaw lasnai
ub on
Ġass essment
Ġjingkh wan
Ġ19 65
Ġkem bhavi
ĠjingÃ¯ ambriew
Ġkd iar
Ġmadan ryting
Ġch oudhury
Ġre al
Ġre fer
ni ght
Ġ11 1
Ġassam u
Ġgaro land
ĠHi b
ĠJing kieng
Ġram esh
Ġy uva
Ġpynshai ong
ĠPar king
ĠCon federation
ĠRe lation
Ġshet ja
Ġcomp ulsory
bih khiew
ern ard
Ã±iuh tmoh
ĠPh rang
ĠRam oth
Ġhan anai
Ġkhyn thei
Shi sha
Ġjeho Ã¯ada
Ġhus sain
Ġdri bar
nel ian
Ġjyr thiaw
ĠKyr tong
dew iong
Sha no
ĠBri dge
gis lat
NE HU
Ġus saÃ¯ah
Ġnah or
ĠWei king
Ġnongj ngi
Ġksang ti
Ġfish eries
Ġshop ping
Ġnongkam sniew
Ġnehem aiah
Ġthyr nia
Ġjeth ro
Ġagain st
lesia stis
Ġsohmyn ken
plemen tation
Ġnebus aradan
A pp
E x
P ar
S SA
f it
j oin
k poh
s ym
s iat
t uber
u apara
u gene
w ith
y am
ng c
Ġka bi
Ġs ss
Ġp ool
Ġt ele
Ġm fa
Ġban khia
Ġkh ylla
Ġh um
am ah
Ġdei n
eng h
sha ra
ad ak
Ġbr ing
ĠB L
ĠB rah
Ġioh rah
el ekshon
ork it
Ġhi m
as ah
Ġleh rukom
ĠP ah
Ġpha ro
ĠJ ak
ĠD ig
ĠA t
tr iang
Ġph ngit
Ġmar rep
yll ud
Ġbor sora
Ġpynb uh
Ġf aleiro
Ġks aw
Ġe ff
Ġbam eh
Ġjingmut lop
Ġv ol
Ġlai lad
Ġmeghalaya ka
Ġjingiak yn
ĠMaw tawar
ĠKh nam
ĠKi ei
Ġjingkh ynn
Ġ19 45
ĠHa jong
re ga
Ġkhang lut
Ġ10 4
Ġdew thala
Ġin quiry
Ġpan aliar
Ġiew bah
ngut kiba
Ġjingr khie
ĠO ne
ine sh
ĠV C
Ġal lantry
ĠMa ha
ust ry
ĠJo sh
Ġsing le
Ġbit or
Ġpynm utlop
Ġrang thong
ĠCon v
Ġbyr sat
ali ban
Ġag ent
Ġher o
Ġsc or
Ġsc ale
ari khana
Ġtyr ha
Ġjingpynk san
Ġlynd ang
Ġkad lieng
Ġ0 2
SA K
Ġsai pung
Ġtak raiÃ±
ĠkheiÃ± duh
par alok
Ġlo ve
Ġmic ro
bang ladesh
ras wai
Ġaf ric
Ġahi maas
Ġval entine
Ġdip loma
Ġpaham syiem
ĠIaw musiang
Ġmawt ylliat
Ġjingpynj ulor
Ġkas et
Ġdec ember
ĠÃ¯amih noh
Ġsohk ew
led ge
Ġol ympic
ĠSong sak
tymp an
dil oin
ĠRum nong
else bul
ĠMynt du
sns bh
A DC
D k
D SA
K yr
W U
i jot
k ynta
p yllieng
t ohkit
t ies
v or
Ġba iong
ha naÃ¯ah
Ġs om
Ġs yllen
ia leh
Ġla boratory
Ġd g
Ġia th
Ġia wad
Ġjing ieh
Ġjing maramot
Ġm olekh
Ġl og
Ġr et
Ġr yndia
Ġna both
un na
er jee
kh os
om ith
sh ub
Ġbr itish
ĠB y
ĠB hu
ĠU N
Ġioh kynti
el ing
ĠP rop
ĠP eace
ĠH y
ĠH iram
Ġjingp ruid
Ġtha r
ph el
Ġshong kh
Ġpynk ordit
ĠE nergy
ĠG al
Ġlum shyiap
Ġlai oh
Ġlap dien
ĠKh uid
Ġkylla step
Ġjingsngew meng
jor ia
jan ai
Ġ7 000
ĠF aleiro
ĠAss istance
Ġbe a
Ġsynr iah
ĠÃ¯ap stai
ĠMar ch
ĠV ote
ĠKhar malki
iw ari
me ecl
Ġnongp deng
lock down
Ġter ritorial
Ġsyr wet
ĠÑĹ athuh
Ġrang kynsai
ĠCon vention
Ġtim othy
Ġryn jup
ĠAn nexed
ĠLait kseh
hit ub
Ġge ba
lik ia
ĠEn ter
DR F
ĠBe at
Ġsil ver
ĠShal lum
ĠJan uary
Ġjinglyn Ã±iar
Ġdeal er
Ġgener ous
Ġkais ar
ĠAdministr ator
Ġdeli lah
ĠIndustr ial
Ġgene ric
ograph y
Ġdadeng gre
ĠLath o
Ġkhyns oit
Ġinfil tration
H G
N M
N yngkong
V II
a use
b ill
c ul
h ome
k ien
m ia
s w
s et
v ies
Ġ Î·
Ġk endra
Ġka per
ba th
la iphew
Ġj ang
Ġu gc
Ġp le
Ġn y
ta k
Ġpyn tian
Ġkh mieh
en ary
it ude
ĠS ning
ad ers
ri pt
ĠK no
ĠK ular
ĠK illing
ti la
Ġc ash
Ġpat ka
Ġjingia tan
Ġshnong rit
ĠP ap
ĠP el
ĠP ale
Ġjylla la
ĠJ ub
ĠT arik
Ġjaka ha
ĠN an
ĠN adab
ĠD ai
ĠD HS
ph um
Ġne ver
Ġsngew rem
yll ep
Ġg ang
Ġjingpyn sah
Ġlad y
Ġmaw lein
lad eshi
Ġf ut
Ġf ast
Ġsaw khmut
te shassar
ĠNong Ã¯
ĠMaw diangdiang
Ġam d
Ġ11 5
ro ot
ĠMar kos
Ġal bert
Ġneh usu
ĠAr non
Ġrong jeng
ĠGaro land
ĠJo y
ĠAm on
Ġwei king
Ġias ylla
Ġpoh khyndew
Ġtap moh
ement ary
ĠEl kanah
ĠPhi nehas
por ter
ess ential
Ġjingph ong
Ġgo vernance
Ġor ig
kj akor
ĠjingÃ¯ap them
ĠMo ok
ven ile
Ġjingshong shit
Ġjon adab
NG C
itor ing
ĠSe kharaiah
Ġjeho Ã¯akim
Ġtong khar
Ġnongsha t
Ġje shua
Ġkj ap
Ġjyn haw
ĠJus tine
ĠMB oSE
YN N
Ġtab le
Ġsen nakherib
ĠÃ¯ashong kurim
pynd ep
ĠMak ri
Ġinf rastructure
Ġelia shib
Ġche ap
phon s
ĠCr PC
ĠCr oss
ĠLit eracy
Ġkno w
Ġbatyng shain
Ġmok otduma
Ġbhu tan
Ġbhat tacharjee
Ġear th
ĠBeer sheba
Ġpynshait bor
pay ee
Ġwo uld
ĠDad eng
Ġrecom mend
Ġkaper nam
? ?
B am
i wei
i ology
m uk
m es
s ection
t oh
Â °
Ġka sngi
Ġba shai
Ġd haka
Ġia rai
Ġm ishra
en da
Ġdon al
Ġnong wah
Ġnong phlang
Ġnong mareh
Ġh ing
Ġlong syiem
ĠS co
ad ait
in da
ĠM ep
ĠB CC
ĠB ring
Ġwan dur
as ngew
Ġjingk ilan
ĠH and
ĠN urse
ma c
ĠL eit
ph e
Ġum bir
os is
Ġg ordon
Ġg alatia
Ġma as
Ġma jor
Ġjingpyn Ã¯aid
Ġmaw ka
ĠE AC
ĠG asa
Ġks oh
Ġeh ud
Ġto biah
iv ah
sa ge
ĠKh la
Ġ19 1
Ġiap ein
Ġsp eh
Ġwah umkhrah
ja ya
Ġam asa
Ġcouncil u
Ġre khab
ngut ka
ĠO m
Ġra hab
ĠLa ka
Ġrep haim
Ġsem ester
ĠKum ne
aph et
Ġwei gh
Ġmp f
Ġkhong s
ĠAb dul
ĠNa zareth
hal lam
Ġmuk tiar
Ġmi khal
Ġwork s
ĠSchool s
chi ll
ĠMaws mai
ĠPh lang
ĠRam siej
per cent
Ġeli g
bru ary
AB A
ĠJon kha
ĠRaj iv
Ġcan adian
ĠMadan rting
Ġsw kh
ĠAp ol
Ġnongkh mih
Ġprod uction
Ġler kam
Ġcm d
ĠWomen s
Ġcoun try
ĠFran k
aj payee
Ġjinglyn shop
Saw dong
ĠDik anchi
HN LC
Ġbakyn jang
Ġtir sah
Ġfin ancial
Ġhari jan
ĠGom orrah
A LA
C h
H amar
J HADC
O M
b im
g oan
h s
h ei
j ou
v est
v ester
z ab
Ġka bynta
Ġs ent
Ġu df
Ġp ocso
Ġm oney
ar am
it on
is tic
ĠS ardar
ĠK ynmaw
ĠK yrshan
Ġai t
ĠM endipathar
Ġth ubru
ul man
ĠB and
Ġtr ud
Ġjingk y
Ġjingk nieh
ĠJ earim
ĠT UR
tri ya
ud i
si b
ĠA reas
ĠR yntih
Ġum wali
st rong
Ġph oi
Ġshong neh
leh hok
ĠI d
Ġman study
ĠâĢľ ,
Ġpa j
Ġpyns um
Ġjingb teng
Ġjingth ur
ĠG orkha
Ġf ra
ĠNong pluh
Ġpynia hap
Ġjingmut dur
lar ia
Ġv iew
od ymmai
Ġdieng iei
Ġlap top
Ġsoh kha
Ġjingsngew pher
je et
pyn mih
Ġkd am
Ġ12 3
lo th
Ġmin i
ĠUm lyngka
Ġ13 2
ĠJing bishar
Ġfor ward
Ġ17 0
Ġmo onlight
Ġpol ytechnic
ĠKong wang
Ġsim card
Ġ28 0
Ġjingph yrnai
Ġmi khael
Ġthan da
Ġpost er
Ġarta kserksis
ĠAn n
Ġjingbun kam
Ġmus li
eri tage
jee v
vis or
ĠWan suk
Ġshan bor
Ġkynd ait
Ġ195 9
ail ed
Myn hynnin
Ġjyll ud
mp cc
ĠSep tember
ĠKr ishna
Ġmong or
ĠKit boklang
Ġproduct s
Ġarab ia
ĠMC S
Ġbash ukor
ĠHSS LC
Ġlib nah
ĠBr olding
ynthi kna
Ġlongryn ieng
Ġmsp cb
ĠDef ence
Khat duh
ĠFarm ers
Ġaro er
A A
F SPA
G eneral
S eng
g ibeon
l ud
o ah
p nar
t est
t ers
ha na
Ġki ki
Ġj oin
yn thut
Ġn ut
Ġn bcc
Ġjing thain
Ġjing arsap
Ġt da
Ġb ooth
Ġl eston
Ġi or
Ġr t
Ġr iah
Ġr est
Ġr bi
at ia
Ġkh er
Ġsh no
Ġsha ki
Ġsha to
aw lia
ĠS erub
Ġkam ha
Ġth lieh
ĠB ir
Ġioh pang
Ġkyr da
tri ct
ĠN umber
ĠD un
Ġjingp huh
ĠC ID
ĠC hoir
ĠA kh
ip r
Ġar ad
Ġne bat
Ġsngew iahap
Ġph d
Ġph estos
Ġnang hiar
ĠG irls
Ġks ain
Ġel ieser
Ġthain ha
Ġpynkh lem
Ġsoh shnong
ĠMe PDCL
Ġmat ta
Ġam ram
han y
Ġ11 6
lo g
ĠUm den
ĠCh eck
Ġab hiyan
ĠMa y
ĠAr t
cent re
Ġbala khawa
ĠCon struction
ĠNa aman
ĠDe gree
ĠLum lang
Ġmal l
Ġnongt ied
Ġnia kha
co tic
Ġ0 8
Ġqu in
sal ia
Ġmul tip
Ġpom blang
Ġge nesis
Ġjeho Ã¯akhin
ĠTa ta
Ġjingpynd ik
Ġjyr wat
MS SA
rup a
Ġrec ei
ĠInter view
Ġdik anchi
ĠGu est
map utra
ĠSai pung
Ġic ar
ĠCamp aign
ĠCher ra
Ġvehi cles
ĠTrans former
ĠFa cebook
ĠTal ent
ĠKom iti
Ġtreat ment
Ġkarim ganj
ĠBrit ish
ĠSerub babel
. âĢ¢
; .&#
G NLA
M UDA
P han
k mai
m ong
m rs
n athan
s sa
u er
z i
ĉ ĉ
Ġba is
ha il
Ġs ud
Ġs ite
Ġs ieb
Ġj awaharlal
Ġp ic
Ġp ied
Ġd op
Ġia mynjur
Ġn iwson
Ġn elson
Ġb ta
Ġm einah
Ġl uck
Ġr v
Ġr ymm
Ġsha ll
en son
Ġnong st
em a
kh luit
ĠS khem
om an
li zation
id an
sh rong
ĠM TC
Ġth lia
uk harist
ĠB ym
Ġpat el
Ġjingia ineh
Ġhap hi
Ġmynta ng
ĠH yn
ĠT ur
na g
ĠC ode
Ġsa cred
Ġkawei ha
Ġkawei ka
ĠL oukas
ĠL iving
tr u
ĠI t
Ġg os
Ġlad thadlaboh
Ġsk in
Ġe lim
Ġe ye
Ġriew madan
Ġ4 50
rad ip
ber al
lat ed
Ġlap lah
ss asa
re v
Ġiap ait
Ġcomm itte
Ġ9 85
Ġde ka
oli d
jing long
Ġjo urnal
ĠUm wang
ĠUm pling
amar eh
Ġy oga
ĠCon tra
Ġgo shen
ĠChief s
ĠAn imal
Ġrel iance
Ġkhoh wah
land o
Ġqu ali
bet es
Ġjingshim ti
ĠMi kaÃ¯ah
ho sh
Ġpai bah
ten ance
Ġsiej lieh
Ġapp lai
Ġkj bwa
OC SO
Ġnongm ynsaw
bak on
Ġent rance
Ġsd b
Ġsel sella
ys ia
Ġarch diocese
ĠMes saiah
ĠKim fa
Ġlet ter
ĠNet work
Ġmayrald born
Ġbatyng shaiÃ±
Ġlive lihood
ĠKon sti
ĠOrganiz ation
ĠDri ver
ellow ship
ĠMesh ullam
Ġkompiw tor
ĠThai Ã±
Ġkabi net
C EC
L eit
j yf
l ian
v ice
Ġba tei
Ġj lop
Ġla farge
ei g
Ġn um
oh pateng
oh kem
Ġi ra
Ġi shar
Ġr eturning
Ġkh cf
Ġsh ei
ĠÃ¯a khun
ah em
Ġw ak
ur chill
kh riat
ĠK m
ĠK ing
Ġai li
Ġai kam
sh rut
Ġth ot
Ġth num
Ġbar ben
Ġbar sillai
Ġwan rung
ĠT i
ĠD es
lor ni
Ġseng bah
ĠL akhi
Ġne ko
Ġa v
Ġlang uage
ĠE E
bad ha
Ġjingi bein
Ġpynd um
Ġriew donburom
ĠNong lum
iv er
Ġv ig
Ġsoh shang
Ġpr ek
Ġjingkh long
ĠMe sha
ĠMe eting
Ġsp aiÃ±
ĠF in
Ġmat tan
pyn shngain
Ġkhlieh shnong
Ġ10 6
Ġ10 7
Ġsniew bok
Ġch ettri
Ġiaka ba
jing im
Ġan athoth
ĠMa han
Ġdem thring
uc hi
pyr shang
Ġjingba ng
Ġlaw se
Ġsc ientist
ies el
suk i
Ġmi ners
Ġmu sic
Ġjingpynk hih
Ġec o
Ġsuh sieng
Ã¯ap om
ator s
ĠAs araÃ¯ah
Ġpolitik s
ĠTha in
ĠKar nataka
SE L
Ġapp ointment
Ġlur shai
nad u
Ġlin k
ĠAhi jah
ĠMoh on
Ġjingsynran lang
ĠChild ren
Ġpand it
Ġod isha
ashi on
ĠGen l
ĠRiat samthiah
Ġbec ause
Ġnongpa hara
Ġadiv asi
A S
A p
I nd
M T
V III
b hu
g ew
g mail
h yndai
k ub
o enai
r ok
u Ã¯ah
Ġ ohi
Ġka ha
Ġs tamp
Ġu bah
ia lang
Ġha iÃ±
Ġm end
Ġi ka
Ġr d
ta s
Ã¯ u
ĠÃ¯a suk
am ir
er langthari
sha Ã¯ah
ĠS iej
ĠK K
Ġkam ar
li na
sh mi
Ġc lan
ĠM akhi
ĠM ines
Ġkan jari
Ġpat tern
Ġsngi la
Ġjingia jied
Ġsorkar haba
ĠH yd
ĠJ awaharlal
ĠT el
ĠD ing
ip ta
wa khu
Ġg old
Ġjingpyn jah
Ġmaw phu
Ġ3 30
Ġnang to
ed or
ĠG am
Ġto day
Ġlait ryngew
sp orts
sa lan
Ġjingsngew ieit
ĠSh o
Ġshem aÃ¯ah
re al
Ġap il
ĠjingÃ¯ akynduh
Ġkhar pran
bi o
ro th
Ġphet rieh
brot o
Ġkar ma
ĠKhar mawphlang
Ãı aroh
Ġthi rd
Ġnongs aid
ĠAm non
Ġpla card
ib ility
Ġsup port
Ġring swai
Ġas araÃ¯ah
Ġsc ott
Ġpynbha briew
Ġdum per
Ġex p
Ġnongt ohkit
ĠSup pl
ĠAg arwal
erv is
Ġsai kia
Ġkm ang
ca a
jait bynriew
Ġmawk ynroh
Ġapp ro
ĠComp ound
Ġsosp en
Ġkon sil
adem ic
ĠTour ist
cs wo
Ġpre g
pu ah
Ġsham mah
ĠSem i
Ġjingpynia suk
ĠSyl het
ĠWal es
chel or
Ġdhan kheti
ĠMishon eri
ĠGolf link
ĠAf ghanistan
NRE GS
ĠNSC N
gislat ure
) (
H i
c utta
j ngoh
l m
m ynsong
m istress
x ti
Ġba matlah
Ġki paidbah
Ġd hah
Ġha katei
Ġia wai
Ġn og
Ġn fsa
Ġjing ak
Ġt um
ai u
on ikl
Ã¯ oh
at ba
Ġng aiÃ±
ĠÃ¯a w
eh old
em es
Ġh orkit
Ġw here
ynr iam
kh n
ĠS ession
ot er
Ġbr ut
ĠB ieit
nong thoh
lang ana
as im
da iah
Ġmynta n
ren ce
ĠH eritage
ĠD uh
ĠC ricket
il ia
kha in
ĠL yer
st rit
Ġmar athon
leh noh
Ġmaw dong
Ġjingj em
ek ar
Ġjait b
ĠG upta
Ġks aiÃ±
Ġpynia lehkai
Ġdieng thew
ĠMaw lieh
Ġpynj an
Ġ19 46
Ġjingshah ktah
Ġdr j
Ġjingkyr ni
Ġjingkyr kieh
Ġjam bor
Ġjingbym hun
Kum ne
jing shah
end ing
ĠCh em
lim etre
ell ence
Ġnongs awlia
Ġjingioh thiah
Ġwar bah
ĠMP DA
Ġag rippa
Ġlyngk ar
Ġse al
Ġnongt nger
Ġben aÃ¯ah
ĠDieng iei
unic ation
Ġmul ti
Ġdis pur
ten sion
Ġbo y
Ġmag dala
ĠSim pah
ĠWan khar
ĠRes erve
ymp ep
Ġiaw moit
Ġrom an
ĠTang ba
Ġmak e
Ġhor dang
Ġnongkh num
ĠByr sat
Ġsd seo
ĠNEIG HRI
ĠBak shi
Ġpaham mawlein
Ġpe kah
Ġelia kim
ĠTr ust
Ġkhynr iam
ĠGil bert
ĠKe jriwal
ĠLit er
Soh ra
ĠTrans fer
ĠKer ala
Ġsri vastava
Ġpynkyr teng
ĠÃ ®
ĠAdv ocate
Ġbip ul
Ġkick boxing
ĠMeh ta
Ġadd ress
ĠMineral s
D e
J M
K O
S NSBH
c ed
k ba
o on
r ec
Ġ $
ba lang
Ġs iph
Ġp iam
Ġd sp
Ġd irect
Ġia nia
Ġjing babe
Ġt ym
Ġban alari
at hi
ĠÃ¯a khlad
un der
Ġong haba
Ġkane u
Ġruh ka
ĠS ngew
ĠS DPO
ad c
ĠK ish
ĠK ano
Ġkha ri
Ġc oll
Ġtr ait
Ġwan swett
Ġjingia die
lang ki
ĠP ran
ĠH ei
ĠH ari
ĠH ati
ĠT ap
ĠN ursing
Ġtha kur
ĠA ri
ph od
Ġph ulbari
Ġmar shillong
Ġshong shnong
ĠI PS
Ġg in
Ġg eshur
Ġma cmillan
Ġpa sh
Ġjingpyn ieng
Ġjingj am
ĠG ST
Ġo ctober
Ġjingi uhroit
Ġpyrthei mariang
Ġlum mawbah
ath y
ath ied
Ġbnai u
Ġkynth et
Ġ4 20
ass root
ast ing
Ġdoh tdong
Ġsoh bar
Ġjingt yng
Ġsan itiz
ĠF T
Ġ10 2
Ġ10 9
Ġ8 000
tor e
Ġkhar shandi
Ġshai Ã±
ni oh
Ġbe fore
soh iong
ĠV ol
Ġsta tus
yrkh ing
Ġkp ong
Ġnongs ngap
Ġjingpynb thei
saw dong
ĠDe y
Ġher cules
Ġkhaw eh
und ee
myn miet
ĠMo onlight
Ġyouth s
Ġer Ã¯ong
ĠPr omotion
ou ght
Ġkhyn win
Sh u
Ġ198 1
Ġbo und
Ġcha kraborty
ĠJeho ash
Ġmb bs
Ġsw ait
Ġ196 4
Ġmeh ta
ĠGe dalaÃ¯ah
ĠRom an
ĠTim es
Ġke ating
gi ous
ĠSy iar
Ġjingban khia
Ġbh owal
Ġsyl vanus
ĠRiew lum
Ġjingris aiÃ±
ÂłÂłÂłÂłÂłÂłÂłÂł ÂłÂłÂłÂłÂłÂłÂłÂł
ĠStephan son
Ġio oksi
ĠYo ung
Ġnehem ai
Ġsto ck
Ġbath sheba
Ġbasngew tynnat
mb ose
Ġgre ek
Ġeg lon
ĠGener ous
eor ological
ĠHouselist ing
ĠNEIGHRI MS
C ivil
F or
d k
e shah
e ber
h uri
h lc
r iam
r ngai
v ile
y iad
Ġk ngc
Ġba len
Ġba zaar
Ġs ieng
Ġp ym
yn a
Ġd isabilities
Ġjing lorni
Ġb k
Ġl uther
ar wai
hi p
Ġr id
ta ol
Ġkh e
Ġsh tah
Ġsha lak
ur ong
ur up
ĠS isera
ĠK ick
sh triya
ĠM T
ĠM as
Ġth ri
ap shiliang
Ġbar ap
Ġpyr wa
Ġkyr shut
ĠP C
ĠH esron
ĠJ ah
lam wir
Ġri jied
ĠC al
ĠC AG
Ã± iaw
Ġju g
Ġum bah
Ġsnem ha
Ġa ut
ol oni
Ġmar kasa
Ġg ol
Ġmaw phniang
Ġjait kam
Ġpynk thang
mih ud
Ġsyn kien
ĠG VK
Ġmyns ong
ass ah
ĠW in
ak ur
br eaker
Ġpynj aw
Ġpr ut
maw lai
Ġjingsngew lyngngoh
je har
Ġbe en
oli o
lait luid
Ġsu ja
Ġ13 6
Ġlak iang
Ġal mond
ĠJing rwai
Ġpro gressive
Ġbas in
10 4
Ġjingias nohkti
ĠRe ader
ĠIn vestigation
ĠIn tegrated
Ġsouth ern
Ġas ak
ĠMP UF
Ġis angsot
Ġlyn thaw
Ġex tra
ĠEd ucational
Ġer langthari
ĠSp ain
Ġrud wah
ĠMin or
ĠGo ver
Ġiam briew
ĠkheiÃ± lang
ĠRes ubelpara
ĠRaj asthan
thang maw
PC R
ĠDivision al
ĠAp ril
ĠNEHU SU
jab oh
ĠÃ¯ar yngkat
ĠHer mon
ĠJes ebel
ĠBala jied
cor p
ĠBha lang
Ġmah li
ĠKit bok
Ġhur am
Ġpynkhynn iuh
Ġembhah lang
ĠIndustr ies
ĠCa jee
yon ald
ĠHadad eser
ĠEk ron
Ġpran ab
ĠKhana tang
ĠUni form
ĠHasa el
Ġkonstit w
Ġkhama kha
ĠHim anta
ĠPhud muri
Ġkhylla d
Ġmaas ei
ĠLakhi sh
ĠMakhi r
H ynriew
K ren
N ational
i ze
j yrngam
p oint
v v
v ad
w u
ba ngar
Ġp ast
Ġd ra
Ġd khiah
Ġia rung
Ġjing triem
Ġt la
Ġt aliban
Ġm up
oh so
ar ah
Ġi k
Ġda lu
Ġda lal
kh ristan
Ġc armel
Ġbr others
ĠB in
Ġioh rung
Ġjingia ieit
ĠH M
ĠJ H
Ġseng ha
Ġsa buda
Ġar sngi
Ġlyng ki
ĠR I
ĠR ik
Ġsngew pher
no c
Ġshong khia
bar eh
Ġjingm ynthi
us iar
Ġpa shait
Ġjingj ar
ĠE gypt
iat ylli
Ġsk it
Ġks ar
Ġe jen
te en
Ġpynkh ia
Ġv e
Ġjan uary
ĠF red
pyn hun
Ġbak thang
Ġbak ynjah
Ġjingsh ngaiÃ±
Ġam ar
Ġkhar oi
Ġde ep
Ġjingr iewspah
ro om
ĠMar tle
lo ad
Ġmon th
Ġsta t
Ġ16 4
Ġthe u
ĠCh rist
cc ta
ĠMa harashtra
aph ylliew
Ġjingmih snam
Ġwar mawsaw
Ġkhad u
ĠÑĹ ohi
onom i
Ġkhong war
ĠLum paring
kyn join
Ġreg ular
Ġtest ing
Ġ0 3
Ġ0 9
Ġjingbha h
ven ir
ĠSp eaker
Ġ197 7
Ġsiang rong
Ġmul ieh
cha ri
Ġbaha Ã¯ing
Ġmawlong bna
ĠRang ad
Ġmawp hanlur
alap atty
Ġmawk on
ĠZ onal
Ġphuh mat
ĠWork s
ĠSc ott
ĠLai sen
ĠPer is
Ġtax ation
Ġga vin
ĠMes opotamia
âĢ¦ .
ĠAug ustine
Ġstr ong
Ġempl oyees
Ġbalajied kupar
Ġcle an
ĠNongthoh khubor
ĠOphis ar
ĠHel p
ĠPerson al
Ġcham ber
uj orki
ĠPand it
Ġmgn regs
Ġhyd ro
ĠDeal ers
ĠKno ck
ĠJub ilee
zab eth
G B
H e
J an
K S
S his
d ukan
h ed
j id
j ngi
l liang
m sp
o ve
p ublic
t uid
w p
Ġ Ðĩ
Ġk beit
Ġka p
Ġba iar
Ġba lah
Ġba lyngkot
ia pher
Ġb odo
Ġm uth
Ġl iak
Ġi rani
Ġi jng
or ganis
Ġna ia
Ġsh g
Ġnong kawang
Ġsng em
li ks
li mate
Ġai rong
Ġc lifford
al y
ĠB ip
ĠU GC
Ġsngi kha
Ġkyr sum
Ġhi nn
Ġme et
ĠT ai
ĠN ir
ĠD in
ĠC itizen
ĠA SAK
Ġjings et
Ġjings ait
ĠR eh
ph ut
Ġsngew lyngoh
Ġmar ing
os a
Ġman ner
pa c
Ġbuh nud
Ġim pact
Ġo badai
Ġf m
Ġf oot
Ġiing basa
nam ement
Ġsaw ngut
Ġriew khmat
ĠNong kitkam
Ġpynkh rum
ce o
Ġv erification
ab eh
ber th
Ġpynj yrngam
Ġsoh khia
Ġjingsngew tynnat
Ġjingsngew tynnad
Ġmad on
sngew sih
Ġing ty
Ġjinglong briew
Ġpaw a
ram a
Ġre ad
Ġjingr hah
ard han
Ġad ar
Ġbu iÃ±
ĠMar ba
ĠV olunteer
Ġjo ahas
ĠUm tyrnga
Ġan nexed
Ġ25 00
lyng khat
Ġnongpyn trei
Ġmp s
Ġjingias am
Ġat ta
por ate
Ġsynd ai
ĠMan tri
Ġjer ahmeel
ect ed
ĠDon rai
Ġsal es
Ġmi kaÃ¯ah
ern ity
ĠEd ward
ven or
Ġnom ber
Ġcluster ha
ĠPh ran
ĠPh ramer
ĠGo vernance
ĠsaiÃ± pyrkhat
Ġgn c
Ġshan pru
osit ion
Ġhead men
Ġsw ine
Ġpynthor bah
ĠMot or
ĠMawlong bna
ĠDis qualification
Ġsaid en
ĠSar ma
ĠSin ha
Ġhu shai
Ġhu bert
ĠAir port
ĠPan chay
Ġguard s
Ġshyll iah
ĠSel sella
Ġgener ation
ĠBh owal
kynt u
ĠPrem ier
ĠLynd em
lleng e
ĠRob ot
Ġrok et
Ġhinn om
E l
H SO
L YNN
S p
c al
c onstitution
k una
k ara
k ylleng
p ynt
r aid
s ep
s ian
w c
Ġ ynnai
Ġ Îª
ng un
ba ls
Ġba hadur
Ġj ephunneh
Ġu ha
yn don
Ġd ir
Ġd ate
Ġt un
Ġb es
ie p
Ġm ha
Ġm ob
Ġl oan
Ġi rene
Ġr and
on am
at s
ang i
ka j
Ġnong ieng
Ġh ynr
Ġlong san
Ġw j
Ġw ord
Ġw ow
ur be
ĠS os
ĠS ister
ĠS adon
ĠS ynrai
ĠK NGC
om etric
sh ukor
Ġc el
ĠB ok
ap ait
ap has
Ġpat ta
Ġkyr kait
mar lin
Ġleh donbor
ra z
ud ia
ĠD A
ĠD khot
ĠD ominic
Ġjingp hai
Ġtha waiÃ±
ĠA y
Ġngut kiba
Ġsa vio
Ġar vind
Ġjings eisoh
Ġdang o
Ġdang im
Ġdang rit
ĠL eslee
Ġum shing
Ġne da
Ġshim kabu
os oh
ĠI rani
mat haios
Ġma j
Ġma hindra
us a
Ġmaw blei
Ġmaw jymbuin
ed nis
nang ne
nang no
Ġf ly
oc ation
Ġe jehar
le sh
Ġv ii
DC A
Ġlai br
Ġpr om
Ġkylla ng
rem ent
Ġheh duh
Ġcomm on
ĠF our
pyn shitom
shu it
Ġde bir
han ai
Ġthung jam
pat haw
Ġnongk yr
Ġcon ne
jong ka
ensi c
ĠUm syiem
Ġ18 4
Ġbynrap u
Ġal os
Ġal hia
Ġsym bol
ĠMa x
Ġnai k
Ġkhad saw
Ġkhad hynriew
Ġbri gade
Ġas si
ĠÃı athuh
ĠBan alari
Ġrim mon
Ġser iculture
Ġnongt yng
ĠDieng phna
Ġdo es
said a
Ġeph rath
kt ieh
ontrak tor
ĠMi ners
ash oh
Ġho shea
ĠMat ta
ĠRes ource
division al
Ġarti kel
Ġsm b
tyr ko
ĠjingÃ¯as uk
ny d
Ġmes sage
ĠÃ¯awan lang
ashong kurim
Ġcoun selling
Ġtit ostarwell
ĠNI OS
Ġdng ong
ĠAsh dod
ĠSus a
asnoh kti
Ġwal es
ĠDM HO
Ġjingrah bor
Ġthie p
ĠSm t
Ġchem ical
ĠArab ia
ulia na
Ġjingpah uh
ĠBath ymmai
ĠPyndeng rei
ĠKai saria
Ġatha lai
ĠShap han
ĠImp hal
Ġjug ali
9 00
E N
E JH
a f
c ont
f l
k l
n or
n ui
o lah
p io
r eiÃ±
w is
y ch
y son
z in
Ġd ance
Ġd ymmiew
Ġb lan
Ġm ust
Ġm rd
Ġl eslee
Ġi th
Ġpyn bang
Ã¯ oth
Ġsh ed
Ġsh ynrai
Ġda la
en c
yl i
Ġh os
kh Ã±ium
sh utia
Ġc e
Ġc rime
ĠM SP
Ġpat u
Ġkyr w
Ġmynta ha
ĠH ep
ĠH os
ĠH ynriew
Ġpor t
Ġri ka
ĠA thala
ma lin
kha Ã¯ah
ĠL ei
ĠL ive
Ġne bo
Ġsngew kwah
Ġa a
im os
ĠI D
Ġsam mut
Ġmaw reng
ĠG olden
oc ational
Ġmyns o
lar y
Ġv ic
ab ian
rim inal
lat or
Ġop h
Ġmad e
Ġmad ur
pyn thor
Ġkhar syiemlieh
Ġkhar kaia
Ġ12 1
khar oi
jing shisha
jing bym
Ġsu iam
Ġcon cert
Ġpynr khiang
Ġbu i
ĠMar riage
end ence
Ġ14 7
Ġlym ba
ĠKhar naior
ĠKhar bhih
Ġal um
Ġal lan
Ġab ihu
ks ew
Ġjingioh kynti
Ġkhad wei
Ġsim pyllieng
Ġsar ai
ĠPhi l
ĠMan study
Ġse vak
Ġjeh iel
ĠNai k
ĠÃ¯ak ylli
Ġnongai kam
ĠKhong s
tic al
ĠAl lan
ĠAl lantry
kas en
sat ia
Ġoh oli
ens ation
Ġps ych
ĠKyr dem
Ġnongsha lan
ero x
rup tion
Ġprocess ing
ĠShan pru
ĠBala khawa
ĠDo NER
Ġmah esh
Ġfran ce
kal iar
ĠKJ BWA
ĠMoh rmen
rb d
riw u
Ġexper t
ĠSD SEO
Ġkoh tympan
Ġreserv ation
Ġkris mas
ĠSB UK
ĠRup a
ĠKynt on
Ġcop y
Ġbalad ep
ĠCab inet
Ġumsy ep
ĠMep hibosheth
vile ge
% ),
' s
2 20
N am
b oi
o enis
p his
u x
Ġ astor
Ġk rih
Ġba a
Ġba Ã¯ap
Ġs ol
Ġs liew
Ġs miej
Ġu ma
Ġla jan
Ġia biang
Ġbad minton
Ġb ong
Ġl us
Ġpyn ÑĹ
um iong
ĠÃ¯a shah
ĠÃ¯a sah
ĠÃ¯a kjakor
eh rad
Ġh em
Ġh op
ur im
ew an
ĠS eb
ĠK ed
ĠK pu
id ya
ap stai
Ġjingia dih
Ġhi n
ĠJ ai
ĠT W
ĠT ab
Ġjaka ka
ĠN O
ĠN elson
Ġym dei
ĠA w
Ġjings urbe
Ġne ed
Ġkiwei ka
os ta
Ġsam ari
Ġbym salia
Ġnang mut
ĠE v
ĠÃ¯oh pateng
Ġpynd uk
ĠNong phlang
ĠNong pyndeng
Ġkong or
Ġv eteran
br ug
ĠMaw nai
Ġeiei u
Ġjingkh leh
Ġ19 36
Ġduk hi
Ġpl iah
Ġindia ka
dp eng
Ġkhar buki
Ġniam tre
se y
bi ne
Ġde an
Ġ12 4
Ġre ally
niang lah
Ġjingr yngkang
Ġ11 7
ĠO h
Ġwallam bok
Ġly tan
Ġksu it
Ġle ase
Ġper manent
Ġdem ocracy
Ġkomp any
Ġrem ington
Ġpoh shna
pyr ta
Ġed ward
ĠIn stitution
ĠÃı ew
ess oloni
saw lia
Ġis is
Ġsc a
Ġkom ent
Ġmuk ot
Ġtim nah
Ġmal khijah
sah noh
ĠDa lin
Ġjingpynkh lain
ĠHe art
dr on
ĠPh y
bo a
ĠOffic ers
ĠHynniew ta
Ġpra c
oph ul
cha nd
ĠKam rup
Ġnei l
ĠNongs der
iak hih
Ġmawk liaw
ĠÃ¯as noh
ris aw
Ġsm all
Ġnet hanel
Ġtitos ster
Ġsik lag
Ġphe liks
ĠDis pur
Ġnongm udui
ĠTim othy
Ġaf spa
Ġdom iasiat
gi ri
Ġjingbah khlieh
ĠMor cha
Ġprie st
Ġcas te
Ġelectric ity
ĠAM D
Ġexper ience
ĠRad io
Ġob jection
ishad dai
Ġrobin us
Ġbakyr huh
Ġcomorbidities u
ĠNehem aiah
Le ague
Ġrymm iang
oenis ia
ehrad un
brug arh
C omm
E E
E W
H ar
L ano
M o
W allam
c are
d as
e am
e xecutive
f in
f ed
g ot
k let
k ynrad
l iem
m n
n rc
x ual
Ġ .......
Ġk ym
Ġka k
Ġba pt
Ġki jing
Ġs pa
Ġj ul
Ġj ynduh
Ġp dem
Ġjing rang
Ġb thing
Ġm uid
Ġm owkaiaw
Ġl ow
Ġpyn ter
Ġkh en
ka lur
am kthang
aw ai
ĠK men
Ġkha la
sh iah
es i
Ġioh bor
Ġtr oin
ren ade
ok es
ĠP yns
ĠH ol
ĠH FU
Ġpha lor
ĠC ase
Ġseng u
ĠA FSPA
ip er
Ġdang ar
ĠL eston
ĠR it
ĠR ally
Ġhaba kkuk
os adak
ĠI thamar
ĠI ED
Ġbor o
us tan
Ġmaw j
doh kha
Ġsah sniang
Ġjingb ynniaw
Ġlang stang
Ġpynp yngngad
Ġsyn teng
ĠE g
Ġriew arsap
ak land
ak rishna
Ġain u
ĠMaw lang
Ġkyrp ong
Ġjingt ar
Ġjingshi trhem
pyn treikam
Ġ10 30
Ġdew ryng
Ġam rit
lap er
Ġmano ah
Ġ12 90
Ġch etri
ni uma
jing thmu
Ġad e
Ġad ilbert
ĠV I
ĠLa shai
Ġlak e
Ġiai long
ĠCh oudhury
Ġbi o
ĠMa hatma
Ġrong phong
ond ed
ĠNa bal
Ġag artala
Ġser ai
ug s
lak rai
ĠRym pei
ĠIew rynghep
Ġran ji
oph er
oph eth
ĠSim song
ĠPyr em
Ġps iar
ĠKyn hun
Ġdi ma
Ġca jee
ĠRong jeng
ugh let
ĠProf essional
Ġfe ed
ĠSur vey
ĠSer ksis
pynd ap
Ġic u
ĠLicen ce
Ġrb su
vit ra
liff e
Ġjala phet
Ġcons umer
Ġbash ti
shaba Ã¯ah
Ġmyng ta
ĠSain kupar
Ġsto in
ĠUmsaw li
Ġnongth liew
ĠHus sain
Ġkrit ik
Ġsubs idy
Ġdyc em
Ġrespon se
Khad duh
Ġsohm rit
Ġnongst eng
LYNN ONG
Ġdewryng khiang
. '
C ent
I X
S ngew
g od
n uksa
p im
r ngiew
v ote
w ss
Ġba khadduh
Ġs ip
Ġs ome
Ġp ih
Ġd oi
Ġd cc
Ġd ib
Ġia shad
Ġjing l
Ġt s
Ġb m
hi ll
Ġr ul
Ġpyn thait
ĠÃ¯ unukh
Ġda khol
it ary
Ġw iket
am ane
kh ri
Ġsng ina
Ġruh ha
ĠS O
ĠS tr
Ġphi l
in y
ap them
Ġbriew ka
ih ynrei
Ġpat ricia
Ġtr o
nong bah
Ġpyr diwah
ĠH I
ĠH eman
ĠH osia
ĠJ im
ĠJ ed
ĠJ SM
Ġpaid bynriew
ud f
ĠD haka
bor ne
ĠA na
ĠA ro
ĠA himelekh
Ġjings tet
ĠR L
ec han
ec ost
Ġshim noh
Ġmar am
im ming
Ġpar akur
Ìĥ âĢĿ
Ġg lobal
Ġsyiem u
Ġkumba n
to a
Ġmaw lynd
Ġpyns ynjor
ls on
ed om
ed ucation
Ġo thniel
Ġco up
Ġ4 30
Ġv olunteers
Ġdieng jri
Ġpr ob
Ġjingt oh
Ġst udies
Ġjingleh meng
Ġbud get
ĠF amily
pyn ursla
Ġin to
Ġ12 2
ard en
Ġbeh kam
Ġad on
Ġpud u
Ġ18 00
ag ar
10 6
Ġsor ah
ks iar
rit ic
rit ory
Ġot doh
uc as
qu is
Ġjingsuk i
Ġtar un
Ġjingpynb yrngia
ĠSt udies
nes o
Ġse khon
Ġkhih lang
Ġbasa iaw
Ġkr uin
ĠBab y
chi d
ĠKhong war
ĠLait ryngew
uwei n
oun tant
Ġran jan
Ġlapang ap
use um
par iong
Ġbol d
Ġge dalaÃ¯ah
vis ed
ĠSim karo
di har
ĠÃ¯as nohkti
Ġfa ce
ĠNew s
ĠBas in
ĠEx amin
KH D
ÑĹ a
ĠProf essor
Ġfe nella
ĠPer es
ĠKol shor
Ġash kelon
ĠShem phang
hadad ar
ĠBun sien
Ġhu jon
Ġuss ah
khai os
ĠFe nella
pe ta
Ġpong ding
Ġliew lep
Ġfish ery
ĠAD M
Ġliter ature
ĠNas ir
Ġhol y
sec ond
Ġcoming one
---- ----
Ġdia betes
ĠKhat duh
Ġmahan aim
Ġlis en
ĠKil om
ĠUss iel
Ġara unah
Ġclear ance
ĠContra ctor
osoh phoh
) âĢĿ,
J YF
M embers
S L
c ar
c um
c ol
d iah
e ver
h uid
k edah
r byf
s os
s iden
t ura
u ka
Ġk wei
Ġk ul
ba ss
la st
Ġj rut
Ġj yla
Ġp de
Ġp ommura
Ġla im
Ġha mas
Ġia tei
Ġia phet
Ġt ing
Ġb lu
Ġl k
Ġl s
hi roth
Ġi ban
Ġpyn iphuh
an ies
Ġsh yn
Ġkat tei
em os
Ġh et
Ġh ung
ur h
eng doba
is ing
ĠS la
ĠS ir
ĠS MS
id ing
sh uid
ĠM W
ĠM un
ĠM RD
ĠM Dc
Ġth ud
al iel
ĠB n
ok u
ĠH ab
Ġjylla ia
Ġjylla katkum
ĠJ or
ĠT ig
Ġjaka u
ĠD h
ĠD et
ĠD istribution
lor e
ĠC B
ĠC andid
Ġlyng iong
ĠL Y
ĠR ail
ĠR eturning
Ġa uthors
ol is
Ġph ran
Ġmar iahom
im ent
Ġbor a
Ġg eser
ynd ew
Ġtylli lang
Ġsah nud
Ġsyn ia
oc om
ass ar
Ġjingtip briew
Ġsoh jew
Ġpr uh
Ġsang ot
Ġshillong ki
ĠShi phew
ĠShi spah
ĠHa z
ĠMe la
Ġap ol
Ġ8 79
Ġiaka ta
Ġieng skhem
Ġtymmen basan
ĠpynÃ¯ap her
ĠnongÃ¯ ap
Ġan anias
Ġsait lah
ĠTh essaloni
Ġjingmih paw
ĠÃ¯ai shong
Ġias eng
ib et
urs es
Ġbyr sieh
Ġag ricultural
ship ai
ari ka
Ġeph ron
ele g
ĠAl bert
Ġmark sheet
/- .
Ġshe et
ĠRang e
ĠRes taurant
Ġkynd at
he alth
ĠMih myntdu
ĠMuk tapur
ĠBas ketball
Ġspecial ist
ful ly
Ġga uhati
ĠCha kraborty
Ġmeh ding
ĠJait ley
Ġkynsha it
ĠSy ing
ĠDang o
lym da
ke eper
ĠLy tan
Ġcommand o
Ġjingshet kylla
ĠJop pa
Ġkhanas amari
Ġpand ey
Ġsyng khlieh
ĠShil liang
ĠNang kiew
ĠBro thers
Ġpolitic ian
ĠDer ibon
Ġoi l
ĠRome o
Ġscoot y
ĠEmer gency
Ġcounsel lor
Ġstor age
ĠRobin us
uch line
Ġ036 4
C AB
c ers
k ya
k ulmar
m yr
m od
n om
p os
p nat
r ol
s lap
s mai
u tam
v illage
ĉ Ġ
Ġka lam
ba ma
Ġs f
Ġp rai
Ġd iamond
Ġha sar
Ġjing doh
ai ti
Ġb ung
hi kna
Ġr h
Ġna nd
Ġlong snam
er tila
is ngi
aw bei
Ġshi lum
ĠS ak
ĠS tan
ĠK him
ĠK ontraktor
in spector
Ġai jing
ep endence
ĠB ik
ĠB landing
Ġbar abbas
Ġpat ha
Ġja has
op ia
Ġjingk urup
ĠH IV
ĠJ uk
ĠN ame
ĠD iesel
ec ia
Ġum p
Ġum dohlun
Ġg p
Ġg iri
ynd et
Ġma sharing
Ġshu nem
bha y
pa ul
Ġmaw buh
ls c
Ġjingb om
ĠG uid
Ġsur ong
Ġe ia
Ġrai bi
shi spah
ath one
Ġsaw ar
Ġco lor
Ġco ver
mu a
mu thlong
lar tham
ab iang
Ġnongsh ynshar
ber ry
Ġdieng khong
Ġhok um
Ġ19 2
Ġmad iah
ĠSh er
ĠSh nat
Ġap ollos
gh ter
ĠHil kaÃ¯ah
Ġpaw an
lap ang
Ġde vi
Ġassam ese
jing leh
dor s
Ġad har
Ġad visory
Ġ14 5
Ġfor eign
Ġbi hari
Ġ17 8
Ġab iram
ĠY ear
Ġbakh iah
Ġker ela
ĠMan ner
ĠDe v
Ġkor nelios
Ġmuk esh
Ġor pait
Ġpur im
lc om
myn step
ĠjingÃ¯ap ait
Ġniew trep
riew ngeit
Ġtran sit
Ġran dien
yan ka
ĠNo vember
de v
de ep
Ġsyngk rem
Sh ong
Ai u
ĠRang li
Ġmawp un
Myn miet
Ġsm t
Ġmid dle
olun tary
Ġtra ce
ĠShem esh
ĠHar an
ĠMak doh
ĠAhi thophel
ĠCamp us
Ġgur ung
Lai phew
Ġgar od
ĠPom kranet
ĠRil bong
ĠSyl vanus
Ġath iabari
HN YF
Ġroh it
Ġjas er
Ġtek oa
amih noh
ĠFer dynald
Ġdeli very
ĠHus band
Ġbymsuid Ã±iew
ĠHas or
Ġjed uthun
ĠJab esh
ĠDhan kheti
Ġpynkhap ngiah
Ġgover ning
Ġallowan ces
ĠGoal para
ĠAlex ander
Ġrefer ee
Ġorig inal
Ġdrj emino
Ġbound ary
quis ition
, .
I m
I oan
J aiÃ±tia
N RC
P ro
T H
a shah
b lock
c ia
d awki
e ep
g it
i li
j ohn
k ulong
k ey
m ynsngi
n t
p la
p wd
r eit
s ynram
t nga
u ency
Ġ awa
Ġk v
ba al
Ġki w
Ġj oi
Ġu te
yn thing
Ġla duh
Ġla ki
Ġla leh
Ġd il
Ġd athan
Ġd ken
Ġd ocument
Ġha dpeng
ing i
Ġt abor
Ġb landing
Ġm ill
Ġl wait
Ġpyn bat
Ġng iew
ĠÃ¯a mane
ĠÃ¯a phet
ĠÃ¯a dait
Ġda wan
un ion
sha duh
sha khmat
Ġkyn nah
ĠK endra
ĠM ishra
al tiel
ĠB ur
ĠB ull
Ġpyr thew
Ġkyr shah
ĠH ero
ĠN TC
ĠD utta
ĠC la
ĠC am
ent ure
ĠA uthors
ĠL ion
Ġum tong
Ġa uthor
Ġmar vel
ĠI ong
bha r
ĠâĢľ ...
to ur
Ġpyns noh
Ġpyns tad
Ġjait ley
Ġpynp yiar
Ha ka
ĠG as
Ġo strit
ĠW eb
mu th
Ġkl iaw
Ġdoh thli
Ġmeghalaya ha
shan t
Ġpynj lih
Ġthoh shuid
ĠHa jar
Ġiap eit
tan i
Ġcomm isioner
ge sh
Ġam minadab
Ġam ssasta
HA NM
Ġlam et
ĠpynÃ¯ asuk
ers tand
pat hi
Ġassam ka
Ġra li
). &#
Ġjar ain
Ġ30 7
Ġab inadab
Ġab ednego
ĠMa la
Ġpynduh nong
Ġrong tuh
ĠÃ¯aleh kmen
Ġnongs amaria
ĠTh ymmei
Ġhe a
Ġnongpyn jot
12 6
Ġpla ce
Ġpoh kseh
kyr pad
Ġrang samla
og lah
Ġact or
Ġbab ylon
ĠMP F
Ġlaw bei
dieng ngan
Ġse ason
ĠNE I
Ġpung sum
Ġmawsh yieng
Ġqu o
Ġrad iation
Ġes tate
ĠKhlieh tyrshi
ou venir
ĠAl fred
Ġtyll up
Ġbol lywood
ĠSha no
Ġjingker kut
oid a
ĠPat eng
he el
Ġje ff
Ġmil k
ĠInd oor
Ġrap id
rut iny
Ġmegha la
ĠJe nesis
ĠBha wan
iathuh lypa
Ġcoun ter
mo on
bs f
ĠQu alification
Ġstr oke
RB D
ĠDal u
ĠAbi gail
row s
ĠSem inar
Ġrus om
app ointment
ĠIC AR
ĠNongt nger
Ġlib ya
Ġod d
sharai lang
fil tration
ĠÃ ĳ
apyn beit
sein iong
Ġjingpih uiÃ±
Ġked esh
hylla m
rapun jee
Ġshno gn
Ġpash hur
ĠSos thenes
ĠRail way
1 20
3 50
G A
G HADC
I eh
J o
K HA
N EC
T hoh
W C
Y R
a yan
a khleh
b os
b iej
b yrnai
e ase
h es
p yntip
y ar
Ġk roh
Ġk hil
Ġk onstituensi
ba im
Ġba ma
Ġs ew
Ġs ocio
Ġj d
Ġp une
Ġp inewood
Ġn ow
Ġn khd
ing dorbar
Ġjing tam
Ġjing iphuh
ai ksuid
Ġb id
Ġb oit
Ġm khar
on es
Ġna hash
um e
ĠÃ¯ atip
ĠÃ¯ atreilang
Ġsha jngai
th liew
Ġh ynroh
aw at
sha ei
Ġshi ryn
ĠS id
Ġc ircuit
ĠM FA
ĠB arik
es ta
Ġbar nea
ien ts
Ġnoh u
Ġnoh synniang
Ġjingia bam
as iat
Ġjingk ynriah
Ġpha nb
ĠD PR
bor a
ĠA C
Ġsa ja
kha Ã¯a
ĠL im
ĠL ynnong
ĠR ngiew
Ġum kor
Ġum ru
Ġsngew thaw
no am
res ult
Ġa jay
Ġa khan
Ġph od
Ġg ir
Ġma xi
Ġbym pat
Ġman dir
Ġjingpyn bam
Ġbuh phang
Ġmaw mer
Ġjingb uaid
Ġsyn tai
ĠE qu
ĠG iri
oc es
Ġkhasi jaintia
Ġel isabeth
Ġthain ka
Ġto tal
ĠNong bishar
Ġ5 30
Ġv icky
Ġpynj rong
Ġsang ah
man ag
Ġst op
Ġsat ya
stit utional
Ġpop e
Ġwah bah
Ġbud dhist
ĠF ull
ĠjingÃ¯ ania
ge e
law lynnong
Ġin n
Ġjng em
tal lion
Ġand riw
Ġjingbym ioh
Ġjingbym lehhok
Ġsu ccession
ĠÃ¯ap thngan
ĠBa taw
Ġkhat khyndai
ĠV ehi
Ġly i
Ġ18 8
Ġang anwadi
ĠShnong pdeng
Ġan and
ĠMa lai
Ġjah rngai
Ġter n
ĠY adav
ĠY uva
ĠJo hanan
Ġkomp on
Ġhe lik
Ġjingioh lad
ĠjaiÃ± spong
Ġjingias yriem
die r
Ġsyr pai
ĠRo und
Ġpynl wait
Ġag ag
Ġsc iences
Ġsal seng
ĠKH CF
hab et
erv ation
Ġroy al
Ġhek tar
Ġpas i
Ġdis cipline
Ġsad ew
ĠReg istrar
Ġsun ny
ĠKar im
ĠKar khana
ĠLad thadlaboh
Ġorganis er
pha si
ĠBor sora
Ġphrang sngi
pu ia
ĠDang ar
Ġlambok star
Ġkhath ynn
ĠHead men
Ġbut cher
Ġpaham rioh
wi la
ĠÃ¯ew duh
asta g
Ġstr ucture
ĠPan aliar
pres sion
ĠSW AT
ĠRel iance
ĠMait phang
ĠCommand ant
Ġpynshoh bieit
Ġequ ator
Ġnat ure
ĠEmbhah lang
Ġay ush
sham ok
Ġseb edi
polit ical
ĠJit endra
Ġphanb uh
3 000
F F
K M
N I
R a
R angbah
S ngap
U C
a shad
g el
g le
h ynne
i lance
k yns
l is
s l
t harai
u han
z ak
Ġ old
Ġba par
Ġs ne
Ġs ork
Ġs khep
Ġp eni
Ġjing aid
Ġjing lang
Ġjing kawang
Ġb iar
ie k
Ġl eng
Ġl ew
Ġl iv
Ġban ylla
ar ad
ar ning
Ġr in
Ġpyn tam
Ġpyn lyngkot
Ġkh ri
ĠÃ¯a khmih
th ud
Ġh enry
Ġw or
Ġw iar
ym phor
is kila
ĠS ynt
ĠS kot
ĠK las
Ġth ese
ĠB ap
ĠB ord
el ess
nong k
Ġjingia beit
Ġjingia mynjur
Ġkyr eit
Ġkyr that
ĠP OCSO
ĠH om
ĠJ ok
ĠN A
ĠN BCC
ĠD en
ĠD irect
na el
ĠC onstituent
ĠA ha
ph ud
ph riang
ph rc
Ġshuh u
Ġsngew bitar
res t
Ġa Ñĸ
Ġph ur
ĠI o
ĠI ra
ĠI mat
ĠI SI
ĠI rene
Ġg ym
Ġg igur
Ġman as
Ġjingpyn poi
Ġjait uh
Ġsah ngeh
lad ang
ĠE lah
wah lang
ĠG round
iat han
Ġkhr ang
Ġf an
ist s
Ġpynd om
ĠW e
Ġpyni bor
Ġ5 86
Ġv rs
od emos
ĠMaw reng
ĠMaw phu
bam on
bam ah
pyn iap
Ġdew bah
HA BA
ĠCo ach
ĠCo RP
Ġkhar shanlor
ĠNg eit
ish ua
Ġad vertisement
ĠO b
ĠO ctober
ĠMar iahom
ĠBa khlem
Ġra tacherra
Ġjongki u
Ġnongp rat
ĠTh iat
cent ral
Ġshis em
Ġek lesiastis
Ġjingba te
ff le
Ġag anwadi
Ġlyn shiang
Ġkor ea
Ġser ui
ĠWah iajer
ana kh
Ġpynshong nia
ĠSa hit
co tics
Ġjingsiew spah
LC U
chi t
Ġdo ub
Ġjingkiew dor
ĠSec ond
not es
sam lem
Ġpoint s
Ġjohn y
Ġsun il
Ġvi kash
ĠPat el
di bok
ĠSi ba
ateh ktien
Ġbaj engdoba
fa ct
ĠLad y
Ġsw amy
ĠGe hasi
Ġger ar
Ġelec tive
ĠIng ty
ĠShe lah
ĠMawp hanlur
ĠHan an
ĠHor on
Ġexc utive
ĠEs ekiel
MP CC
Ġic ds
ĠOp eration
Ġhit ler
Ġ% ,
iei j
pe are
ĠSuk koth
Ġlymb ub
Ġrak esh
ĠThaw lang
ĠSel ection
ĠAk hish
Ġwine store
ĠRab bah
ĠMul ieh
Ġcla use
Ġfi ght
los ophy
Ġdim apur
ĠJala phet
vil dar
Ġcitizen s
kes peare
ĠNok ma
ĠNob el
ĠMel khisedek
ĠCons ul
ĠLask ein
ĠKup ar
pic ious
Ġbt uit
ĠKei lah
Ġshongkh op
ĠOm ri
Ġohi bait
Ġjingak siden
Ġkoment ari
1 30
B L
D I
F R
J C
c it
d iel
e ne
f ort
f ect
f inal
g t
k ei
k oi
k ok
m ill
r p
r ation
s ide
Ġ 8216
ng uid
Ġba ir
Ġki sm
Ġki dron
ia ineh
Ġp ylla
Ġn l
Ġb obby
oh bor
Ġban shai
Ġi ieng
Ġi tieng
Ġi oa
Ġr en
Ġr ih
ta sing
um at
Ġng em
Ġsh ebna
Ġda ta
it wensi
er t
is es
ew ell
ĠS et
ĠS ngap
ĠS HG
yng khiang
om as
id es
Ġai daw
Ġc hap
Ġc onstitu
ĠM adon
ul um
ĠB PL
Ġjingia soh
mar ak
as an
Ġjingk him
Ġshnong ki
ĠH ary
ĠH amar
ĠJ un
ĠT wo
Ġjaka haba
ĠD onbor
ĠD ance
na ble
Ġkhun ruit
Ġpaidbah haba
ĠL on
Ġmar ban
Ìĥ -
Ġg m
Ġbym sngew
Ġpa kit
Ġjingpyn triem
Ġmaw lum
Ġmaw lyng
Ġpyns alia
tip har
dei Ã±
Ġf ellowship
Ġhills kiba
Ġto la
ĠNong shong
ĠNong sawlia
Ġjingd wai
Ġv iii
Ġbat lot
Ġdieng ngan
Ġmad am
ĠjingÃ¯ atainia
Ġjingai bor
Ġ9 30
ĠCo ordinator
Ġkhar mujai
Ġde limitation
Ġ12 9
Ġjingbym i
Ġjingr unar
Ġassam ha
jong ki
ĠÃ¯ap briew
ĠLa khon
Ġ13 7
Ġ13 9
ĠKhar m
ĠKhar syiemlieh
amp ore
Ġan ah
Ġshad rakh
namar ba
ĠAr rear
ust ody
Ġris han
ĠAd ilbert
ĠIn n
ĠIn vitation
Ġeks odos
ĠAb hiyan
Ġis kari
ĠDe li
Ġlyn ba
ĠDon boklang
ĠWah umkhrah
Ġpynsah nam
Ġex odus
dum bur
ĠSa cred
ĠĠĠĠ ĠĠĠ
Ġinter nal
Ġ197 5
Ġacc ounts
Ġdis co
Ġrev ised
Ġjeho ahas
Ġkynd ew
ĠPyr shah
Ġjingsah narphna
Ġ195 5
Ġfa ct
Ġdri ll
Ġdar yl
thang a
ĠSc ale
ĠInd ependent
oni om
ĠjingÃ¯as aid
Ġken ch
Ġpu shara
Ġmegha lay
Ġras wai
awan lang
ĠHan anaÃ¯ah
Ġphrang ki
ĠBengal uru
hish ek
ĠAnthony s
ĠKham tam
Ġjingban beiÃ±
ĠMon olith
Ġcas es
ĠMah esh
Ġnongsiat khnam
Ġnok ma
ĠRif le
ĠEr win
Ġconsul tant
Ġmeth od
Ġmesha kh
Ġfai th
shed pur
ĠSiej lieh
ervis or
zin ho
okes person
Ġiskari ot
7 50
? âĢĿ,
E nd
J SU
N orth
T rep
a e
b ub
g ai
h m
i z
r us
t ist
u bha
y in
y oo
Ġba im
Ġba jai
Ġba shimet
Ġki e
Ġs lum
Ġj en
Ġj eiel
ia ki
Ġp ein
Ġla kha
Ġd id
Ġd khiew
Ġjing ing
Ġt et
Ġban a
Ġr hino
Ġr urh
Ġpyn kharoi
Ġkh nong
Ġsh oin
Ġsha la
yr shang
Ġnong gibeon
Ġh k
Ġh epher
kh ung
sha tei
Ġshi tylli
ĠS qu
ĠK hih
ti kmie
Ġphi lemon
Ġai por
Ġc ohso
Ġbr other
ĠB iang
nong hikai
Ġjingia shut
oi im
Ġme gh
Ġpha il
ĠJ aph
ĠT ik
Ġpaid ang
ĠN RE
ĠD ol
ĠA MSSA
Ġblei ka
Ġsnem haba
Ġph yll
âĢĿ ;
Ġma kh
Ġbiang bor
Ġmaw doh
Ġpynk let
ĠE no
Ġdor jon
Ġf lu
oc cer
isa iah
Ġel die
Ġdistrict haba
Ġto o
Ġbnai ha
ĠNong mynsong
ak ylli
lar ies
Ġbat ch
Ġdieng phasi
ss op
Ġshillong haba
ĠMe th
khu li
Ġjinglong trai
pyn shai
ĠjingÃ¯ alap
ĠjingÃ¯ akut
ja li
Ġjingbym shimkhia
ara iah
Ġ11 3
Ġ15 6
Ġad it
ĠO n
Ġbu la
ĠÃ¯ap oi
ĠLa farge
Ġjo ah
jat kmie
phi ra
ag es
Ġnongb sap
ll y
ĠCh nong
ĠMa lidor
Ġ24 4
Ġrong biria
Ġnongs ynran
ĠTh wei
ĠTh ied
14 0
Ġbs ah
ĠÑĹ adei
Ġtem an
ĠMP S
kyn ja
Ġsc out
Ġlyngk nep
Ġex port
tap khmat
Ġsap hai
Ġer bih
ĠNorth east
ga sh
Ġhan ani
Ġpra vin
Ġes er
Ġham or
Ġsahit ya
ĠSe vak
Ġsn iaw
Ġron sing
ĠSim ri
ĠSal seng
ĠWan swett
Ġmawk dok
ĠKyn jing
Ġdri vers
Ġbaj em
tyng shain
Ġmyr iaw
ÑĹ i
ĠMawk on
Ġga al
serv ator
ĠÃ¯ar wai
Ġsia lieh
Ġprod ucer
Ġjh du
Ġdh ubri
Ġmt et
Ġten nis
Ġpe or
Ġdiengpyn ieng
ĠDar yl
ĠPolit ik
Ġwhi te
eder ick
Ġpatar im
Ġsikh ri
esto ck
sait sning
ĠEmpl oyees
Ġhy per
ĠRem ington
ĠCa char
ĠPand ey
Ġjingpynt uid
Ġnongban beiÃ±
iction ary
Ġdol lar
Ġinstitution s
Ġdiengp asoh
Lym ne
ĠKem bhavi
Ġmedic ine
ĠJeth ro
Ġbene fit
Ġsss s
ĠDadeng gre
ĠExamin ation
oku lam
ĠAha saiah
Ġkism is
, âĢĿ,
. [
9 86
E c
H ynniew
I mat
K ohnguh
R e
T ip
c ri
h fu
i ght
j erusalem
k mat
p un
r m
w ut
x ii
z an
Ġk wa
Ġka rai
Ġp on
Ġp bo
Ġla y
Ġla ish
Ġd ot
Ġd uid
Ġd sel
Ġd seo
Ġha nam
Ġha ss
Ġia pler
Ġia tyrko
Ġjing ling
ai lad
Ġb esalel
Ġm k
Ġl m
Ġban jop
ar phew
hi rd
Ġr ose
or ation
an n
Ã¯ ot
Ġkaba mut
um mim
Ġsh ooting
ĠÃ¯a jan
en ka
it is
th mi
em aÃ¯ah
Ġh en
ynr eit
ad ie
ĠK yndong
ĠK aper
id s
Ġai ban
sh oit
Ġc at
Ġc er
Ġc onstituent
Ġc athedral
Ġc linker
ĠM olekh
Ġth iew
ĠB ram
ĠB ea
ĠB ureau
ap a
et c
nong bri
Ġkyr aiÃ±
Ġhi ssop
op tar
Ġjingk yndang
ĠP aw
ĠP eon
ĠJ harkhand
ĠD khiah
ĠD raft
si um
Ġri bon
ĠA sah
Ġshah ram
Ġlyng hoh
ĠL uther
ec ca
ph one
Ġum t
st et
tr ading
Ġbha u
im s
Ġg rid
Ġman ar
us nam
Ġjingpyn pur
Ġpyns ohsat
Ġlang kyrding
Ġdep osit
ĠG H
Ġo ur
Ġf ol
Ġe ber
Ġpyrthei u
Ġpyrthei ka
Ġhil kaÃ¯ah
Ġpynkh luit
sp ecial
Ġmeghalaya haba
Ġpara jor
man a
ĠKh erub
Ġsan ballat
Ġst udy
ĠHa gar
Ġbak him
Ġjingpang nud
HA M
Ġkhar dewsaw
Ġ11 4
ran ts
Ġ15 1
ĠV er
ĠLa chumiere
Ġkp arad
ĠJing long
Ġhar ieh
Ġmo on
khlieh riat
Ġnongs ar
Ġnar leng
Ġjak et
Ġtik rikilla
Ġkhong shei
Ġkt ung
ĠMan bha
ĠDe vi
ĠLum soh
Ġsc an
Ġon es
ĠWar bah
Ġhn pf
ĠRa o
ĠDC C
ĠKhong dup
ĠSan ad
Ġdork ha
ash un
all u
Ġmer cy
ĠAl to
ĠSha kespeare
Ġmait shaphrang
SS CC
ĠEm powerment
Ġjingpynd am
ris on
ĠTha kur
ĠSu iam
ĠMawk liaw
ĠDoh kha
mur ai
ĠElisha ma
Ġval ue
uter onomi
Ġrb dsa
ĠSyr ti
ĠBal san
ĠKynd ait
ĠElia b
ĠBet hany
Ġphy sical
Ġpis kot
Ġbantei lang
Ġlim it
ruit ment
Ġsna iap
Ġsok ar
Ġkhub ork
ĠTir sah
ĠNab oth
ĠCham ber
ĠPakyn tein
Ġmattan ai
ĠLive lihood
Ġbold ness
ĠHusband ry
ĠHary ana
ĠKaper nam
ĠAsah el
A n
D istrict
M SP
P ynd
R DA
T UR
U L
W P
b ret
b est
b do
g at
h ynn
j yr
m and
p habet
s tan
y udu
Ġ ese
Ġk shiar
ng aw
Ġka ri
Ġba ba
Ġki a
Ġs ecreteriat
ia khun
Ġp ot
Ġla leit
Ġd iat
Ġha wei
Ġha kata
Ġha jngai
Ġn pr
Ġn iuma
Ġjing or
Ġb lind
Ġm eribah
oh mad
Ġna l
Ġpyn lur
Ġng en
ĠÃ¯a hap
Ġshi kur
ĠK ynroh
id ants
Ġc elebration
ĠM ig
Ġth ian
ĠB l
ĠB lood
ĠB AD
nong rum
Ġnoh wet
Ġkyr shai
Ġjingk han
ĠH enry
Ġme as
ĠN at
ĠD G
Ġri o
Ġkit e
Ġar k
Ġjings ngur
ĠL ieng
ĠR et
ĠR os
up pim
don ald
ynn or
ĠI B
ĠI ba
Ġbym donkam
Ġman dr
us picious
to la
Ġjingpyn ap
Ġsah wai
Ġpynk ynduh
ed en
ĠG ol
Ġhang a
ĠÃ¯oh lad
Ġmyns ien
Ġpeit thuh
ĠNong trei
ĠNong pdeng
ĠNong iathuhlypa
mu an
ĠKha nduli
ab el
Ġkl ew
thoh rem
Ġjingsngew triem
Ġjingkh eiÎ·
Ġ19 0
Ġap ple
pyn s
Ġkmie rad
Ġmadan riting
Ġch ris
ohi ma
Kum ban
ĠO l
ĠO pen
ĠMar tha
lo om
Ġ13 4
Ġkp anah
Ġnongp diang
Ġbi eij
ĠMa cmillan
Ġnam ding
21 5
Ġpol ok
ĠTh len
Ġwei briew
12 5
eb ishon
mai lcom
Ġmem o
ĠhynÃ±iew trep
Ġsar kar
Ġwai lad
16 0
Ġpur iang
Ġse kharaiah
Ġjingduh noh
ana iah
Ġjingshong thait
Ġmei rad
ĠMaws iang
ĠBasa iaw
Ġaw areness
ĠPol ytechnic
Ġdis parsing
Ġind ustry
nalor kata
ĠSe kh
ĠMat rik
Ġkub i
ĠÃ¯as yriem
Ġso bah
Ġwing s
ĠSc or
ĠMission ary
Ġdik kanchi
ĠÃ¯ar isa
sut nga
Ġkud i
ĠHan nah
din and
ĠSy pros
Ġfran k
Ġatom ic
Ġhur oi
ĠSon owal
Ġlu kas
Ġcap ital
ĠBud dhist
Ġprovin ce
ĠCoun try
Ġmeg iddo
Ġphy si
Ġfre eman
Ġjingpih uin
ĠAth iabari
Ġbals an
ĠGre ek
phel et
vest ment
ĠHari jan
nyd ard
Ġblan ket
Ġlaim er
End notes
, ,
B ar
I O
I athuh
I bid
N angno
O P
S lem
S uki
U M
b t
c as
d ri
d ra
e laka
j ynjar
j unior
k ers
l iah
m eit
m ynno
r da
r yndia
Ġ ada
Ġk la
Ġka sorkar
ha ia
Ġs pl
Ġs oit
Ġs wit
Ġj jm
Ġp w
Ġp fr
Ġla long
Ġla tang
Ġd pr
Ġd ibon
Ġd edan
Ġha g
Ġn p
Ġn id
Ġt mar
Ġb p
Ġm ud
ar et
Ġjong ksha
Ġr g
Ġr etur
Ġna j
Ġkh ien
Ġkh lir
Ġsha rati
Ġda lei
yl inder
Ġh b
Ġong ba
ĠS ig
ri gation
ĠK rang
om bar
in ot
Ġc linic
ĠM useum
Ġkan an
ĠB P
ĠU SA
ĠU ttarakhand
Ġioh knieh
Ġwan lang
Ġwan poi
Ġ2 10
Ġhi larius
mar k
Ġjingk ot
ĠP is
ĠP op
ĠP oi
Ġme al
ĠJ ONG
ĠT ek
ĠT nat
ĠT bn
ĠN it
Ġpor ka
ĠD I
ĠD iv
Ġjingp ar
Ġjingp ass
Ġri lang
ent ry
Ã± iat
ĠA z
Ġar snem
ĠR at
don er
Ġum phyrnai
Ġum jaiur
ynn ieng
Ġkiwei haba
Ġa ta
os al
ĠI eit
Ġg g
Ġg anga
Ġg renade
Ġjingpyn sngewbha
Ġnang kyntiew
Ġpynk dor
iam oit
ĠG ypsy
Ġkhr onikl
Ġsk ot
Ġf ar
Ġf edrick
tha mula
Ġthain haba
Ġdistrict s
ĠW er
iv al
Ġv ip
ĠMaw datbaki
ĠMaw jymbuin
Ġdur iap
Ġshillong ia
ĠF ree
ĠCo HSO
Ġbe or
Ġnongk ylliang
jing don
jing tep
Ġsuk ra
ĠO ri
ĠMar vel
Ġra y
lo wer
ĠV ig
ĠUm pohliew
Ġ18 97
Ġ14 6
Ġ14 8
ĠMyn ba
Ġpynsngew tynnad
ĠKhar kongngor
Ġal mari
ĠCh ris
Ġbi g
ĠSoh lang
ĠSoh pet
Ġnongs or
Ġjingiap thngan
Ġimlang sahlang
ĠMan as
Ġjer oham
Ġjingph oh
Ġor ganic
enti ve
min it
Ġmu ch
sti d
isha el
ĠDieng ngan
ĠSa vio
Ġsi ze
Ġsap phir
ĠNongst eng
Ġmawsh buit
PA T
omin ation
Ġhan un
Ġhan anaÃ¯ah
Ġkhyn Ã±iat
cha se
Shi phew
red it
Ġkynd iat
Ġ195 6
ĠRan jan
ĠTam abil
Ġjingkut lad
Ġwa ve
Ġlit re
Ġber e
Ġet han
Ġmam e
Ġger shom
ĠBat skhem
ĠTar un
Ġiapyn i
Ġsel ophehad
Ġwin ner
ĠHor murai
ĠRep haim
PR L
Ġmawt ari
Ġcap tain
Ġsho uld
Ġiasnohkti lang
Soh iong
Ġreserv oir
ĠPhan buh
sch ool
ĠRas wai
ĠRyngk ew
jun om
road s
Ġproc ession
Ġgal lery
ĠKomp ani
ĠNarayan asamy
ĠBhat tacharjee
Ġjaph eth
ĠStream let
Ġjingbu jli
mep a
ĠTylli lang
ĠBhu tan
ĠKNGC SU
Ġlaibr ari
Ġconne ction
Ġpudu cherry
Ġkhil on
ĠIo oksi
ĠISI S
ĠAMSSA STA
C on
C ongress
C EO
C SWO
E ks
I ND
U N
c line
d m
e lic
m iat
p lan
r ynjah
s khor
t wensi
u hi
w omen
Ï Ĭ
Ġka ia
ba kh
ba te
Ġba jar
ha nd
la basa
la ghat
Ġs mer
Ġs wachh
Ġj ap
ia ti
Ġp os
Ġp olio
Ġd j
Ġd iah
Ġn regs
Ġt yns
Ġl es
Ġl op
Ġjong i
Ġi g
Ġi thiang
Ġr p
ta g
ta khuh
at yngkhuh
Ġng it
Ġsh ken
Ġsha kor
ÌĪ '
ĠÃ¯a bud
en tion
en se
en cing
it ness
it ynnad
th ylliang
em ath
Ġw ash
Ġong halor
sha bai
ĠS A
ĠS hai
ĠK ynta
ti mate
Ġkam haba
Ġkha k
ylla n
sh yieng
Ġc i
ĠM usi
ĠM IL
ĠM ortem
ep han
ĠB holaganj
ĠU S
Ġtr ac
Ġnoh ei
Ġjingia mih
Ġjingia shun
Ġpyr si
Ġun itarian
Ġpaid riewngeit
ĠN ek
ĠD isabilities
ĠC lifford
ĠC onduct
ĠA rad
ip a
Ġsa ham
ĠL uri
ĠL uck
Ġmar ia
Ġmar ynthing
im en
Ġma king
Ġjingm iat
har ia
us aradan
Ġpa Ã¯a
Ġpyns dien
Ġnang heh
nd e
ĠE D
ĠE ver
ĠE JNC
ĠG eba
ĠG NC
Ġkhr ismas
Ġf ound
Ġf ounder
Ġel on
ret ty
ĠW ine
ak op
ber light
br ew
Ġjingiak ynnoh
Ġjingiak said
Ġsynshar khadar
ĠMaw bah
Ġpr aw
Ġjingkh ynÃ±iuh
ĠSh ep
Ġshem a
re j
Ġiap mat
phew se
Ġtyngka u
.. .âĢĿ
Ġam az
Ġeast er
ĠAss oc
Ġ12 60
Ġre f
Ġjingr ong
Ġ11 30
lait umkhrah
Ġcon c
Ġpynr iew
Ġad ullam
Ġra yonald
Ġra Ã¯ot
Ġkhat wai
Ġ18 75
Ġkar nelian
Ġal man
Ġsak kur
ĠMa haram
lyng ot
Ġbang ladeshi
ĠKong thong
ĠAd visory
Ġsy ad
ĠRo om
has em
Ġser aph
Ġshylla u
ria k
Ġkhih win
Ġmi nerva
Ġmai eit
Ġjingis nei
ĠPro berb
chi ck
nap ateng
ĠFor eign
Ġtran saction
Ġsai kil
ĠMi khael
ĠNongk yndong
Ġac tress
khong pong
ĠJon adab
ĠAi om
TI ON
Ġdi lip
bin a
ĠMuk esh
ĠSu chen
go vin
mp uf
Ġ196 9
ĠLi fe
Ġga zette
serv ice
Ġmam re
ĠSur ong
200 9
Ġjh ia
Ġperson nel
ĠNeb usaradan
Ġep hah
ĠDi ma
ĠKHA D
lym pat
ĠHor ticulture
ĠAhi maas
ĠHous ehold
Ġid do
comm issioner
Ġmoo shahary
Ġmath ew
ĠHu jon
Ġhy derabad
ĠEdmund s
Ġlea ve
Ġnic kson
Ġrome o
ĠLib nah
ĠMir iam
ĠTong khar
Ġbaia ineh
ĠPad iah
ĠIsh bosheth
Ġdel ed
Ġlas kar
ĠAmasa iah
ĠComing one
xti les
Ġkngc su
Ġbarap athar
ednis one
Ġdorkha st
1 12
C A
E T
N A
N SSCC
b thah
c re
d ress
d ly
d ustur
f lang
f ond
k ath
k Ã±ia
m ylliem
n ur
p ynduh
r ek
s ada
s eiÃ±
t v
v ent
w amy
y ap
Ġk jor
Ġba sic
Ġs is
Ġs kai
Ġu ki
Ġu haba
ia kim
Ġp uwein
Ġd t
Ġd od
Ġia mon
Ġn d
Ġn in
Ġn iti
Ġt ony
Ġbad ka
Ġb ernard
Ġm oi
Ġi im
Ġpyn juh
Ġpyn iatylli
ĠÃ¯a shad
th lu
Ġh g
Ġh opeful
Ġlong kha
Ġdei hok
ĠS L
ĠS ari
ĠS SS
ĠS MB
ad or
ĠK ni
Ġai jalon
Ġc hair
Ġc pi
ĠM am
ĠM rad
ĠM owkaiaw
ĠB odo
es ia
es tant
Ġbriew u
Ġioh ei
el ec
Ġwan ha
Ġjingia kawang
Ġhi ls
op har
ĠP K
ĠP T
ĠP rinting
ĠH app
ĠJ ug
ĠN angne
ĠC inema
Ġkit nong
ĠA it
ĠA MP
Ġngut ka
ĠL ucifer
ĠR R
ph yl
Ġshuh shuh
res en
Ġa ba
Ġa hitub
Ġph orm
Ġph oida
im oth
ĠI taly
har aman
Ġjingpyn eh
Ġjingpyn bun
Ġmaw diang
Ġmaw khan
Ġnang a
mie tha
Ġpynp ang
Ġim plementation
ĠG r
ĠG an
ĠG alatia
ĠKa lam
Ġf il
tha kur
Ġpynd en
Ġdistrict la
ĠNong trai
ĠNong jngi
ĠW R
ĠW ard
ch ell
ch era
Ġryngkat lang
Ġdonkam u
Ġbat kupar
tia l
Ġsoh kyr
ss cc
Ġkur i
Ġktien sih
ĠKh ublei
Ġrah man
Ġ19 00
Ġsp ot
âĢĿ, .
Ġ10 3
Ġin sp
Ġjng ut
ĠNg ap
Ġbe elsebul
Ġpynsh em
ĠO wner
ĠBa hadur
Ġra jesh
ĠV an
ĠUm j
Ġly dia
Ġ18 3
Ġ18 5
ag le
Ġal eksand
ow ers
aleh kmen
cc up
ĠSoh bar
Ġ17 3
Ġiaki ba
iti gation
ks aid
ala l
ĠJo urnal
ĠSeng bah
ĠAm rit
Ġjak ew
eb ell
iuh tmoh
Ġsar bananda
Ġjai ros
ĠRe vised
lyngk dait
ĠBan ri
ĠLum shyiap
Ġno ta
sar i
Ġsal mon
ith iang
Ġse ver
Ġmi lim
Ġmi khmash
Ġnongt hang
Ġnongt luh
oram thanga
co urt
ĠAn jalee
Kh ot
Ġkhleh lang
ĠNiam tre
Ġen okh
Ġmus hi
ĠFor m
sit ive
Ġqu ality
Ġryng a
ĠHynniew skum
ĠMi khal
tic ip
Ġac ademic
ĠYouth s
van lumlang
Ġshal yndet
ten ai
Ġge ology
Ġpyntha ba
Ġryngk hi
ĠKyr hai
Ġmil kah
ĠLai lad
Ġfe bruary
ĠNalor kata
Ġken as
Ġnongkh wai
NE SO
Ġiso lation
Ġjor hat
sm b
Ġpynbun kam
ĠJe shua
Ġsd ot
ĠSad dusi
bed melekh
ĠTyr so
Ġwas te
Ġcoach ing
Ġsus ngi
Ġking dom
Ġtel ebishon
Ġmah endraganj
Ġbasaw dong
Ġpunjab i
Ġpd ung
ĠPB O
Ġmm dr
ĠTr uck
ĠRiew stad
ĠSen nakherib
ĠjingÃ±iew burom
Ġnaga on
ĠDik kanchi
Ġhal la
ci li
Ġpynlyng oh
ĠElia shib
ĠSD B
**** ****
Ġsuppl ier
Ġjeth er
ĠNah or
Ġlea ving
ĠWel sh
Ġreh ob
hata Ã¯ah
Ġmahan ta
Ġcomorbidities ka
ĠEc onomic
Ġrait ong
Ġjingspel dak
Ġpent ecost
Ġnig eria
ĠBon ney
Ġsent en
P ass
P STA
R ym
R om
R oad
T F
a v
b ias
f ile
g mailcom
h ona
i la
i os
j ib
k ud
k ma
m ortem
p na
p ui
s kai
t aroth
ha lal
ha bili
la te
Ġs iem
Ġj ad
Ġj rem
Ġj rain
Ġd it
Ġia bud
Ġn t
Ġjing neh
Ġb lai
Ġb gb
Ġl d
ar ngut
Ġr ol
Ġr ngi
Ġna phi
Ġpyn ma
at y
yr tok
Ġh h
Ġh od
ym on
ut hi
is ap
sha bar
Ġshi v
ĠS kill
ti nagar
in f
Ġc ic
Ġc hallam
ĠM H
ĠM ut
ĠM ik
ĠM ane
ĠM yntang
ĠB K
es op
ap y
ĠU ma
ĠU ALA
nong wei
Ġ2 21
Ġkin a
ĠP ynter
ĠP awan
Ġme ga
ĠJ yllud
ĠN F
Ġpor u
Ġpor tal
ĠD K
ĠD ia
ĠD ap
si bil
ĠC elebration
Ġkit bor
ip ateng
Ġlyng shop
Ġju ng
ĠR est
ĠR BI
ph ia
Ġne gi
Ġshim wai
Ġrangbah ha
ĠI OA
har ud
har baim
Ġjingpyn jaboh
Ġmaw rong
Ġjingj ngem
Ġjingb iej
hun j
wah kaji
Ġpynb ieij
Ġo x
Ġsur e
Ġel iel
Ġjingd iaw
tien syiem
Ġv isa
Ġlait um
jar ain
Ġtam sneng
Ġ6 30
Ġsan a
Ġsan tosh
Ġjingleh bein
Ġjingkh ien
pl u
Ġ19 66
ĠHa ggai
ĠÃ¯ing sah
Ġdr pariong
Ġpop ulation
Ġjingkyr siew
Ġindia ha
20 10
him oth
ĠCo urse
bi bra
ara j
jing sngew
jing iarap
ĠO d
urt is
Ġlym ph
ĠJing i
Ġnongp yrshah
asa khiat
ĠCh ristmas
Ġbi jou
Ġbi ometric
10 8
Ġ17 4
Ġmo op
Ġmo ist
ĠAr vind
ĠAr istotle
ister ial
ĠY oga
Ġsing hania
Ġnongs iew
Ġkomp utor
11 4
11 7
kyr dan
Ġjingiap them
Ġrang ap
ĠCon stable
ĠPhi lippi
Ġhynniew skum
ĠRe khab
ĠRe ligion
Ġpass ed
Ġcor porate
Ġreg inald
Ġpur pose
Ġnongai khubor
Ġpynkhih win
hab en
Ġnom ination
ĠAl phonse
Ġsyngk ieng
kas iang
Ġjingpyns yrwa
ĠMed al
ĠDem thring
ĠRes olution
Ġmawk lot
Ġpyll ew
ukhi kos
Ġdi ffer
ĠKyr teng
Tang ba
ĠRis han
Ġcr ore
Ġgad kari
ĠDis parsing
Ġtransport ers
Ġmic r
tis tics
ĠMB BS
ĠShan bor
ĠSad ew
ĠNongpyn paw
Ġnah shon
Ġmt dc
ĠWei gh
Ġten ants
Ġinf lux
tem oa
Ġbil hah
ĠBak yntang
Ġnusi b
Ġden is
Ġsqu ad
ĠPaid ang
Ġpand emic
Ġpynias yriem
Ġiat ynjuh
ĠHu bert
ĠStand ing
Ġjingkhangi it
Ġpanchay ati
Ġkhatar shnong
Ġbon ney
ishi sha
Ġminor ity
Ġthapba wa
Ġpow der
Ġjinglynn iar
Ġnation s
Ġkharm uti
ĠNic kson
ĠRelation s
ĠConv ener
Ġknow ledge
ĠKonsti wensi
ĠPran ab
Ġrand om
ĠCandid ate
erstand ing
ĠOb jection
chit ect
C ustom
E H
J ar
J yrngam
L uk
M ath
O h
R L
b yl
b ura
c onstituency
e kah
i ft
l la
n ym
p yllon
r eph
t nat
y ah
Ì Ģ
Ġ #
ng eng
Ġba ji
ha no
Ġki k
Ġki san
Ġki likia
Ġj r
Ġj t
Ġj yoti
Ġp lat
Ġp oin
Ġla te
Ġha bi
Ġha hiroth
Ġia thep
ing son
Ġt aro
Ġt iwari
Ġm ow
ar antine
hi bition
Ġjong me
Ġr k
or bar
on sor
Ġpyn lamwir
Ã¯ alam
at ra
Ġsh ur
Ġsh riew
Ġsh riak
Ġsha Ã¯ong
ĠÃ¯a khÃ±ium
Ġda u
it er
ah un
Ġdon lad
Ġdon hok
th ur
th ombor
Ġnong da
Ġnong nah
Ġw ur
Ġw ind
er c
er ah
Ġkum ka
ut es
kh shad
ĠS U
ĠS kum
Ġkam lah
sh ri
Ġc hat
ot ton
ĠM ap
ĠM os
es try
Ġpat h
Ġioh lait
el ection
Ġjingk raw
ĠP oitri
ĠP siar
ĠP inewood
ĠP FR
ĠJ D
ĠJ rop
ĠT ah
ĠT ower
ĠN Y
ĠN eil
ĠD SEL
ĠD asakhiat
si kar
Ġkhun rei
ĠR od
ĠR ana
Ġum thlong
Ġum biah
tr ok
Ġmar boh
Ġshong kli
ĠI shar
Ġsam e
Ġg era
Ġjingm inot
Ġjingpyn mlien
Ġpyns arong
ek ial
Ġnang iai
Ġpynk yndeh
ic an
Ġjingb yr
ĠE urope
Ġim sngi
Ġdep u
ĠG os
Ġe liphas
shi por
Ġiak ito
Ġhills la
Ġjingd ait
Ġtyng song
od ies
od iversity
ĠMaw phniang
Ġsoh mynting
Ġpr os
Ġsang am
ĠKh iah
Ġjingkh lem
Ġkynr ong
Ġtei borlang
Ġwah thap
ĠF al
ĠjingÃ¯ akob
Ġkhar khrang
Ġcongress u
han i
Ġkhmih lynti
ish wa
DP S
ĠRi o
ard is
ĠMar kasa
ĠBa Ã¯ap
bu ilding
ĠUm shing
Ġ14 9
Ġkol ossai
Ġiehnoh kam
ĠKhar mujai
ĠKhar khrang
Ġal phonse
Ġle aders
ĠJing shisha
ĠJing kheiÃ±
Ġbi ri
ell ite
15 00
Ġpyndap bor
11 1
Ġsy iad
kyr tong
art ers
Ġrym phum
18 0
ĠEl ieser
Ġbri ght
Ġag p
ju bor
Ġher e
Ġpass book
Ġmuk tieh
Ġur n
Ġse bah
Ġjingkyn thah
ĠRa hab
ug enson
ĠAg ent
Kh lieh
Ġkhap nap
lak andi
ĠCent er
ĠHN PF
ĠBar sillai
ĠPh estos
ĠGo shen
sal m
pr ot
ick liffe
/- ,
Ġpynsuk i
ĠLaw s
ĠLaw bah
ĠPyr diwah
sta tion
Ġcha ud
ĠJeho iada
ĠAi ban
ris er
Ġjos abad
ĠEx it
ĠEx am
Sha ta
ĠComp uter
Ġnet ophah
Ġmak ia
Ġsnep kor
ĠShan iah
Ġjinglum thup
Ġbok o
ĠAcc ounts
Ġus si
Ġcar ol
ĠJingpyn phai
ĠMag dala
Ġmoh rmen
ĠGa uhati
ĠKot bah
ĠNe bat
ĠMad hya
Ġeditor s
Ġrus sia
In ter
Ġsho bal
eder al
Ġpynsep ei
Ġsti ck
Ġkal bari
Ġjl ew
ĠEh ud
EI T
ĠPe kah
ĠBet hania
ĠSham mah
ox idants
Ġnat ural
Ġjingpynt bit
ĠFish eries
Ġann ual
ĠTob iah
Ġfrien ds
ĠArta kserksis
ĠDig ital
ĠMarba Ã±iang
Ġtro as
ĠAro er
ĠEqu ator
ĠSahit ya
ĠKhih lang
Ġmandr iek
ĠOl ympic
Ġmilim itar
habili tation
C onstitution
K ong
K ol
K hun
R TI
S ch
S tate
W SS
a khmih
b ynniaw
c ch
c bi
f one
g su
j y
j ynriew
k eiÃ±
o bad
o ob
q oob
r t
s eisoh
t lot
t lement
u fact
Ġ essential
Ġk b
ng um
la ban
Ġs eth
Ġs itting
Ġs aphred
Ġu sing
Ġu rea
Ġla ti
Ġla lap
Ġn n
Ġn u
Ġn aidu
Ġjing thait
Ġt weet
Ġb tep
Ġb yrngia
Ġb oston
ie st
Ġm uri
Ġm ca
Ġl t
Ġl un
Ġban erjee
ar isa
Ġkh rik
ĠÃ¯a shoh
Ġnong shon
Ġkat t
ym ai
ur ed
Ġdei w
ut wakhu
Ġshi ksha
ew se
bah un
ĠS nam
ĠS eph
ĠS HI
ad ubi
ri kam
ĠK is
ĠK id
ĠK oit
yng ta
sh ylla
sh war
Ġc k
Ġc re
Ġc ome
Ġc old
ĠM y
Ġbr ish
al bibra
ul try
ĠB re
ĠB obby
ĠU p
Ġsngi ia
Ġsngi katkum
Ġja um
Ġun ivers
ĠP ash
ĠP ublishers
ĠH ing
Ġjylla kane
Ġjylla halor
ĠN im
ĠN ombar
ĠD ie
ĠD ymmiew
lam an
Ġri ver
Ġri blah
ĠC lan
ent o
ĠA ram
ĠA ff
kha ba
kha ppud
Ġar seng
Ġju ba
ĠL us
ĠL yd
ph ohsniew
Ġum iew
tr ans
Ġph ul
Ġmar shall
Ġbha ng
Ġpar ishad
Ġg hosh
Ġ20 5
Ġei e
Ġman y
us niang
Ġmaw maram
Ġmaw tamur
ek ost
Ġkhubor ha
tip oh
ĠE nd
Ġo akland
00 00
Ġel ite
Ġel ementary
Ġkali ta
Ġ4 45
ĠW ait
ch c
Ġlait im
Ġlait dom
Ġbat uid
ss lc
Ġjingt wad
Ġjingkh ni
ĠSh oh
Ġap hek
Ġdr khong
Ġsp ar
ĠF armer
ian i
ja cc
dp s
ram ent
Ġhyn Î·
Ġmut ong
Ġpdeng u
jing myntoi
Ġ15 2
Ġmin d
ĠKhar pran
Ġ16 2
ĠCh etri
ĠSoh shang
Ġ17 7
ĠMa hindra
ĠMa aseÃ¯ah
ĠPyn thymmai
ks ai
ĠPar t
Ġnongs uh
ĠAm ram
ĠTh ubru
Ġhe ber
oo gle
Ġwar san
Ġ23 3
kyr khu
art ed
by wa
ĠRe al
Ġconrad u
ĠÃı akjakor
Ġthem e
Ġnongkha n
sar ang
Ġpur inam
ĠPro gressive
ĠAn athoth
so a
Ġryng ad
ula b
Ġpas teur
Ġacc ord
Ġtak e
sc ience
bl ue
Ġpai eid
Ġjingnang kiew
ĠMat ch
Ġvi olet
38 0
ĠRes pon
yllei Ã±
ĠÃ± iat
ĠZ ero
Ġso und
Ġso ft
Ġdi brugarh
Myn shuwa
ĠÃıing trep
trol ler
Ġrap thap
Ġparad ais
Ġsylla ng
Ġpil eser
Ġanti oxidants
Ġmain tenance
ĠPoh shna
Ġjingban bein
ĠAin am
Ġcher ish
Ġpd ah
Ġbel teshassar
Ġred dy
ĠAud ition
Ġrak ot
Ġiatip lem
Ġnonghiar thma
ĠPom blang
Ġshel omith
Ġgener ator
Ġste shon
ĠÃ¯ateh ktien
Ġwel sh
ĠThad laskein
East ern
Ġtynd ep
Ġsubs idi
Ġniuh mat
Ġmook yndur
ĠMod el
pre vention
ĠNehem aÃ¯ah
Ġtig lath
ĠDim apur
Pa lat
Ġhym en
ĠFre eman
ĠInf rastructure
ynrop lang
Ġtele vision
ĠNongÃ¯ athuhlypa
Ġarad onga
Ġjingjem nud
Ġhynr e
Ġnongtyng ur
Ġspa ce
kyns ew
ĠSkot lan
ĠNRE GS
Ġtrac ing
1 10
; -
E n
J ied
L T
M ai
N S
S c
S al
T eng
T ura
T AB
U T
b oo
b oard
g ran
p ia
p ynthikna
r el
s yr
s us
t oi
t ied
u ce
u lat
y erson
Ġk neng
Ġk och
ng iat
Ġba shngain
la sh
Ġj k
Ġj m
Ġj iing
Ġp ir
Ġp ooja
Ġp ubon
Ġp radip
Ġd n
Ġd istri
Ġha kine
Ġha shabai
Ġt u
Ġt ubal
ai shong
Ġb op
Ġb ivar
Ġm ik
Ġban ner
Ġi phylla
Ġr din
on der
ĠÃ¯ an
ĠÃ¯ ania
ka ge
ĠÃ¯a bynta
ĠÃ¯a khleh
Ġnong syn
Ġnong kasen
Ġw asa
ym ond
ur o
ur pose
Ġkum h
ĠS ud
ĠS yntiew
ĠS tore
ri ct
in nah
id ia
Ġc ut
ĠM uth
Ġth ring
es es
ap briew
Ġsngi katei
Ġwan ka
Ġhap neh
as wamy
Ġshnong la
ra f
ĠH LC
Ġjylla hynrei
ĠJ at
ĠT in
ĠT han
ĠT ender
ĠC hange
ĠA ka
kha it
ĠR hino
ph yllut
nem an
tr an
tr eh
Ġsngew bang
Ġblei u
ol ent
Ġph res
ik os
ik zak
yngk ai
os khana
Ġpar an
ĠI T
ct uary
Ìĥ !
Ġman mohan
Ġjingpyn leit
Ġpynk tha
ic ine
Ġsyn lar
ĠE lim
Ġpynb yrsieh
Ġe th
Ġiing shong
Ġco st
ĠNong wah
ĠW ildlife
Ġpynkh un
ak nieh
wan mi
sp ar
sp ts
ynt hih
Ġsoh i
Ġop hi
ĠKh yndew
Ġjaitbynriew u
Ġjingsngew rem
Ġrung tuh
Ġjan meit
Ġap sta
Ġduk ha
Ġdr y
ĠF air
Ġkd ong
ge on
Ġduh ei
law s
HA P
ĠCo ordination
ish ur
Ġpdeng shnong
jing iakren
Ġweng kam
Ġ15 7
Ġad b
Ġad visor
Ġ* *
ĠO me
Ġra shtriya
ĠV en
Ġsch emes
Ġmynstep ka
ĠJing shai
Ġnongp et
Ġ16 1
Ġmen ahem
Ġbas is
Ġfor malin
ĠCh e
Ġab don
Ġter ah
Ġnongpyn khuid
Ġpaul u
13 5
ĠAd verb
Ġtap puah
Ġjingkit khia
Ġsop ing
ĠÃı ap
Ġmaws aw
Ġkhaw eit
Ġkhaw lang
Ġse e
Ġpynth ylli
Ġpynth ied
Ġpynth nam
Ġjingkyn ad
Ġsuh sat
ĠSyn teng
ĠKhong shei
lak hi
Ġen quiry
ĠFor ward
ĠPh ulbari
tra ffic
Pyn thor
ĠMi nerva
Ġsin ce
sc reen
de velopment
ĠReg inald
Ġbo xing
ĠPat ricia
Ġ38 0
Ġmawk yntang
ĠÃ± iang
ĠJeho iakim
Ġbap yrkhing
Ġtyngk reiÃ±
ĠTri bes
Ġca use
Ġje ush
Ġsm c
ĠSu ccession
ĠComp ulsory
Ġcr p
ĠSun day
ĠDur ga
Ġniang ti
Ġbl oc
200 8
Ġprot ein
east ern
ĠOrganis er
Ġahas uer
Ġpil lar
Ġash ok
ĠBat kupar
kil ls
ĠRB SU
ĠDi osstar
con s
ĠKHA Dc
ĠEng land
Ġaj ccta
ĠRyng a
nc p
ĠKI TAB
ĠPra vin
ĠFran ce
RS RBD
Ġlaka dor
ĠRim mon
ĠPyndap bor
ĠChan nel
ĠUs saiah
Ġjynr in
ĠLak iang
ĠCO RP
rupang nongpoh
Ġhal f
ĠTen ancy
Ġjas per
ashi sha
ĠPaham syiem
Ġsb iak
Ġkajingia lang
IE W
ĠOrganiz ing
Ġenter prise
ĠResident ial
Ġry ta
Ġnit in
ĠNongkh num
ĠLas kar
ĠâĢ¢* .....
ĠMayr ald
Ġeconom ics
App ointment
Ġait nar
Ġjingky iuh
Ġjingthur mur
Ġpynkhlem rain
ĠPhran sit
Ġkyrw ep
iati ra
hunj hun
jacc v
Ġahasuer os
3 26
B ud
C r
D ep
I T
K ino
M ih
R M
R eg
S angeh
d ha
d oloi
g uwahati
p as
r ish
s d
u sha
Ġk uliang
Ġba leh
Ġba phi
Ġba bit
Ġs lung
Ġj p
Ġu ala
Ġp g
Ġp yllang
Ġp ylleiÃ±
Ġla ju
Ġd ok
Ġd undee
Ġha ving
Ġt yndai
Ġm iar
Ġm sc
Ġm ssasa
Ġl ed
Ġl ush
Ġr ina
ta chera
Ġkh mah
Ġdon jam
th eng
Ġnong thiah
em ale
Ġw u
Ġw ia
ur ia
ynr ong
kh wa
ĠK ap
ĠK rist
ĠK ristmas
li ous
sh r
ĠB old
ĠB ooth
ien ah
el lore
Ġwan donbok
nong rep
Ġpyr sha
op in
ĠP ung
ĠP ool
ĠP ommura
Ġme ban
ĠT an
ĠN ia
ĠN ur
ĠN is
ĠN uksa
ĠN angno
ĠC ategory
ĠA uthor
Ġngut u
Ġngut la
Ġpaidbah ki
kha Ã¯i
Ġar istotle
ph ieng
Ġum samlem
Ġsngew jli
Ġsngew thait
res olution
Ġa khai
Ġshong dum
Ġpar am
ĠI an
Ġg ra
Ġg ame
bar am
Ġma laria
Ġman dien
pa ta
Ġjingpyn wan
Ġjingpyn itynnat
Ġmaw shamok
Ġjingj lan
Ġpyns am
Ġjingb ylla
Ġpynp ar
ĠE co
ĠE KH
ĠG ang
Ġf astag
ĠÃ¯oh lum
Ġco operation
Ġhills ki
ĠW as
ab ud
Ġtyng khap
Ġkot sada
Ġdoh wah
Ġjingjia ka
ĠMaw ka
ĠMaw kyr
ĠMaw nongrim
Ġsoh liya
Ġula h
Ġmad hav
ĠSh en
kat o
Ġnyngkong u
Ġmat i
pyn khuid
ĠjingÃ¯ ohthiah
Ġparty u
Ġjop thiaw
ja ju
Ġkhar bihkhiew
Ġkhar thangmaw
ĠpynÃ¯ abynta
Ġthang briew
Ġsynr am
Ġpynsh ngaiÃ±
ĠO badaÃ¯ah
ĠMar boh
lo or
Ġmon itoring
ĠUm siang
ĠUm dohlun
Ġ18 6
Ġ18 76
Ġiwei kiba
Ġjingtrei lang
ĠKhar buki
Ġle gislature
iw bih
Ġiaki wei
Ġmo hammed
Ġmo odymmai
Ġmang kar
Ġ21 8
Ġmem riwu
kyr woh
Ġconstituency ha
Ġjingiap oi
Ġrang blang
Ġkhong joh
lyngk ut
ĠSt udy
ig arh
odi kaia
kyn thoh
ect s
Ġtim ung
Ġshang diar
Ġshylla ng
Ġex press
ĠDa vis
CC C
ĠAg rippa
char jee
Ġmus iang
Ġqu alapatty
ĠSan phew
Pyn long
Ġac tiv
ĠLang uage
Ġeli zabeth
ĠSe ven
Ġbo x
Ġsn ur
Ġjinghiar thma
ken as
Ġshan niah
Ġcab le
ens ed
ĠSab uda
Ġmait dein
Ġdi osstar
Ġmyr chiang
Sha ei
ĠSu ja
tab el
ful l
ĠBor o
Ġtown ship
ĠNeb o
ĠShem aiah
ĠHin nom
Ġsalm unna
Ġhel ping
Ġmod erator
Ġbani un
ĠGa vin
Ġhighway s
ĠSn iaw
ĠHo shea
low ing
ĠBer ry
ĠMah li
ĠSyngk rem
Ġjingriew blei
Ġrab on
ĠPunjab i
Ġbir th
oda fone
ĠSik lag
ĠElia kim
Ġpart ies
Ġsuppl ies
Ġjym phong
ĠĠĠĠĠĠĠĠĠĠĠĠĠĠĠĠ ĠĠĠĠĠĠĠĠĠĠĠĠĠĠĠĠ
ĠHur am
Ġgan ja
ĠBath sheba
hata pp
stra ct
ĠBish nupur
Ġdiengp yngkiang
Ġdin ah
ĠMyns o
Ġkampoh ing
with out
Ġbea uty
Ġelig ibility
Ġpaj ut
ipr l
Ġpic kup
vad ekar
ĠPanchay at
ĠHep rit
ĠEg lon
Ġprob lem
Ġphyll iah
muan puia
A m
D M
E xecutive
L SC
R s
R ah
S ah
S MB
] .
a ta
c ollege
d irector
d gp
f ia
g um
g as
h ing
j iw
j our
p had
p ana
s kill
v ident
w ri
y ih
Ġk mai
ba y
ba ck
Ġba gan
Ġba anah
la ha
la tang
Ġs olution
Ġj s
Ġj law
Ġj ee
Ġj lep
Ġd haba
Ġia d
Ġia khalai
Ġn ote
Ġn cc
Ġn ujorki
Ġt long
Ġbad ar
Ġb ina
Ġm ch
Ġm ese
Ġi ukharist
Ġr by
Ġna gra
Ġpyn nang
ne e
at re
um ta
ĠÃ¯ atainia
Ġsha mp
Ġda vis
it ok
yr ha
yr pad
Ġdon ation
th eh
th ok
em ai
am ad
ur r
ur ice
ur ve
Ġong ki
is sa
Ġshi lak
Ġkyn da
ĠS ian
ĠS iph
ĠS ynran
ĠS mart
ĠK yntiew
ti rement
Ġc redit
ĠM and
ĠM HA
Ġbr ew
ĠB id
Ġbar peta
Ġwan kit
Ġbaroh ka
ork has
Ġnoh pha
Ġjingia shem
Ġleh raiÃ±
ĠP ooja
ĠH yndai
Ġme chan
ĠJ ied
ĠJ ephunneh
ĠT B
ĠT it
ĠN ig
ĠN PR
ĠN aidu
ĠD S
Ġri ch
ĠC um
ĠC armel
ĠA ut
il s
Ġjings lap
Ġjings kud
ĠR ot
ĠR ip
st ia
st ru
Ġa am
Ġa qu
Ġph niang
Ġmar thong
Ġmar eshah
Ġmar khongpong
ĠI b
Ġsam akha
iar oh
ynd er
Ġjingm ait
bha briew
Ġlad pathai
Ġmaw bri
doh nud
Ġpulit u
ed ia
ĠG ordon
ĠG eshur
iat ing
Ġf ashion
Ġjingi beiÃ±
Ġe as
Ġe bal
00 000
ĠW oh
est one
ĠKha tar
Ġ5 20
Ġv ar
ynt ong
ĠMaw doh
ub ey
Ġmet eorological
Ġst itwensi
Ġjingleh burom
ĠShi hajar
ĠÃ¯ing mane
gh dad
Ġmat ha
pyn kut
pyn phai
sion er
ja catam
Ġmas jid
Ġam brose
Ġkhar raswai
Ġkhar sahnoh
Ġniam ra
Ġjingbym Ã¯aineh
pat har
Ġ11 2
Ġnongk ya
jing thoh
Ġcon venor
ran ikor
ĠO ff
ĠMar thong
lo ur
ĠV ide
ĠV eteran
Ġ13 8
Ġthe bes
Ġan ne
10 3
10 9
ĠMa sharing
ĠJo ahas
ĠTh iar
12 7
Ġpla k
Ġsyr tok
ĠÑĹ aid
Ġ27 5
Ġat oskhana
Ġminit ha
Ġlyn shing
Ġse ba
Ġpynsah ngeh
Ġex porter
Ġmu ivah
Ġlynd um
Ġkad da
ĠSa ian
Ġsi ju
ĠAg rovet
ĠAn ne
ĠJa c
Ġud din
Ġdis ease
ĠSe ason
com so
tin ction
Ġjingiateh lok
Ġcha llenge
Ġfa cili
Ġsani tation
way s
Myn shwa
Ġsw imming
Ġjingwad bniah
Ġx erox
ĠMawk lot
Ġjn v
ward s
Ġaf c
ĠShah shkor
ĠSer aÃ¯ah
dam baram
Ġson apyrdi
ĠMawp un
Ġmoh endro
if th
Ġcare er
Ġbel shassar
Ġdig it
ĠLy iur
Ġlu ilui
Ġbeer oth
ubi li
Ġbir la
Ġath le
oda kh
Ġuh m
Ġdal it
Ġhasa o
kynt ait
Ġtynd ung
Ġbymsuid n
ĠProd uction
Ġmac dal
Ġtreat y
ĠMG NREGS
ĠKomp eni
Ġmawlang su
Ġumj apung
ĠKrit ik
Ġven dors
Ġaz ad
Ġumph rup
Ġplay ers
Ġcy ber
Ġjingkhynn iuh
Ġafric a
Ġiath u
mrs sa
Ġquali f
eig ners
ĠÃ® a
ĠAthala Ã¯ah
ĠNO TA
ĠKilom etre
Jo wai
ĠWer lok
ephan t
Ġsohkyr dot
Ġdeiw ong
ulat ory
ĠAka demi
Ġmese j
Ġnohpha isngi
) âĢĿ.
9 85
A s
F O
F S
J N
M G
N ang
P s
P yllait
P hah
R es
S R
V DA
W a
b p
b ynrap
c has
c ella
d ud
p yllun
s om
t ensive
u ala
v ation
y outh
ba id
Ġba chelor
ha iah
Ġj ler
Ġu ri
Ġla mih
Ġla thoh
Ġd ic
Ġd khen
Ġd inesh
Ġn ero
Ġjing an
Ġt and
Ġt ag
Ġb ot
Ġm phrc
hi dcl
Ġr te
Ġpyn ur
Ġpyn wad
Ġpyn inam
an ti
um iel
Ġsha lang
ĠÃ¯a kut
Ġda bi
th ynrei
Ġw age
ynr ung
sha kap
ĠS r
ĠS HA
ĠS ara
ĠS wara
Ġkha l
Ġc ertific
ĠM ost
Ġth en
Ġth ynrang
ĠB lai
ĠU DA
et han
Ġtr aw
Ġkyr ini
Ġhi sp
as el
Ġleh burom
Ġmynta haba
ĠP ent
ĠH aw
ĠH ynn
ĠH ir
ĠH opeful
ĠH ughlet
ĠT lang
ĠN ei
ĠD ien
bor din
si x
ip ra
ma us
Ġar engh
Ġlyng ngun
ĠR us
no cent
Ġa u
ol it
Ġmar met
Ġpar ari
mat ur
Ġsam bormi
Ġg l
Ġg ib
Ġma lang
Ġma gn
pa k
har ge
Ġjingpyn don
ir lai
Ġbiang ka
Ġmaw thaw
Ġmaw thew
Ġpyns eisoh
Ġnang tai
Ġpynk ren
ic iary
Ġjingb eit
ĠG rant
Ġe van
Ġe ugene
Ġlum soh
shi sh
Ġriew hok
Ġriew shukor
ĠW oodland
Ġv ocational
ab un
Ġlyngdoh ship
Ġkot bah
br oi
ĠMaw lum
Ġlap asam
Ġpr ohibition
ĠKh ynriam
Ġsat ellite
Ġte a
Ġap ex
Ġ7 30
Ġ7 65
Ġdr aw
ĠF R
ĠF ounder
pyn im
ge ther
osp on
him ai
HA R
lap bah
Ġkhar kutta
Ġjingthoh bria
Ġch ow
khar kongor
ĠRi lang
soh lah
Ġnongk ylla
jing dawa
Ġpynr hem
19 0
Ġpang iang
Ġjongki ha
ĠUm ru
ĠUm niuh
ĠUm thli
ui z
Ġkar mi
Ġang kor
Ġshy am
Ġbas arong
Ġan a
Ġan il
Na ka
Ġab ieser
ĠAr binus
Ġthi n
Ġ21 5
Ġnongpyn khiah
Ġnongpyn khein
eb on
11 8
Ġconstituency u
Ġed ition
Ġsyr wiang
Ġbs iang
Ġsiat bakon
Ġ26 7
Ġbyr ngut
hara j
ĠAb ihu
ĠDe ep
Ġag rovet
Ġlaw kyntang
Ġcor e
nes aret
Ġcomp anies
Ġtyr na
Ġsynt ung
kj bwa
Ġpynshong duh
pad hya
ĠMo on
ug ust
Ġer op
ĠRam esh
PA C
ho las
Ġnep a
oph ni
ĠBen aiah
ĠAl lowan
trik e
ryngk ang
Ġjeho hanan
ĠSaw angka
Ġryngk uh
iak hin
Ġcha kra
ĠJeho iakhin
Ġbaj lan
Ġjingpynd ap
ĠRan ji
jh du
Ġfe es
mal ieh
Ġhor mah
Ġpo wa
ĠBe ne
ĠShan mu
Ġger man
pen as
Ġdom estic
Ġke ane
Ġson apur
Ġpyniar yngkat
ĠPlan t
ĠJe ff
Ġsel ect
Ġaka sh
Ġaka demi
Ġshut ia
ĠRap thap
Ġnongd ro
Ġpyrd et
pe lah
Ġdy khar
Ġdiengpyn kiang
ĠLy oh
Ġmarket ing
Ġjingring mraw
Ġelectric al
ĠSil ver
Ġpet ition
Ġnongkam ai
TO A
Ġmath ematics
rene ur
lab our
cr pc
eli ks
IE NG
Ġgot mare
Ġreh um
Ġtieh bah
ĠCap t
offic e
Ġvis it
Ġraw on
Bang ladesh
ĠPers yntiew
Ġassoc iate
fir st
Ġpharo ah
ĠHy derabad
Ġpih uin
ĠVehi cle
Ġhelik optar
ĠNgeit bieit
ĠSSS S
ĠJug ali
Ġdrkhong jee
Ġlush ia
bordin ate
? '
A e
A men
B or
D orbar
G o
K ynrad
K ylleng
M ynno
N UR
O rd
X I
b c
e an
f en
h ttp
j j
j ap
k ard
k ylliang
k usi
k ynroh
v entive
w hi
w en
ba si
Ġs wa
Ġs ied
Ġs una
Ġd iw
Ġha ram
Ġn dps
Ġjing ngiam
Ġb yngta
Ġl ess
Ġl ecturer
hi dim
Ġi bieit
Ġna kane
Ġpyn iehnoh
ne ous
ka dei
en n
th len
Ġh p
Ġh oli
Ġlong kynthei
er oth
ynr iang
Ġong shuh
is si
Ġruh ki
Ġruh haba
Ġkyn oi
ĠS elf
ĠS MC
ĠS tructure
ĠS ocio
ĠK ath
ĠM uster
Ġth s
Ġth ree
Ġth essoloni
Ġbr o
ul der
ĠB ela
ap ore
Ġpat or
Ġpat rick
Ġbah rit
Ġioh bat
Ġwan mih
Ġjingia burom
Ġhi u
Ġjylla lah
ĠT ony
ĠT hird
Ġpaid Ã¯apom
bor ding
na kata
Ġri ki
Ġym pat
ĠA ni
Ġsa ha
Ġsa jer
Ġar g
ĠL in
ĠL ONG
ĠL ynrum
ĠR ait
ĠR TE
up per
ph uh
Ġshuh ka
Ġsngew burom
Ġsngew biang
Ġsngew ngiah
Ġkiwei kiwei
Ġa ustralia
Ġmar shal
Ġpar iah
yll ew
Ġg un
Ġma li
Ġma aseÃ¯ah
Ġma langkona
Ġbym kut
Ġbym seisoh
Ġjingpyn thud
Ġnang ioh
Ġjingb na
Ġjingb sa
nd u
Ġpynp yrkhat
Ġsyn jam
Ġsyn kieng
ĠE ri
ĠG eser
Ġf ine
Ġkhasi ha
shi syndon
le op
Ġiak it
Ġdistrict ki
ĠNong kha
ĠW ill
ak an
ĠKha ppud
lar ation
Ġv ajpayee
sa c
rim mon
Ġsoh riew
Ġkyrp on
Ġkyrp at
maw loh
san phew
Ġdu li
Ġjingkh Ã±ium
Ġshillong la
Ġ19 37
ĠSh ei
re b
Ġku sh
ĠÃ¯ing shong
ĠF ield
Ġmat sohlah
ja ud
Ġpaw shai
Ġam mihud
ura g
ĠCo operative
Ġcouncil ka
Ġlam urong
Ġch ullet
Ġre ligion
oli nda
Ġplie lad
Ġpynr ing
bu jli
lo an
ĠLa boratory
Ġsei nduli
Ġjo g
ĠKhar kutta
Ġmen aiksuid
10 7
Ġ17 9
Ġdem and
Ġter m
Ġy es
ĠAm o
ĠTh up
12 3
qu arantine
14 8
Ġsop tipoh
by st
Ġjingpynb iej
Ġas om
Ġ26 0
ĠMan mohan
ĠMP HRC
ĠAb iram
Ġag enda
ĠBan shai
for ce
Ġryn iot
Ġshang bangla
enti na
Ġraid am
Ġjingh er
isha g
Ġjingpynkh yllem
Ġsi x
ug re
Kh yndai
Ġbei ng
ĠBar nea
ces sion
ĠPh ra
ĠPh lim
ĠPh eliks
ĠJeh iel
be gre
sam a
Ġpas oh
Ġacc ident
Ġeli hu
ash nga
Ġkm ienah
med atha
ear ing
Ġind o
kas la
ĠSe ba
ĠJohn y
Ġak tor
era iah
tin um
37 0
Ġshan mu
ĠNar leng
ĠRang blang
Ġthuh khana
ĠRes ort
Ġbish t
Ġgu itar
istar khos
Ġso ar
Ġhead mistress
MS O
ĠEph rath
Ġwomen s
Ġmyr don
Ġpynsniew dur
Ġstar win
Ġlo ad
ĠDoh tdong
ny son
hil ud
ĠjingÃ¯aleh kai
Ġaud itor
ĠBat ai
ĠRB DSA
ĠAnd riw
MC A
Ġtel ecom
ĠSai kia
if inal
beth on
Ġkyrdem kulai
gg ith
Ġiapoi kha
tem pt
ĠMem orandum
ĠGer many
ĠAsh kelon
fu gee
Ġbakhlem rain
Ġshynr aiÃ±
Kyn jai
ĠMano ah
ĠAra unah
Ġnor mal
Ġsohkh wai
ĠAD E
Ġkilan met
ĠNet hanel
ĠHu shai
zer land
ĠDeb ir
mot phran
Ġesh taol
bn iat
Ġmn regs
ĠCap tain
Ġmig dol
Ġnongshoh noh
Ġpj iar
Ġpow ers
ĠJas er
ĠTrei kam
ĠCP I
Ġkhub orki
Ġnarayan asamy
Ġcongres sha
ĠLur shai
Ġjim my
ĠSaiÃ± kupar
Ġhaz are
Ġjang ew
ĠLaka dong
Ġforward man
ĠMahan aim
jngoh kai
Ġmuth long
ĠOh oli
Ġmawj ynthut
ĠMawlang su
ĠStr ong
oces an
ubha gya
Ġones imos
Ġnt pc
Ġbrish yrnot
ĠOme ga
ĠVide o
NUR M
4 000
B as
E P
J D
K HU
N SA
T harai
U S
a ap
a bat
d iction
e bai
f ai
g inal
k neng
l p
l wai
l od
m ccl
n ier
p asoh
r ients
v ie
x er
z pur
Ì Į
Ġ |
Ġka jylla
Ġka bym
ba zar
Ġba g
Ġs orki
Ġp ig
Ġp rint
Ġla bor
Ġd istr
Ġd ympep
Ġha sh
Ġn oin
Ġn drf
ing shong
Ġt yllait
Ġb ob
Ġl ia
Ġl iar
ar aim
Ġr j
Ġna khmat
an jan
an anda
Ã¯ aleh
at ne
Ġng un
Ġkh ma
Ġkh yllip
Ġsh net
ĠÃ¯a khaÃ¯i
ah ynrei
un ited
Ġw aw
ur n
Ġdei ti
ynr uh
Ġong katkum
kh um
ĠS F
ĠS iat
ĠK och
ĠK ABA
Ġkam ki
li gious
in ary
Ġc olle
Ġc liff
Ġc ream
Ġc ustody
Ġth lun
ĠB M
ĠB urom
Ġbar iew
Ġtr ial
Ġnoh ha
Ġjingk sam
ki gre
ĠP isa
ĠP DA
ĠP une
ĠP aper
ĠH ass
ĠH ak
ĠJ ubili
ĠT ieh
ĠT re
ĠN DRF
Ġri ha
Ġsa y
ĠR wai
ph ul
Ġum sh
Ġum long
Ġum ngi
Ġmar sing
Ġmar wari
yll ieh
ĠI O
ct e
Ġg tc
Ġg arikhana
Ġma khon
Ġjingpyn ithuh
Ġ3 40
Ġ3 29
Ġjingth eh
Ġtrei borlang
ĠE van
ĠE liphas
Ġo badaÃ¯ah
Ġkhr uk
tha Ã¯os
Ġjingi bieit
Ġkhasi u
ĠÃ¯oh map
Ġbnai haba
ĠW ang
ress al
sp irit
Ġjingjia u
br um
Ġbapher ka
ynt ngen
Ġsoh mat
man ik
man eser
Ġjingt ylli
Ġam da
Ġde sh
Ġlam bha
pat or
Ġassam haba
Ġnongk Ã±ia
jing kieng
Ġcon troll
ard s
Ġ15 5
Ġad olf
Ġbu iam
ĠMar shillong
lo y
ĠV III
ĠUm ph
ĠUm dor
ĠUm phyrnai
ĠKhar shi
Ġal phabet
Ġle b
Ġpro vision
Ġ16 5
ĠCh ettri
ala th
Ġkhlad noh
Ġky ieng
Ġkhie u
oo ver
Ġjak hin
Ġ22 6
ĠSch olarship
Ġnational ist
og en
ĠPhi ra
ĠRe ad
ĠBad on
Ġmuk roh
Ġml cu
eop athy
Ġcomp lain
Ġlyngk dong
Ġlyngk niap
Ġpur chase
kong san
ern and
Ġnongt ymmen
Ġkad miel
ĠNE DA
Ġnongrum u
Ġrupang u
Ġkup li
ven son
ĠAn anias
ĠCent enary
Ġryng dang
ĠOffic ial
bapt ist
ĠPr oc
Ġjingpeit ngor
Ġtan k
van ces
pr ises
ĠAl phons
ĠJer ahmeel
AC S
Ġroad s
Ġkyndong tuber
Ġsun apur
Ġron ald
va j
Ġryngk neng
Ġbyndi hati
Ġmawp dang
Ġmawk yllei
ĠMal khijah
ĠÃ± iangthohlieh
sta nd
Ġjingpynd em
Ġjingpynd una
ĠMuk tieh
Ġkhyll ew
Ġresult s
rie vances
Ġsw araj
ex it
ĠBi hari
ĠBri gade
sk rit
Ġsohp ieng
ĠMawk ynroh
Ġrap hael
ĠSun il
ĠSun ny
ĠPur iang
Ġjn u
Ġjingpan poh
ĠVi olet
ĠLi ght
Ġumsaw khwan
Ġabi hail
Ġpad u
ĠGad kari
aring ton
Ġtymp an
Ġjinglyng oh
ĠGer ar
Ġid enti
Ġkun ai
Ġkaw ut
ĠSor ah
jingpyn paw
ĠKe ane
ĠPla yer
Ġslip ar
row th
can adian
Ġmoo kaiaw
Ġnehem aÃ¯ah
ĠLambok star
ĠLambok starwell
etri os
gene ric
Ġpynlyng a
ĠMul ti
ĠNi him
ĠDip loma
Ġnad da
sup ply
Ġnongban bein
ĠMath ew
NRE GA
Ġball ot
Wah kaji
Ġbrah maputra
Ġment uh
ĠCas te
Ġcondition er
ĠMayr al
unit ty
kom ore
Ġfut ure
ĠApol lion
ĠAnn ual
Ġnut rients
Ġelim elekh
Ġshed ding
Ġump jah
Ġmkhar krang
Ġmoist uri
theng kut
cella neous
Ġhisp re
kard ev
1 21
J ohn
M ynsngi
S up
T ri
V ice
V PAT
a bah
a khai
d h
d ate
h os
j ylliew
k shaid
l ya
m am
m obile
m fa
p iah
r or
r ymmai
t iah
t yrkhong
v s
w ieh
w are
y ot
Ġ astar
Ġk da
Ġk ok
Ġk ond
ng et
ha li
Ġki pulit
Ġs g
Ġs eph
Ġs oan
Ġs olid
Ġj yl
Ġu rim
ia el
Ġp ine
Ġp ublishers
Ġla jia
Ġia mai
Ġn ss
Ġjing ar
Ġjing shan
Ġjing thad
Ġt is
Ġt ul
Ġt ud
Ġt mc
ai ls
oh lum
Ġi ran
Ġna z
ta na
ta tive
um wang
um pih
Ġsha moit
ÌĪ âĢĻ
ut ieng
is k
kh lieng
sha poh
ri no
ĠK per
Ġkha s
Ġkha napateng
Ġai ims
Ġc limate
Ġc ylinder
ep hath
ĠB B
ĠB aph
ĠB iria
ĠB ivar
ĠB lind
Ġbriew ha
Ġpat na
nong khlaw
Ġjingia khlad
Ġkyr wat
mar baniang
Ġja bin
op olis
oi ce
ĠP ong
ĠP ublish
ĠT HS
Ġjaka ki
ud io
ĠD T
Ġseng haba
Ġseng longkmie
ĠA am
Ġshah ktah
Ġsa bad
Ġlyng ka
st e
tr oh
Ġph oenisia
ik atkum
Ġmar bl
ĠI eng
Ġg radu
Ġma ia
Ġbym neh
us hi
ir l
Ġbiang tam
Ġmaw ryng
ek atkum
Ġpynk yntiew
ĠE lement
ĠE ugene
Ġf unction
oc us
shi lliang
Ġel nathan
ĠÃ¯oh bor
Ġdistrict ia
ĠNong sh
ĠKha w
Ġv ia
Ġv at
Ġv in
od ia
ber ty
Ġko vind
Ġpara kha
ĠMaw lynd
ĠMaw maram
Ġpr ednisone
maw rie
Ġop er
Ġst ew
Ġjingsngew hun
Ġkynr uh
Ġ19 3
Ġte langana
ĠSh ow
ĠHa g
Ġdr dd
pyn biang
20 4
Ġam arai
Ġand erson
se el
se vak
Ġde uteronomi
Ġ12 30
Ġch urchill
Ġieh kam
ish ma
Ġsangma ha
jing wan
Ġkhadc ha
ĠHi larius
bu el
bu hai
ĠV erification
Ġjongki ka
ost er
Ġ14 00
Ġ13 00
Ġkar ate
Ġnongb lai
Ġal fred
Ġal phons
Ġudp u
eph en
are sh
ĠJing sngew
Ġpro verb
Ġan akim
Ġmo unt
Ġsor ka
Ġpynduh bor
Ġdem seiniong
ĠAm minadab
Ġkhad san
14 4
ĠAd ar
kyr hong
ĠCon troll
Ġsep hanai
Ġas mabeth
Ġta lain
Ġmuk ertila
und ai
Ġryn jain
Ġgo laghat
ĠDa vies
sti c
ĠRa tacherra
ĠAg ricultural
Ġni him
ĠLait um
nap oh
Ġpuk ir
Ġshar on
Ġbeth uel
seng bhalang
ĠMi kir
Ġac tive
Ġpyng ngat
Ġ36 0
ĠNo C
par u
ĠAs araiah
ĠWan lam
Ġchi p
Ġhill shaba
ĠKyn tien
ĠKyn pham
Ġpyll on
Ġbaj ngum
tyng ar
Ġapp eal
Ġmyr boh
oy ee
tyr a
ĠTran saction
Ġken neth
ĠInter est
Ġga za
ĠGe ology
Ġrum al
pan hes
ĠSer ampore
ĠRah man
Ġgreen wood
ĠJe ep
Ġherod ias
ĠMawp dang
Ġmoh un
Ġumsoh lang
ĠEs er
daw ai
Division al
Ġdip r
thala boh
Ġkhem osh
rand o
ĠÃ¯asaid nia
ĠJam bor
Ġnathan iel
ĠMad hav
ĠMoo shahary
ĠThaw ain
Ġsham mai
lig uri
ĠjingÃ±iew beiÃ±
Ġsti ll
ĠNathan iel
ĠSm ti
ĠMait shaphrang
ĠNi ght
ĠGur ung
Ġpis gah
sch eduled
az il
ĠKhara kor
Ġmayral born
ĠShu nem
Ġpel cy
ĠUss ah
Ġbapyn im
Ġwhol e
Ġscoot er
Ġallowan ce
aran tee
Ġfal ls
Ġjuban lak
ĠDai ry
ĠSco ut
Ġluck y
Ġgos wami
shmi ta
ĠLiter ature
assroot s
Ġkhe bar
ĠÐĩ aw
Ġmob il
Ġoph rah
risaw kun
Ġbapt ist
ĠJed uthun
bos co
Ġboit ha
Ġbair ung
ĠDeli lah
ĠSqu are
ĠTek oa
Ġskot lan
imen tal
phyl ia
sibil ity
Ġkumh ba
hunjhun wala
ĠBold ness
laha bad
ĠSwara j
Ġastar te
4 65
D D
E A
I S
M U
M t
N R
P ule
P nar
Y L
a on
a ction
a khn
d ara
g ia
g ang
h yn
i oanis
j ak
l ynter
m ch
m his
p rop
p osit
r er
s co
s enior
s olution
t n
v p
Ġ ew
Ġ ÏĬ
ha tai
la im
la ck
la khiat
Ġs trike
Ġj la
Ġj yndong
Ġla shim
Ġd so
Ġia khana
Ġn itish
Ġjing thala
Ġt m
Ġt moh
Ġt opheth
Ġb j
Ġb thong
Ġl ion
Ġr ng
ta king
at haw
ang ma
ĠÃ¯ athied
ĠÃ¯a dem
Ġda jied
Ġnong khlieh
Ġh oit
Ġw ood
Ġw heel
ym an
ur ance
kh ei
Ġshi ningstar
Ġkyn s
ĠS wachh
ĠS ynroplang
ĠK ul
ĠK ro
Ġc pc
Ġc ake
Ġth ngiat
Ġbr oad
Ġbr azil
ĠU l
et os
Ġwan haba
aid s
aid wir
da bad
ĠP hang
ĠH r
ĠH al
ĠH asar
Ġme ena
ĠT abor
ĠN ad
ĠN adu
ĠD athan
lor ds
Ġjingp uson
ĠC ritic
ĠA B
ĠA dong
Ġjings ieh
Ġjings ted
ĠR ukom
ec i
Ġsngew stad
Ġa tal
Ġa bu
yngk an
os ed
ĠI ang
Ìĥ &#
Ġg eder
bha s
Ġpa u
Ġjingpyn mang
Ġmaw phor
Ġmaw nianglah
Ġpyns k
Ġkhubor la
Ġpynk ylluid
ic o
Ġim on
ĠG lobal
Ġo li
Ġsk ur
Ġpoi man
Ġiing byndi
nam ool
Ġmyns ngat
Ġriew kai
Ġkali ka
Ġ4 43
ĠNong b
ĠNong nah
Ġpisa u
Ġpynia kynduh
Ġv v
Ġtam sa
Ġbat tery
Ġdieng iap
Ġdieng dumbur
ĠMaw iang
maw tap
Ġelekshon u
Ġ6 50
ĠKh er
Ġjingt yllun
Ġsan mer
Ġ19 27
ĠSh ek
ner ship
Ġiap li
Ġsp iton
Ġcomm unication
Ġbud am
Ġshisha k
Ġmat tit
pyn kylla
Ġshibun u
uth enti
Ġpaw ar
Ġch oud
khar shiing
ish no
ngut baroh
reh ensive
soh blei
ener gy
Ġgaro badha
lait kroh
Ġpynr angbah
ĠComm itee
ĠO thniel
ine w
ĠV II
Ġsch olar
Ġ18 33
Ġ14 2
Ġklur u
ĠKhr ismas
Ġbjp u
Ġle vitra
Ġsngap thuh
ĠJing ngeit
Ġbas ian
ĠCh owkidar
10 2
Ġmo hammad
ĠPyn khreh
Ġper mission
ĠAr med
ly sis
ĠUn itarian
ala xy
ĠAm brose
Ġnar cotic
Ġwei loi
Ġbakh or
Ġkhein duh
ĠSta ff
14 3
Ġcent ury
Ġrang san
Ġhynniew mer
ĠIn filtration
las tic
las keiÃ±
Ġbank er
ĠAb inadab
saw phew
ĠNa j
ĠNa hash
ĠDe ka
ĠDe limitation
ĠLum mawbah
Ġher man
Ġkom bor
und red
suk ia
ngai Î·
Ġjeh osadak
Ġjingbuh rieh
Ġtyr tho
rs rbd
Ġphlang diloin
ĠRa jesh
ĠMo tion
ĠMo hammed
Ġec i
Ġfr ederick
ĠAg ag
ĠAg artala
Ġmei san
ĠFor ces
ĠPh ewse
ĠJa has
tok atne
Ġbeth saida
ÂłÂł Âł
Ġkajing leh
sam gre
ĠMi kaiah
use lah
Ġbyn Ã±iaw
vi ka
ĠNo tification
kas iej
Ġak kub
ĠKam ra
Ġvi kas
Ġshan lang
Ġshan kar
ĠEn vironmental
ĠSi ju
ĠRes ol
sta blishment
rym ba
Ġdar ang
ĠEph ron
ĠEx odus
ĠAp ollos
sk y
mp f
Ġken ny
Ġpu she
lal el
ĠNag ar
Ġber ia
ĠCha ud
ĠTim nah
Ġperson s
ĠSer iculture
ĠPang iang
Ġus ed
bed kar
Ġsen a
Ġcontrol ler
Ġpad iah
Ġumsoh lait
Ġexc ellence
traw berry
ĠChar ge
Ġbil ls
ader ship
Ġsr wp
Ġgs wss
Ġmarpoh khyndew
khi shua
cl p
ĠJN V
ĠMoh endro
lig ence
ĠArch bishop
In spector
Ġnok mas
ĠPaham rioh
Ġband ary
ĠMS SA
Ġfre edom
ĠMath ematics
Ġatha laÃ¯ah
Lait kroh
ĠWallam bok
Ġwhol esal
ues day
Ġgover ment
Ġnis han
ĠCas ual
ĠBut cher
ĠPel cy
Ġhing aria
ĠBir th
msp cb
Ġmadon bai
ĠSeb edi
ĠKed esh
idya laya
ĠInstitution s
Cent ral
Ġprai s
Ġawa y
Ġkwa iar
fond birth
ĠHapp y
ĠKid ron
ĠPash hur
Ġwu shu
leop as
; }
A ugust
G en
K em
K ylli
M i
M al
M CCL
N O
S outh
W ad
X II
a asu
b shr
c hang
c ircle
d et
d ges
g ro
g uri
j ud
l ynrei
l up
m h
m os
n hai
n fsa
r iem
v eil
w j
w asa
Ã ĳ
Ġk omm
Ġk thah
Ġka Ñĸ
Ġka we
Ġki nong
Ġs oo
Ġs tall
Ġj ut
Ġu c
ia lade
Ġp retty
ei s
Ġia baroh
Ġn eph
Ġjing tha
Ġjing tan
Ġt dot
Ġbad um
Ġm ied
Ġl oh
Ġl huh
Ġban iang
Ġi kumba
Ġna tha
ta long
Ġpyn ngad
Ġkh yl
Ġsh ul
Ġda vies
Ġh ot
Ġh oglah
Ġw h
Ġw ms
er ick
er ican
kh uslai
kh usnam
ĠS ot
ti li
ti ct
yng ba
Ġkam al
sh ella
ot y
ĠM ile
Ġbr and
ĠB aw
ĠB es
es byst
ap ati
Ġbar yngkhiang
et s
aid ong
Ġnoh ka
Ġja kai
da ba
Ġshnong na
ĠP ud
ĠP ast
ĠP hawar
ĠD ist
Ġri haba
Ġri ffle
ĠC osta
Ġtha na
ĠA tom
ĠA jay
Ġngut ki
il ls
Ġsa lah
Ġar binus
Ġjings ohsat
Ġjings ynreit
Ġju venile
ĠR ohit
ph c
Ġum krem
Ġum dihar
Ġa jit
Ġa asu
Ġmar ka
Ġmar ki
Ġbha rti
os ing
Ġpar maw
ĠI oh
ĠI rat
Ġjingpyn sniew
Ġ3 15
Ġ3 16
ya k
Ġnang iar
Ġlang kyrdem
ed ai
ĠE nb
Ġim mer
Ġim manuel
Ġdep ka
Ġe lath
Ġe banjelis
Ġco uld
Ġ4 34
ĠNong shat
ĠNong sharai
ak ynad
ch em
Ġthaw dur
sa y
Ġdoh pnat
Ġdieng i
ĠMaw khan
Ġlap san
Ġkur at
Ġjingkh oh
Ġ19 31
Ġte ja
Ġtei lang
lade shu
je eling
pyn jot
thi opia
Ġpl us
Ġduh jait
Ġin ject
20 22
Ġkhar bangar
yns ar
Ġch hattisgarh
Ġre uel
cy cline
Ġjingr yntih
jing hikai
ro id
19 6
ĠMar ing
ĠUm t
Ġiai eit
Ġvote u
Ġal ison
ector s
Ġle g
ĠJing mut
Ġ16 6
Ġ16 00
ĠCh ullet
Ġan i
Ġan m
Ġab ove
Ġro ut
esh war
Ġnongs ier
Ġkomp uter
ĠjaiÃ± tia
Ġnongpyn kylla
Ġjingmih noh
Ġjak tung
Wat ju
Ġres in
14 5
Ġsy iang
Ġsy press
Ġcent res
Ġed rei
Ġ27 6
Ġkhong ngai
Ġkhong dup
Ġat tai
ĠIn quiry
Ġsep tic
ĠLe a
Ġmaws er
Ġag or
Ġjingph lei
Ġsec re
ĠLat ympang
Ġser aÃ¯ah
Ġser uÃ¯ah
ea ving
ical s
dieng iei
Ġse la
ling ton
ric ulum
Ġtyr khang
Ġjingpynk oit
Ġjingkyn shoit
Ġbasha neng
unic ations
Ġsuh lang
ĠAg or
Ã¯ap has
ld e
mi la
rinc ip
Ġpri vilege
ĠSan tosh
ĠGo hain
Pyn donkam
Pyn ursla
ear l
ĠKo lan
ĠAl ison
Ġit tai
Ġho id
ten tion
ĠMat siewdor
Shi rta
Ġshe altiel
Ġryngk sai
di ct
eas es
Ġso lar
Ġiar wai
Ġdhar na
Ġmawthoh u
Ġkhyll ep
AI T
Ġjerem oth
sk ari
ĠLong shuwa
Ġair cel
ĠKor nelios
ĠCha kra
ĠGe nesis
ĠJes us
Ġbis kit
ĠKhyr nit
ĠKen neth
Ġpyndeng umiong
reg ulation
ĠHor mu
ĠMyr iaw
ĠHead quarter
dala iah
Ġbari kor
Ġev ang
Ġgoal keeper
ĠSus ngi
hynriew phew
ev ecom
Ġlu istar
Ġwal lang
ĠRim ai
ĠSah ep
ĠSah sniang
wari lal
ĠBal en
ĠCher ish
can ada
ĠIC U
Ġcap t
HS MC
Ġ96 15
Ġbim ola
Ġamp sta
Ġband ari
sup reme
ĠIl ektrik
Ġtieh saw
ĠKris mas
Ġgam aliel
ĠLib ya
Ġpj iah
!! !
Ġrait oi
Ġbrah ma
udu cherry
ĠGot mare
cap esbyst
Ġswe et
Pyr thei
ĠPhrang ki
ĠBL EI
ĠEnter prise
Ġira q
Ġjaitb yn
Ġsanitiz er
ĠKick boxing
ĠGover ning
Jan uary
Ġfoot path
enc ies
Ġmawlynd ep
ĠDh ubri
ĠBap tist
Ġlay out
elic a
ĠMut ong
Khlieh riat
Ġshamp oo
uthenti c
veil lance
capesbyst evecom
A ll
B u
B DO
G SU
I N
J u
J ong
J isu
L ang
N iam
O r
P WD
R ukom
S ut
S haduh
T ur
T rai
W KH
b ia
b is
c ko
c ase
d ik
f as
g ent
h ynÃ±iew
k ie
k wai
k ura
k ulia
l it
n ment
p ieng
p ond
p ynrem
s eri
t f
w s
w orld
Ã ©
Ġ Ã±iuh
Ġba jop
ha ki
Ġs and
Ġj c
Ġj ynrei
Ġj ulong
Ġu b
Ġp ds
Ġla shah
Ġd ose
Ġha dein
Ġn yn
Ġjing nud
Ġt y
Ġt ngaw
Ġb ork
Ġm um
Ġm ock
oh map
Ġban ks
Ġi biang
uh buit
or es
on ard
Ġna vy
Ġpyn ran
Ġpyn mareh
Ġkh ei
Ġkh ura
Ġsh ort
ĠÃ¯a lang
ĠÃ¯a kmen
Ġda ei
yr dup
th et
th ias
Ġnong neng
Ġnong khrah
Ġkat tokatne
Ġh l
Ġh mar
Ġh ope
Ġw b
Ġw ksu
is im
kh loo
ĠS ecreteriat
ti mai
in ated
ĠM s
ĠB ul
ĠB ung
ĠB ig
ĠB GB
ĠU d
Ġpyr bot
Ġsorkar i
Ġsorkar ki
as dang
Ġun d
Ġjingk ylluid
ĠP hah
ĠP ick
ĠP uducherry
ĠJ E
ĠT eiÃ±
ĠT eman
ĠN id
ĠN ONG
ĠN ature
ĠN KHD
ĠN bshr
ĠD J
ĠD SP
ĠD SEO
si k
si bon
Ġjingp ha
Ġtha u
Ġtha laiÃ±
Ġkit borlang
ĠA man
ĠA khan
ĠA ustralia
il o
Ġpaidbah kiba
Ġar ba
ph rah
Ġum ka
Ġum khen
st ian
Ġne em
res sion
Ġa o
Ġa lade
Ġa kaba
Ġph h
âĢĿ ?
Ġmar c
yngk ot
yll iap
ĠI eh
Ġsam hoi
Ġg ai
Ġg or
Ġpynlong kam
Ġjingm on
Ġman ish
Ġjingpyn Ã¯
Ġjingpyn iar
Ġjingpyn bit
rai ne
ir ul
ir oad
Ġmaw jrong
Ġ3 20
ek ane
Ġnang bha
iam tra
Ġkhr iang
Ġks iah
Ġlum sohphoh
Ġiing saw
ath oh
ĠÃ¯oh mad
Ġsaw lyer
Ġbam doh
Ġdistrict katkum
Ġhills ia
Ġto gether
Ġriew phylla
ĠNong ai
ĠNong tyng
ĠW ad
ĠW hat
Ġpynia khleh
ch ing
iv es
Ġv ai
Ġv enti
shon hi
Ġain ka
maw siang
man para
Ġop erator
ĠKh rang
Ġsan ker
ĠShi pai
Ġhima chal
Ġdr op
Ġsp okesperson
kor dit
pyn Ã¯ap
Ġkd at
Ġthymmai u
Ġam end
Ġ9 77
Ġlam ekh
Ġre ading
ngut ha
Ġjingr uwai
oli p
jing bam
jing kylli
jong u
ĠO hi
ĠBa gan
Ġra ce
ine a
ĠV icky
ĠV olunteers
ĠV ajpayee
ĠSang riang
Ġ13 35
ag on
Ġhospital u
Ġnongb ei
Ġsem ifinal
ĠJing stad
iw el
Ġhar d
Ġhar sh
Ġthe ological
Ġjar muth
Ġ30 6
amar kata
ĠSoh mat
Ġper fect
Ġram akrishna
ĠEast er
Ġter ritory
Ġmang kara
ĠPar ad
Ġhaka juh
ĠjaiÃ± tapkhmat
lin ary
Ġ22 4
Ġ22 5
mai rang
Ġdkhar u
qu an
Ġres ain
Ġkhein kor
onom ics
18 1
Ġkhong phai
ĠEl ekshon
ĠAb ednego
ure ka
ess iah
ess ed
ĠBad ar
Ġkhaw iang
Ġsc rutiny
Ġcor ruption
Ġser mon
sem ane
Ġmi ra
Ġraid mynsaw
Ġtyr sad
kj dsta
Ġnongwan rah
Ġnongwan jngohkai
Ġjin ng
Ġther mal
sai hon
ĠAn and
ĠKhong phai
ĠKhong joh
Ġkhoh nioh
Ġen bin
Ġmei risawkun
KJ BWA
........ ....
Ġpun it
ĠNongk ya
ĠLang brot
ĠLang stang
Ġran jit
Ġshit niam
fer y
ĠKam al
Ġjingpyns awa
Ġmag isterial
ĠSal es
ĠÃ¯as dang
ĠHynÃ±iew ta
Ġpah syntiew
ris al
ĠEli hu
ĠShang diar
Ġdan ny
Ġsm ti
ĠLai mer
mp sc
Ġmak kedah
mal oi
Ġjac ket
Ġ196 1
Ġpen shon
ĠAI R
ĠGe dalaiah
JH DU
Ġtra ck
Ġahi noam
ĠWing s
ĠSer uÃ¯ah
ĠIng khong
we eter
Jing shai
Jing pang
KA S
ĠAnd erson
Ġnongd om
ĠSo bah
ĠMyr boh
Ġgood s
Ġneng nong
nic ian
Ġsyl vester
ĠLot ha
ĠMoo kaiaw
ĠMoh un
ky iad
Ġemer ald
ĠjingÃ±iew kor
ĠTer ritorial
Ġedmund s
ĠCan cer
Ġbath oin
Ġvot ing
jeng doba
tachar ya
Ġpyntr oiÃ±
ĠApp ointment
Ġinj ection
eks amin
gu ard
ĠSikh ri
Ġthai land
Wan rah
Ġmgn rega
ĠMI PRL
Ġins tall
ĠPil lar
Ġafric an
ĠProp er
asngew thuh
ĠLaka dor
Ch ief
Ġriah tam
Ġshei kh
ĠFin ancial
athi c
ĠBip ul
ĠFour th
ĠMatta naÃ¯ah
bass ador
Ra khe
ĠMusi c
Ġdod n
elec tric
ĠAit nar
Rym bai
ĠMayrald born
jour nment
Ġmagn itude
Ġerop lein
ĠNongkha ÑĹi
rino line
ĠEnb in
& ,
, âĢĶ
5 10
H FU
I oh
N ew
N OC
N apoh
S am
a inguh
c onduct
f rom
g ium
g raduate
h iang
k per
k rut
m tc
n r
n ation
o bar
p ein
t mar
u bar
v illa
w ok
y st
Ġ orth
Ġk ohima
ba ra
Ġba lung
Ġba joria
ha ei
Ġs cent
Ġs inew
Ġj f
Ġj ona
ia ban
ia lap
Ġp b
Ġp cf
Ġla buh
ei m
Ġha vildar
Ġia u
Ġia khaii
Ġjing tr
Ġt uk
Ġt dam
Ġt ube
Ġm plu
Ġl pa
Ġl od
ar pa
Ġi pher
Ġr al
Ġr ophul
Ġpyn thi
Ġpyn lum
Ġpyn kad
ne gative
Ġkh lang
Ġsh kem
ang blang
Ġsha re
ka Ã¯a
ĠÃ¯a bun
Ġda dien
em on
Ġh es
Ġh osp
Ġw ein
ynr aw
ynr ain
sha lor
Ġshi troh
Ġkyn n
Ġkyn kok
ĠS ecretaries
ĠS weet
ad ministr
ri ta
ĠK uri
sh ti
Ġc ub
Ġc ali
ĠM ok
ĠM eribah
Ġth ose
ĠB im
ĠB niah
ĠB oston
Ġbriew ki
Ġbar ad
ĠU t
et ia
Ġioh khiah
Ġtr y
Ġtr oh
Ġbaroh u
Ġjingia rung
Ġjingia shrut
Ġjingia huri
op gre
Ġjingk up
Ġleit noh
ĠP ul
ĠP le
ĠP ine
ĠP asi
ĠH un
ĠH epher
ĠJ eiel
ĠT on
ĠT ak
ĠT ro
ĠT athagata
ĠD rama
ĠD ictionary
ent y
ĠA H
ĠA sha
ma b
kha h
Ġar bor
Ġjings a
Ġjings or
Ġjings ospon
ĠR en
ĠR ick
ph ie
Ġum trai
Ġne oli
Ġa bhay
Ġph ensed
Ġmar kordor
Ġshong die
Ġbha g
Ìĥ ?
Ġbor lang
Ġg em
Ġbym iaineh
Ġkim dei
pa u
Ġpa kem
ir th
Ġmaw khiew
Ġmaw kynjoin
Ġnang i
Ġjingb yn
Ġlang i
Ġlang u
Ġlang doh
ĠE than
ĠG anga
ĠG igur
iat khnam
Ġkhr ud
Ġf ur
Ġlum thup
dc c
Ġriew i
Ġriew don
Ġpeit beiÃ±
Ġ4 25
ak men
sp or
Ġdoh im
br oo
Ġdieng Ã¯ap
Ġdieng kot
ĠMaw lyng
ĠMaw phor
Ġsoh shrieh
Ġpr ec
Ġpr iskila
Ġsan at
Ġsan ctuary
Ġjingkh n
Ġjingkh um
Ġjingkh eit
ĠShi ksha
ĠSh ebna
ob indo
sngew tynnad
Ġjan mied
ĠMe ban
Ġsp eed
Ġsp onsor
Ġwah kdait
Ġwah lyngkhat
Ġsatia u
Ġmat ri
ĠjingÃ¯ along
ĠjingÃ¯ uhkjat
Ġ9 000
HA NG
Ġhyn in
Ġde o
shang ling
jing ai
jing ngeit
Ġsu stai
Ġsu broto
ter nal
Ġ15 3
Ġjingwan poi
ĠDr ugs
Ġad mission
ĠO P
ĠO ver
ĠMar shall
ĠBa shti
lo ud
ĠUm iew
Ġly stra
Ġ18 99
ĠMyn shuwa
phi u
ag re
Ġbynrap ha
ĠKhar shandi
Ġrep resen
Ġnongp yllait
Ġjain sem
ĠSoh blei
ĠMa langkona
Ġsait met
ĠJo ah
lyng sha
Ġnongs aiÃ±
ĠjaiÃ± jot
ĠjaiÃ± sem
Ġnongpyn long
15 8
Ġres pir
Ġmem phis
13 4
14 7
14 9
lic k
ĠÑĹ ap
bud on
liew lep
Ġas ekah
Ġteng teng
urs ery
Ġjingkha Ã¯i
ĠBan jop
odi kaÃ¯a
Ġta anakh
Ġmylliem pdah
mit ted
Ġjowai ka
Ġjingsha t
Ġgo hain
Ġor eb
Ġse xual
ĠWar san
50 6
Ġpynth ep
Ġphlang iap
Ġjingkyn thup
ĠMo hammad
Ġz oramthanga
24 0
ug ram
ĠHe aring
Ġsab di
met re
ĠAn ah
teh mraw
ĠLait luid
ĠLait dom
ĠBar abbas
mi lan
Ġpri yanka
Ġmei ieid
Ġ197 4
Ġroy tre
Ġryng hep
kt ung
Ġbos rah
Ġbet ter
Ġacc ountant
Ġeli oenai
med ia
gn c
kas in
Ġjingpyns leh
48 5
Ġmawp on
38 5
ĠHam or
ĠJeho ahas
dep uty
ĠBas niew
Ġsm riti
Ġjab bok
rup hi
ac ulture
ĠjingkhlaiÃ± bor
Ġrap borlang
ĠShad rakh
Ġcamp rd
Ġjac ob
Ġmid c
Ġsein raij
NE IG
Ġlot ha
Ġasst t
Ġahi kam
Ġsil pah
Ġep id
Ġep aph
Ġhel met
ĠHan ani
ester field
Ġjingiatrei kam
dait khla
Ġdai ly
Ġgil boa
asaid nia
ĠGa al
ĠGa zette
Ġdip ul
Ġtymp em
Ġwir eless
Ġfer dinand
ĠPynthor bah
Ġpong tung
ĠStar win
ĠSah khar
Ġprem iere
Ġste ering
Ġtamil nadu
Ġdal mia
Ġlib ni
Ġwel come
ĠPe or
Ġbakyn sha
Ġcal cutta
Ġhai lakandi
ĠTyng ka
Ġpers yntiew
Ġjat hang
ĠProd ipta
ĠNiang ti
Ġnik odemos
Ġmig rant
Ġver ma
Ġphot o
Ġlynt ait
ĠCare y
ĠMeg iddo
Bang eit
khyr mi
Ġeurope an
Ġsaph ret
ĠâĢ¦ âĢ¦.
Ġbul b
ĠHis sop
ĠLyn shing
Ġscor er
vor ty
Ġrecei pt
ĠMesha kh
Ġcoll ection
Shis yndon
hed rin
Ġoholi bamah
ĠPhy si
Ġsip por
ĠJim my
Ġdoub le
ĠConsul tant
Ġhyper tension
ĠSig nboard
ĠNit in
ĠNek o
Ġsever e
Ġwind ow
jy pt
Cr PC
Ġleb iathan
Ġhispre aching
ĠNongb sap
ĠMSSA SA
Ġnatha nael
Ġneoli beral
1 19
4 20
6 50
; âĢĿ
A ng
A ct
C O
G aro
G NC
H ynne
I s
J un
L am
N P
P hai
P re
P yrkhat
R ong
R am
S K
a tan
a lah
b ishni
d so
f ast
g r
g ub
k le
l us
l yne
l ocal
w ot
y es
y ear
Ġka haba
Ġka ly
Ġba iap
Ġba bud
Ġki l
Ġs isters
Ġj ose
Ġj uliana
Ġu td
ia ls
ia said
Ġp ia
Ġp rin
Ġp aduh
Ġp eak
Ġd wai
Ġd ulong
Ġd fo
Ġd ehradun
Ġia dait
Ġia takhuh
Ġjing kaw
Ġt ia
Ġt iap
Ġb ond
Ġi ti
or ies
um bah
Ġsha ul
ĠÃ¯a die
ĠÃ¯a khawai
Ġda me
iew ta
en ces
th olom
Ġnong khot
Ġnong bareh
Ġkat nad
Ġh uh
Ġh our
Ġw na
Ġong lah
eng jal
kh om
ad ad
ĠK hang
ĠK sing
Ġkha Ñĸ
li ta
in ion
id ed
Ġai dem
sh ynrut
ĠM ani
ĠM other
ep t
Ġth r
ĠB hang
ĠB ara
ĠB yndi
ĠB ynnud
ĠB esalel
Ġbar kos
ĠU T
Ġpat la
el lo
[...]
