{"<s>":0,"<pad>":1,"</s>":2,"<unk>":3,"<mask>":4,"!":5,"\"":6,"#":7,"$":8,"%":9,"&":10,"'":11,"(":12,")":13,"*":14,"+":15,",":16,"-":17,".":18,"/":19,"0":20,"1":21,"2":22,"3":23,"4":24,"5":25,"6":26,"7":27,"8":28,"9":29,":":30,";":31,"<":32,"=":33,">":34,"?":35,"@":36,"A":37,"B":38,"C":39,"D":40,"E":41,"F":42,"G":43,"H":44,"I":45,"J":46,"K":47,"L":48,"M":49,"N":50,"O":51,"P":52,"Q":53,"R":54,"S":55,"T":56,"U":57,"V":58,"W":59,"X":60,"Y":61,"Z":62,"[":63,"\\":64,"]":65,"^":66,"_":67,"`":68,"a":69,"b":70,"c":71,"d":72,"e":73,"f":74,"g":75,"h":76,"i":77,"j":78,"k":79,"l":80,"m":81,"n":82,"o":83,"p":84,"q":85,"r":86,"s":87,"t":88,"u":89,"v":90,"w":91,"x":92,"y":93,"z":94,"{":95,"|":96,"}":97,"~":98,"¡":99,"¢":100,"£":101,"¤":102,"¥":103,"¦":104,"§":105,"¨":106,"©":107,"ª":108,"«":109,"¬":110,"®":111,"¯":112,"°":113,"±":114,"²":115,"³":116,"´":117,"µ":118,"¶":119,"·":120,"¸":121,"¹":122,"º":123,"»":124,"¼":125,"½":126,"¾":127,"¿":128,"À":129,"Á":130,"Â":131,"Ã":132,"Ä":133,"Å":134,"Æ":135,"Ç":136,"È":137,"É":138,"Ê":139,"Ë":140,"Ì":141,"Í":142,"Î":143,"Ï":144,"Ð":145,"Ñ":146,"Ò":147,"Ó":148,"Ô":149,"Õ":150,"Ö":151,"×":152,"Ø":153,"Ù":154,"Ú":155,"Û":156,"Ü":157,"Ý":158,"Þ":159,"ß":160,"à":161,"á":162,"â":163,"ã":164,"ä":165,"å":166,"æ":167,"ç":168,"è":169,"é":170,"ê":171,"ë":172,"ì":173,"í":174,"î":175,"ï":176,"ð":177,"ñ":178,"ò":179,"ó":180,"ô":181,"õ":182,"ö":183,"÷":184,"ø":185,"ù":186,"ú":187,"û":188,"ü":189,"ý":190,"þ":191,"ÿ":192,"Ā":193,"ā":194,"Ă":195,"ă":196,"Ą":197,"ą":198,"Ć":199,"ć":200,"Ĉ":201,"ĉ":202,"Ċ":203,"ċ":204,"Č":205,"č":206,"Ď":207,"ď":208,"Đ":209,"đ":210,"Ē":211,"ē":212,"Ĕ":213,"ĕ":214,"Ė":215,"ė":216,"Ę":217,"ę":218,"Ě":219,"ě":220,"Ĝ":221,"ĝ":222,"Ğ":223,"ğ":224,"Ġ":225,"ġ":226,"Ģ":227,"ģ":228,"Ĥ":229,"ĥ":230,"Ħ":231,"ħ":232,"Ĩ":233,"ĩ":234,"Ī":235,"ī":236,"Ĭ":237,"ĭ":238,"Į":239,"į":240,"İ":241,"ı":242,"Ĳ":243,"ĳ":244,"Ĵ":245,"ĵ":246,"Ķ":247,"ķ":248,"ĸ":249,"Ĺ":250,"ĺ":251,"Ļ":252,"ļ":253,"Ľ":254,"ľ":255,"Ŀ":256,"ŀ":257,"Ł":258,"ł":259,"Ń":260,"Ġk":261,"ng":262,"Ġka":263,"ba":264,"Ġba":265,"ha":266,"Ġki":267,"la":268,"Ġs":269,"Ġj":270,"Ġu":271,"ong":272,"ia":273,"Ġp":274,"yn":275,"Ġla":276,"ei":277,"Ġd":278,"Ġha":279,"Ġia":280,"Ġn":281,"ing":282,"Ġjing":283,"Ġt":284,"Ġbad":285,"ai":286,"Ġb":287,"ie":288,"Ġm":289,"oh":290,"Ġl":291,"Ġban":292,"ar":293,"hi":294,"Ġjong":295,"Ġi":296,"uh":297,"Ġr":298,"or":299,"on":300,"Ġna":301,"ta":302,"Ġpyn":303,"an":304,"ne":305,"Ã¯":306,"at":307,"Ġkaba":308,"um":309,"Ġng":310,"Ġkh":311,"Ġsh":312,"ang":313,"ĠÃ¯":314,"Ġsha":315,"ÌĪ":316,"ka":317,"ĠÃ¯a":318,"Ġda":319,"iew":320,"en":321,"it":322,"eh":323,"yr":324,"Ġkiba":325,"yl":326,"ah":327,"Ġdon":328,"th":329,"un":330,"Ġnong":331,"Ġkat":332,"em":333,"Ġh":334,"Ġlong":335,"Ġw":336,"ym":337,"am":338,"er":339,"ur":340,"Ġdei":341,"Ġkum":342,"ynr":343,"Ġong":344,"eng":345,"ut":346,"is":347,"kh":348,"ynta":349,"aw":350,"eit":351,"sha":352,"Ġshi":353,"wei":354,"ew":355,"Ġsng":356,"Ġkane":357,"bah":358,"Ġnga":359,"Ġruh":360,"Ġkyn":361,"iang":362,"ĠS":363,"ad":364,"ri":365,"ĠK":366,"âĢ":367,"ti":368,"yng":369,"Ġkam":370,"Ġphi":371,"Ġkha":372,"ylla":373,"om":374,"li":375,"duh":376,"in":377,"id":378,"Ġai":379,"sh":380,"Ġc":381,"ot":382,"Ġkatei":383,"ĠM":384,"ep":385,"Ġkan":386,"Ġth":387,"Ġbr":388,"al":389,"ul":390,"uk":391,"ĠB":392,"es":393,"ap":394,"Ġbriew":395,"ynrei":396,"Ġbar":397,"ĠU":398,"ih":399,"Ġpat":400,"Ġuba":401,"et":402,"Ġsngi":403,"Ġbah":404,"ien":405,"Ġioh":406,"el":407,"Ġtr":408,"Ġwan":409,"aid":410,"lei":411,"Ġbaroh":412,"long":413,"ork":414,"nong":415,"Ġ1":416,"čĊ":417,"Ġnoh":418,"Ġjingia":419,"Ġmyn":420,"Ġ2":421,"orkar":422,"lang":423,"Ġkin":424,"Ġlah":425,"Ġpyr":426,"Ġsorkar":427,"Ġkyr":428,"Ġngi":429,"Ġhi":430,"mar":431,"Ġhap":432,"as":433,"Ġhynrei":434,"iem":435,"Ġja":436,"op":437,"Ġleh":438,"da":439,"Ġbynta":440,"Ġun":441,"oi":442,"Ġjingk":443,"Ġmynta":444,"ren":445,"ok":446,"Ġleit":447,"ki":448,"Ġshnong":449,"Ġnamar":450,"ĠP":451,"ra":452,"ĠH":453,"Ġme":454,"Ġpha":455,"Ġjylla":456,"kam":457,"ĠJ":458,"ĠT":459,"Ġjaka":460,"tri":461,"Ġpaid":462,"ĠN":463,"Ġpor":464,"ud":465,"ĠD":466,"lam":467,"bor":468,"lor":469,"si":470,"Ġjingp":471,"Ġ(":472,"na":473,"Ġri":474,"ĠC":475,"Ġseng":476,"Ġtha":477,"Ġkit":478,"Ġym":479,"ait":480,"ent":481,"Ã±":482,"ĠA":483,"Ġngut":484,"Ġshah":485,"ip":486,"ma":487,"il":488,"Ġsa":489,"ylli":490,"Ġtang":491,"Ġkhun":492,"thuh":493,"Ġpaidbah":494,"kha":495,"ĠâĢ":496,"Ġkawei":497,"wa":498,"ain":499,"ieng":500,"Ġar":501,"Ġjings":502,"Ġdang":503,"Ġlyng":504,"Ġju":505,"angbah":506,"ĠL":507,"ĠR":508,"up":509,"Ġhalor":510,"ec":511,"ph":512,"don":513,"Ġum":514,"st":515,"shah":516,"Ġtrai":517,"Ġkata":518,"ieh":519,"ynn":520,"nem":521,"Ġhaduh":522,"Ġne":523,"yiem":524,"tr":525,"Ġshuh":526,"ung":527,"Âł":528,"Ġsngew":529,"Ġblei":530,"Ġkiwei":531,"iah":532,"Ġshim":533,"dien":534,"Ġsnem":535,"no":536,"Ġhaba":537,"res":538,"Ġa":539,"ol":540,"Ġph":541,"Ġrangbah":542,"âĢĿ":543,"ik":544,"Ġkren":545,"Ġmar":546,"yngk":547,"Ġpul":548,"Ġshong":549,"Ġbha":550,"os":551,"im":552,"leh":553,"thei":554,"Ġpar":555,"Ġkhu":556,"yll":557,"Ka":558,"ĠI":559,"ct":560,"mat":561,"Ìĥ":562,"Ġsam":563,"hang":564,"Ġbor":565,"Ġg":566,"Ġpynlong":567,"Ġkham":568,"Ġ20":569,"iar":570,"teng":571,"Ġkhl":572,"Ġhapoh":573,"Ġkine":574,"Ġei":575,"Ġmih":576,"Ġsyiem":577,"kai":578,"ynd":579,"Ġhadien":580,"Ġkumba":581,"Ġbun":582,"bar":583,"Ġma":584,"Ġlada":585,"Ġbym":586,"Ġjingm":587,"Ġman":588,"wai":589,"Ġkim":590,"Ġshu":591,"Ġtylli":592,"kum":593,"bha":594,"pa":595,"har":596,"ĠâĢľ":597,"us":598,"Ġiathuh":599,"to":600,"Ġpa":601,"Ġjingpyn":602,"Ġuwei":603,"Ġliang":604,"rai":605,"Ġlad":606,"ir":607,"Ġtip":608,"Ġbuh":609,"trei":610,"ngew":611,"Ġbiang":612,"Ġkano":613,"Ġmaw":614,"Ġshym":615,"Ġjingj":616,"men":617,"arik":618,"Ġpyns":619,"deng":620,"ls":621,"ion":622,"Ġpyrshah":623,"82":624,"istri":625,"Ġkaei":626,"Ġyn":627,"Ġkitei":628,"Ġ3":629,"ya":630,"doh":631,"istrict":632,"ek":633,"Ġnang":634,"Ġkhubor":635,"Ġkynt":636,"Ġjait":637,"Ġsah":638,"Ġpynk":639,"Ġwat":640,"mih":641,"phang":642,"&#":643,"Ġpulit":644,"Ġkumta":645,"ic":646,"Ġjingb":647,"Ġlang":648,"Ġjingth":649,"nd":650,"mie":651,"ed":652,"Ġbn":653,"Ġpynp":654,"juh":655,"ynti":656,"Ġtrei":657,"Ġtn":658,"lad":659,"noh":660,"Ġmyntri":661,"Ġsyn":662,"gha":663,"Ha":664,"tip":665,"Ġsamla":666,"hun":667,"uid":668,"shar":669,"Ġnongia":670,"ĠE":671,"wah":672,"ban":673,"laya":674,"Ġnaduh":675,"ĠBlei":676,"dei":677,"nang":678,"ied":679,"sra":680,"Ġkhlem":681,"srael":682,"ynriew":683,"ghalaya":684,"Ġphah":685,"Ġtarik":686,"Ġngan":687,"rah":688,"Ġpynb":689,"Ġim":690,"Ġdor":691,"bad":692,"iam":693,"ĠTrai":694,"isu":695,"Ġdep":696,"Ġkyrteng":697,"llong":698,"ĠG":699,"Ġo":700,"ngi":701,"Ġ201":702,"Ġhang":703,"ĠKa":704,"Ki":705,"iat":706,"ary":707,"tei":708,"Ġkiei":709,"Ġkhr":710,"ĠBah":711,"822":712,"Ġsk":713,"ukum":714,"Ġf":715,"Ġkatba":716,"Ġsur":717,"tha":718,"Ġks":719,"oc":720,"Ġjingi":721,"Ġe":722,"isa":723,"Ġpyrthei":724,"Ġpoi":725,"Ġlum":726,"tion":727,"Ġkhasi":728,"Ġkwah":729,"Ġkynhun":730,"Ġrai":731,"Ġjingialang":732,"Ġeh":733,"Ġlynti":734,"Ġiing":735,"Ġnongialam":736,"dang":737,"Ġhil":738,"nga":739,"shi":740,"nam":741,"ist":742,"Ġhukum":743,"ident":744,"ath":745,"Ġlyngba":746,"dc":747,"le":748,"00":749,"Ġel":750,"Ġthain":751,"ĠÃ¯oh":752,"Ġpynd":753,"ymm":754,"Ġsaw":755,"Ġmyns":756,"Ġbam":757,"ein":758,"Ġiaid":759,"Ġiak":760,"Ġdistrict":761,"resident":762,"Ġco":763,"Ġhills":764,"te":765,"Ġto":766,"yngkat":767,"Ġriew":768,"Ġpeit":769,"Ġkali":770,"Ġkito":771,"Ġlane":772,"ret":773,"Ġbnai":774,"Ġkynth":775,"Ġ4":776,"ass":777,"lai":778,"ĠNong":779,"Ġjur":780,"Ġkhot":781,"omm":782,"Ġkong":783,"Ġtnad":784,"ĠW":785,"mu":786,"Ġpynkh":787,"Ġpisa":788,"Ġpyni":789,"Ġpynia":790,"ak":791,"khot":792,"est":793,"ch":794,"Ġryngkat":795,"Ġjingmut":796,"ast":797,"ĠKha":798,"âĢĻ":799,"iv":800,"Ġkhmat":801,"Ġpynpaw":802,"lar":803,"Ġ5":804,"ecret":805,"Ġjingd":806,"wan":807,"tien":808,"pher":809,"ane":810,"ce":811,"Ġshaphang":812,"Ġv":813,"Ġkhynn":814,"Ġkhynd":815,"ab":816,"Ġof":817,"urom":818,"Ġdonkam":819,"donkam":820,"shon":821,"ress":822,"Ġkhnang":823,"bab":824,"Ġuno":825,"Ġsdang":826,"Ġnongbah":827,"Ġkynthup":828,"Ġkhynnah":829,"Ġlait":830,"Ġkl":831,"tom":832,"Ġtyng":833,"bynriew":834,"jar":835,"Ġtam":836,"Ġwanrah":837,"Ġlyngdoh":838,"Ġhapdeng":839,"ĠKhasi":840,"Ġnongsh":841,"Ġjia":842,"Ġkot":843,"khat":844,"ongress":845,"od":846,"poh":847,"Ġjubab":848,"Ġbat":849,"sp":850,"DC":851,"shai":852,"ndia":853,"diang":854,"ecretary":855,"Ġkpa":856,"Ġsurok":857,"Ġthaw":858,"rad":859,"ation":860,"Ġain":861,"ber":862,"Ġdaw":863,"Ġphai":864,"ukom":865,"Ġisrael":866,"tia":867,"sa":868,"hikai":869,"Ġiohi":870,"niew":871,"iaw":872,"rim":873,"Ġskul":874,"athuh":875,"ty":876,"Ġrukom":877,"Ġdoh":878,"Ġko":879,"Ġjingjia":880,"Ġship":881,"and":882,"bun":883,"Ġkynthei":884,"Ġlem":885,"br":886,"Ġdorbar":887,"cil":888,"Ġbapher":889,"âĢľ":890,"Ġngin":891,"Ġlai":892,"ymmai":893,"Ġjingtip":894,"Ġmeghalaya":895,"shan":896,"Ġdieng":897,"Ġjingiak":898,"ekshon":899,"Ġmynsiem":900,"ynt":901,"Ġpara":902,"Ġsynshar":903,"his":904,"Ġdkhot":905,"uncil":906,"thoh":907,"Ġkumno":908,"lat":909,"ĠMaw":910,"Ġjisu":911,"Ġpynj":912,"khmat":913,"Ġlap":914,"Ġkita":915,"ub":916,"Ġsoh":917,"neng":918,"Ng":919,"Ġkyrp":920,"Ġpr":921,"Ġmet":922,"Ġsang":923,"iong":924,"yngkong":925,"ss":926,"Ġkur":927,"Ġula":928,"maw":929,"Ġpule":930,"aiÃ±":931,"Ġthoh":932,"man":933,"Ġeiei":934,"Ġbeit":935,"Ġop":936,"ynrang":937,"Ġktien":938,"Ġjingim":939,"Ġelekshon":940,"Ġkatne":941,"Ġhok":942,"Ġ6":943,"ĠKh":944,"san":945,"Ġdur":946,"ĠKi":947,"Ġjingt":948,"Ġphin":949,"Ġsan":950,"Ġst":951,"ishar":952,"aintia":953,"Ġuta":954,"Ġrah":955,"Ġjaitbynriew":956,"Ġdu":957,"Ġsat":958,"haba":959,"Ġass":960,"yllait":961,"hai":962,"Ġshynrang":963,"stit":964,"tam":965,"Ġkylla":966,"Ġhynn":967,"Ġjingsngew":968,"rem":969,"Ġjingleh":970,"Ġjingkh":971,"hih":972,"Ġophis":973,"Ġshillong":974,"umar":975,"ĠShi":976,"Ġkynr":977,"Ġrung":978,"kit":979,"Ġpresident":980,"kri":981,"Ġhima":982,"pl":983,"Ġ19":984,"Ġjingeh":985,"Ġte":986,"Ġkti":987,"Ġmad":988,"Ġlade":989,"aro":990,"ĠSh":991,"ob":992,"Ġshem":993,"ĠHa":994,"jor":995,"re":996,"rap":997,"Ġdawa":998,"kat":999,"sngew":1000,"ner":1001,"Ġpdiang":1002,"hynrei":1003,"Ġjan":1004,"Ġnyngkong":1005,"Ġshipai":1006,"tad":1007,"Ġiap":1008,"Ġpyllait":1009,"jan":1010,"Ġburom":1011,"ĠMe":1012,"Ġap":1013,"onstit":1014,"Ġ7":1015,"Ġku":1016,"Ġpynmih":1017,"ĠÃ¯ing":1018,"khu":1019,"itar":1020,"Ġtei":1021,"tah":1022,"),":1023,"Ġkylli":1024,"Ġjingshah":1025,"Ġkatto":1026,"Ġduk":1027,"lade":1028,"Ġkatkum":1029,"leit":1030,"Ġdr":1031,"Ġkumjuh":1032,"tan":1033,"je":1034,"Ġsp":1035,"Ġpop":1036,"kor":1037,"Ġheh":1038,"âĢĿ,":1039,"Ġshna":1040,"Ġkem":1041,"Ġkyll":1042,"Ġcomm":1043,"Ġwah":1044,"Ġsatia":1045,"ypa":1046,"Ġkhang":1047,"Ġjingshi":1048,"gh":1049,"khun":1050,"Ġjingkyr":1051,"phew":1052,"Ġbud":1053,"ham":1054,"8221":1055,"Ġkut":1056,"Ġshisha":1057,"Ġlut":1058,"Ġpyrkhat":1059,"Ġrit":1060,"Ġpyndonkam":1061,"Ġing":1062,"lem":1063,"8220":1064,"Ġutei":1065,"Ġjied":1066,"ĠF":1067,"Ġiakren":1068,"ynduh":1069,"bam":1070,"Ġhangta":1071,"hoi":1072,"Ġkhamtam":1073,"Ġ,":1074,"Ġjinglong":1075,"raw":1076,"Ġmat":1077,"pyn":1078,"Ġmla":1079,"thi":1080,"ĠjingÃ¯":1081,"Ġkhlieh":1082,"Ġpalat":1083,"Ġkd":1084,"Ġthymmai":1085,"syn":1086,"ge":1087,"una":1088,"sion":1089,"Ġshakri":1090,"Ġ10":1091,"Ġjingthmu":1092,"Ġnongtrei":1093,"Ġtyngka":1094,"ian":1095,"Ġpl":1096,"Ġduh":1097,"Ġnangta":1098,"Ġbak":1099,"Ġsecretary":1100,"Ġparty":1101,"Ġdew":1102,"lah":1103,"Ġshuwa":1104,"ord":1105,"Ġkajuh":1106,"dong":1107,"Ġpyndep":1108,"Ġktah":1109,"law":1110,"Ġ8":1111,"ment":1112,"Ġshibun":1113,"..":1114,"Ġnongthoh":1115,"ĠHil":1116,".âĢľ":1117,"Ġjop":1118,"tor":1119,"Ġin":1120,"alem":1121,"tong":1122,"Ġindia":1123,"Ġpynshi":1124,"ja":1125,"erus":1126,"erusalem":1127,"osp":1128,"Ġpyntrei":1129,"Ġpynbna":1130,"ĠShillong":1131,"Ġkmie":1132,"Ġpan":1133,"oit":1134,"Ġjingpang":1135,"Ġsngewbha":1136,"nguh":1137,"uth":1138,"Ġiadei":1139,"Ġjingsh":1140,"pp":1141,"LA":1142,"Ġpaw":1143,"Ġmas":1144,"Ġsiew":1145,"20":1146,"Ġwad":1147,"Ġjingai":1148,"Ġhiar":1149,"Ġune":1150,"Ġam":1151,"dp":1152,"Ġjng":1153,"ura":1154,"Ġpyniaid":1155,"Ġkatta":1156,"Ġialeh":1157,"Ġ9":1158,"Haba":1159,"Ġkhraw":1160,"ĠIsrael":1161,"ram":1162,"him":1163,"ngeit":1164,"Ġkhyndew":1165,"ĠMeghalaya":1166,"HA":1167,"tal":1168,"Ġmdc":1169,"shu":1170,"ĠHills":1171,"Ġsngewthuh":1172,"Ġhyn":1173,"ĠCo":1174,"Ġmut":1175,"Ġcouncil":1176,"lap":1177,"Ġding":1178,"Ġngam":1179,"Ġdie":1180,"Ġkhar":1181,"Ġjingdon":1182,"lieh":1183,"Ġniam":1184,"Ġnongshong":1185,"ission":1186,"ada":1187,"sien":1188,"oin":1189,"Ġnongr":1190,"Ġkyrtong":1191,"Ġand":1192,"itte":1193,"Ġnonghikai":1194,"Ġcongress":1195,"eiÃ±":1196,"inguh":1197,"Ġkino":1198,"ittee":1199,"se":1200,"yns":1201,"Ġiew":1202,"empl":1203,"ukul":1204,"Ġjingthoh":1205,"ĠJisu":1206,"miet":1207,"ĠDistrict":1208,"bi":1209,"Ġde":1210,"lan":1211,"khem":1212,"Ġmadan":1213,"Ġsumar":1214,"Ġeast":1215,"Ġkyntu":1216,"Ġjingkren":1217,"ill":1218,"shang":1219,"Ġmie":1220,"Ġlam":1221,"han":1222,"Ġthung":1223,"ĠNg":1224,"Ġsniew":1225,"Ġkynnoh":1226,"Ġpynban":1227,"Ġkhmih":1228,"Ġbaje":1229,"ĠpynÃ¯":1230,"Ġhajar":1231,"ĠAss":1232,"khuid":1233,"Ġmano":1234,"rang":1235,"iap":1236,"Ġshai":1237,"Ġ12":1238,"ĠčĊ":1239,"sih":1240,"Ġch":1241,"Ġre":1242,"Ġiaka":1243,"Ġialam":1244,"Ġieh":1245,"Ġtreikam":1246,"ers":1247,"ohi":1248,"Ġkdew":1249,"khar":1250,"Ġjaintia":1251,"one":1252,"Ġ&#":1253,"ĠSyiem":1254,"Ġthep":1255,"Ġieng":1256,"ish":1257,"Ġjam":1258,"Ġwest":1259,"cy":1260,"Ġmasi":1261,"wat":1262,"DP":1263,"ngut":1264,"Ġthang":1265,"oses":1266,"Ġnym":1267,"ĠMLA":1268,"ĠLyng":1269,"ohnguh":1270,"Ġhangne":1271,"Ġjingbym":1272,"Kum":1273,"Ġkular":1274,"Ġjingshisha":1275,"Ġsangma":1276,"niang":1277,"pat":1278,"ni":1279,"Ġkyndon":1280,"ĠRi":1281,"ymmen":1282,"ĠRangbah":1283,"tang":1284,"Ġkynduh":1285,"Ġjingr":1286,"alam":1287,"HADC":1288,"Ġbneng":1289,"lum":1290,"Ġbe":1291,"ĠâĢĺ":1292,"istan":1293,"Ġshwa":1294,"ital":1295,"reh":1296,"udah":1297,"oli":1298,"outh":1299,"Ġlei":1300,"Ġmane":1301,"niah":1302,"Ġpdeng":1303,"omp":1304,"soh":1305,"Ġem":1306,"ara":1307,"Ġplie":1308,"Ġ11":1309,"Ġassam":1310,"ngan":1311,"ener":1312,"thah":1313,"Ġgaro":1314,"aroh":1315,"Ġdewiong":1316,"Ġbai":1317,"Ġnongk":1318,"lur":1319,"ospital":1320,"woh":1321,"Ġhynnin":1322,"synshar":1323,"Ġdukan":1324,"ĠÑ":1325,"Ġkyrpad":1326,"ĠMDC":1327,"Ġtymmen":1328,"Ġpynshitom":1329,"jing":1330,"lait":1331,"Ġpynjot":1332,"Ġsu":1333,"Ġweng":1334,"Ġsynr":1335,"Ġcon":1336,"Ġshabar":1337,"Ġkhadc":1338,"ter":1339,"kmie":1340,"Ġmiet":1341,"Ġkyrwoh":1342,"ran":1343,"ĠCongress":1344,"jur":1345,"ard":1346,"allam":1347,"ocia":1348,"Ġ15":1349,"Ġbishar":1350,"Ġjingwan":1351,"Ġpynr":1352,"awa":1353,"ive":1354,"fic":1355,"Ġpyrshang":1356,"jong":1357,"Ġsuk":1358,"ĠComm":1359,"ĠDr":1360,"ii":1361,"Ġujor":1362,"Ġpynsh":1363,"dor":1364,"Ġbeh":1365,"Ġad":1366,"Ġbalang":1367,"Ġpyntip":1368,"spah":1369,"kna":1370,"Ã±iew":1371,"ity":1372,"Ġ*":1373,"Ġkyntait":1374,"tieng":1375,"eneral":1376,"ohkit":1377,"ĠO":1378,"ĠPresident":1379,"ro":1380,"nud":1381,"Ġthma":1382,"Ġkala":1383,"Hynrei":1384,"Ġkyrpang":1385,"jip":1386,"jipt":1387,"Ġwallam":1388,"ensi":1389,"kumta":1390,"Ġbu":1391,"Kat":1392,"ĠLyngdoh":1393,"ĠÃ¯ap":1394,"19":1395,"Ġnongrim":1396,"Ġtiar":1397,"ĠMar":1398,"Ġnalor":1399,"Ġkatno":1400,"ĠBa":1401,"ĠHi":1402,"Ġra":1403,"bu":1404,"end":1405,"Ġkhat":1406,"rong":1407,"Ġthied":1408,"lo":1409,"ine":1410,"Ġkohnguh":1411,"Ġtur":1412,"ĠÃ¯ohi":1413,"Nga":1414,"ĠĠ":1415,"lypa":1416,"Ġsien":1417,"liang":1418,"Ġmon":1419,"Ġtnga":1420,"Ġkylleng":1421,"kane":1422,"Ġpud":1423,"jp":1424,"wensi":1425,"Ġpyntreikam":1426,"bai":1427,"Ġkiew":1428,"Ġpang":1429,"Ġiarap":1430,"Ġjingpyr":1431,"Ġbakla":1432,"Ġieit":1433,"Ġphet":1434,"Ġhikai":1435,"Ġthmu":1436,"821":1437,"Ġdak":1438,"Ġkhyr":1439,"Ġspah":1440,"Ġmin":1441,"ĠV":1442,"Ġdap":1443,"Ġjingbam":1444,"bid":1445,"Ġngeit":1446,"ĠLa":1447,").":1448,"Ġkhyndiat":1449,"bhalang":1450,"brot":1451,"tarik":1452,"Ã¯ah":1453,"ĠIndia":1454,"Ġjongki":1455,"Ġsei":1456,"lut":1457,"Ġjo":1458,"Ġaiti":1459,"ĠUm":1460,"jat":1461,"arap":1462,"yntang":1463,"khia":1464,"Ġly":1465,"Ġsch":1466,"Ġshen":1467,"Ġkhlaw":1468,"Ġshiteng":1469,"lain":1470,"ote":1471,"Ġ18":1472,"Ġbniah":1473,"ĠpynÃ¯ap":1474,"Ġpynkhreh":1475,"hap":1476,"ĠSang":1477,"onstitwensi":1478,"ost":1479,"Ġ14":1480,"Ġhato":1481,"Ġjinga":1482,"angta":1483,"eptieng":1484,"Ġ13":1485,"Ġklur":1486,"Ġlak":1487,"Ġjinghikai":1488,"Ġjerusalem":1489,"Ġnaba":1490,"Ġjingainguh":1491,"Ġsain":1492,"Ġbalei":1493,"ynmaw":1494,"Ġiai":1495,"Ġngim":1496,"Ġsta":1497,"Ġtnat":1498,"vid":1499,"Ġshuk":1500,"ĠMyn":1501,"Ġnongshun":1502,"Ġkol":1503,"Ġshapoh":1504,"ĠKhr":1505,"Ġiehnoh":1506,"Ġkyrshan":1507,"hair":1508,"ui":1509,"Ġiakynduh":1510,"ngain":1511,"Ġiwei":1512,"Ġbjp":1513,"Ġiakhun":1514,"Ġpynsngew":1515,"ĠKHADC":1516,"Ġkamai":1517,"Ġphim":1518,"Ġvote":1519,"urt":1520,"cle":1521,"Ġpynbeit":1522,"Ġhajan":1523,"khubor":1524,"Ġmrad":1525,"ĠSangma":1526,"neh":1527,"ynrap":1528,"step":1529,"phi":1530,"Ġsawdong":1531,"ock":1532,"Ġlym":1533,"ency":1534,"Ġdabid":1535,"Ġbarim":1536,"ag":1537,"Ġhospital":1538,"Ġsla":1539,"Ġbynrap":1540,"yrkh":1541,"Ġkar":1542,"alok":1543,"ĠMyntri":1544,"ief":1545,"yrng":1546,"Ġnongb":1547,"Ġjingtrei":1548,"ĠCouncil":1549,"ĠKhar":1550,"lada":1551,"Ġnongsynshar":1552,"Ġal":1553,"Ġdih":1554,"Ġpyniap":1555,"Ġudp":1556,"Ġtai":1557,"Ġjingiakren":1558,"Ġtempl":1559,"La":1560,"Ġparalok":1561,"ous":1562,"ĠSecretary":1563,"Ġshithi":1564,"Ġkonstitwensi":1565,"Ġrep":1566,"Ġbteng":1567,"ector":1568,"Ġsem":1569,"ding":1570,"Ġjingma":1571,"lehkai":1572,"ule":1573,"iÃ±":1574,"Ġkynmaw":1575,"uty":1576,"ool":1577,"Ġmihngi":1578,"jah":1579,"Ġjongka":1580,"hairman":1581,"nangta":1582,"shuwa":1583,"yntoi":1584,"ow":1585,"Ġkloi":1586,"Ġrun":1587,"Ġshimet":1588,"eph":1589,"ort":1590,"ylliem":1591,".âĢĿ":1592,"Ġmynstep":1593,"Ġang":1594,"amp":1595,"Ġithuh":1596,"Ġksu":1597,"Ġle":1598,"Ġcommittee":1599,"Ġsngap":1600,"are":1601,"Ġshitom":1602,"Ġksiew":1603,"athuhlypa":1604,"Ġkp":1605,"Ġjongu":1606,"Ġshisien":1607,"Ġtrok":1608,"ĠJing":1609,"shwa":1610,"Ġneh":1611,"Ġkyrd":1612,"burom":1613,"Ġiada":1614,"Ġsengbhalang":1615,"iw":1616,"Ġjingkhang":1617,"Ġskhim":1618,"Ġialade":1619,"Ġshy":1620,"Ġkila":1621,"aleh":1622,"Ġtynr":1623,"ĠnongÃ¯":1624,"utive":1625,"me":1626,"ate":1627,"khe":1628,"dop":1629,"iej":1630,"Ġhar":1631,"nieh":1632,"Ġpro":1633,"xec":1634,"alor":1635,"ection":1636,"ning":1637,"Ġkoit":1638,"shkor":1639,"Ġnongp":1640,"Ġkhia":1641,"30":1642,"ll":1643,"Ġkhuid":1644,"Ġjingleit":1645,"Ġ16":1646,"xecutive":1647,"onstitu":1648,"Ġnongrep":1649,"juk":1650,"Ġcem":1651,"Ġjingdawa":1652,"Ġjingngeit":1653,"Ġkumne":1654,"Ġmen":1655,"Ġthe":1656,"Ġjanmiet":1657,"tai":1658,"ylliew":1659,"ĠShnong":1660,"Ġbhoi":1661,"Ġbas":1662,"Ġjain":1663,"000":1664,"Ġfor":1665,"asa":1666,"Ġrup":1667,"Ġmoses":1668,"Ġshakhmat":1669,"Ġrta":1670,"olice":1671,"ynjar":1672,".&#":1673,"Ġpateng":1674,"SU":1675,"Ġjingkylli":1676,"ĠCh":1677,"Ġkhrist":1678,"Ġan":1679,"Ġsynran":1680,"Ġksiar":1681,"Ġlypa":1682,"Ġynda":1683,"amin":1684,"Ġsak":1685,"Ġstep":1686,"kata":1687,"Ġnongi":1688,"ĠAssam":1689,"Ġmariang":1690,"lock":1691,"Ġjar":1692,"ircle":1693,"JP":1694,"Ġtaiew":1695,"cc":1696,"onstituency":1697,"Ġkyrdan":1698,"Ġpynrem":1699,"Ġ30":1700,"Ġkyntien":1701,"Kumta":1702,"amar":1703,"Ġbi":1704,"kup":1705,"nai":1706,"Ġjingdonkam":1707,"tynn":1708,"Ġbthah":1709,"Ġjingiarap":1710,"10":1711,";,":1712,"Ġkongsan":1713,"ociation":1714,"blei":1715,"Ġbatai":1716,"Ġshad":1717,"briew":1718,"Ġsym":1719,"Ġphar":1720,"Ġkjat":1721,"Ġjudah":1722,"bit":1723,"ĠSoh":1724,"shim":1725,"Ġ\"":1726,"Na":1727,"Ġpynbiang":1728,"Ġ17":1729,"Ġcovid":1730,"Ġ25":1731,"Ġab":1732,"issioner":1733,"Ġkhyrdop":1734,"kti":1735,"ĠÃ¯athuh":1736,"ĠMa":1737,"ĠUDP":1738,"kaba":1739,"khana":1740,"Ãı":1741,"Ġ'":1742,"etr":1743,"Ġsangeh":1744,"Ġiaki":1745,"yrwa":1746,"Ġmo":1747,"Ġphang":1748,"ĠPyn":1749,"Ġduna":1750,"Ġlongkmie":1751,"iph":1752,"thaw":1753,"Ġsor":1754,"iel":1755,"Ġper":1756,"Ġrunar":1757,"ĠaiÃ±":1758,"Ġjah":1759,"kur":1760,"Ġkhiah":1761,"To":1762,"namar":1763,"Ġmarwei":1764,"Ġjingiakhih":1765,"ujor":1766,"Ġstad":1767,"ver":1768,"ĠAr":1769,"ĠâĢĵ":1770,"Ġdohnud":1771,"ano":1772,"Ġpynduh":1773,"ĠHima":1774,"Ġram":1775,"Ġkamra":1776,"Ġpynkylla":1777,"Ġ24":1778,"Ġsnam":1779,"Ġnam":1780,"ust":1781,"Ġnai":1782,"Ġsait":1783,"orth":1784,"ly":1785,"Ġro":1786,"elhi":1787,"Ġjingrwai":1788,"lim":1789,"ĠUn":1790,"iti":1791,"ĠEast":1792,"Ġrong":1793,"Ã±ia":1794,"Ġduwai":1795,"ĠÃ¯aleh":1796,"Ġjingieit":1797,"Ġil":1798,"ĠBJP":1799,"Ġdem":1800,"Ġter":1801,"Ġphylla":1802,"Ġmang":1803,"Ġjngai":1804,"stoin":1805,"Ġshahshkor":1806,"Ġ2018":1807,"Ġgeneral":1808,"Ġkyntiew":1809,"ngoh":1810,"ĠJaintia":1811,"Ġtuh":1812,"Ġlok":1813,"Ġjingjop":1814,"Ġlangbrot":1815,"ĠGaro":1816,"Ġshoh":1817,"ĠKum":1818,"ister":1819,"Ġy":1820,"ks":1821,"Ġslem":1822,"istr":1823,"Ġpynkynmaw":1824,"Ġtyngeh":1825,"Ġtih":1826,"Ġteh":1827,"yrkhei":1828,"Ġpynh":1829,"Ġjingmyntoi":1830,"ladesh":1831,"Ġjuh":1832,"Ġsheptieng":1833,"ĠY":1834,"Ġpynshai":1835,"dit":1836,"hadien":1837,"Ġduwan":1838,"adien":1839,"Ġbill":1840,"Ġthi":1841,"bert":1842,"Ġ200":1843,"Ġjingshai":1844,"Nangta":1845,"Ġmynshuwa":1846,"Ġijipt":1847,"ĠKat":1848,"esh":1849,"Ġris":1850,"rit":1851,"ell":1852,"ala":1853,"ĠâĢĿ":1854,"ĠJo":1855,"thymmai":1856,"Ġkhnam":1857,"lyng":1858,"ĠÑĸ":1859,"Ġshaniah":1860,"jain":1861,"ĠPar":1862,"21":1863,"Ġhigh":1864,"khlieh":1865,"jri":1866,"Ġpol":1867,"ĠSeng":1868,"Ġsing":1869,"Ġnongs":1870,"Ġduriaw":1871,"Ġkomp":1872,"kiba":1873,"irector":1874,"haw":1875,"ĠthaiÃ±":1876,"Ġdong":1877,"ĠAm":1878,"Ġot":1879,"EM":1880,"Ġkhlad":1881,"Ġsakhi":1882,"Ġhynriew":1883,"Ġkynroh":1884,"ĠWest":1885,"Ġhaka":1886,"Ġ2019":1887,"aul":1888,"olle":1889,"Ġjingstad":1890,"Ġunit":1891,"Ġpynkut":1892,"Ġailad":1893,"Ġtynrai":1894,"trep":1895,"ivil":1896,"rat":1897,"Ġky":1898,"aph":1899,"Ġjaid":1900,"Ġ-":1901,"Ġkynja":1902,"kut":1903,"Ġkhie":1904,"ĠTh":1905,"ollege":1906,"Ġnar":1907,"Ġjngoh":1908,"Ġdawai":1909,"ial":1910,"bok":1911,"Ġwei":1912,"der":1913,"uwai":1914,"ĠJylla":1915,"vel":1916,"Ġ21":1917,"Ġhe":1918,"Ġjingioh":1919,"eni":1920,"Ġjun":1921,"Ġlat":1922,"Ġmynjur":1923,"ium":1924,"ĠMukul":1925,"Ġophisar":1926,"Ġskhem":1927,"Ġrwai":1928,"ĠjaiÃ±":1929,"Ġshuki":1930,"Ġnongpyn":1931,"thikna":1932,"Ġjingmih":1933,"pdeng":1934,"Ġthiah":1935,"Ġshyiap":1936,"Ġpura":1937,"Ġjingialehkai":1938,"Ġsngewsih":1939,"uc":1940,"oo":1941,"Ġriti":1942,"15":1943,"Ġlehnoh":1944,"12":1945,"ice":1946,"Ġsyndon":1947,"Ġjak":1948,"Ġmynshwa":1949,"Ġbang":1950,"luid":1951,"ĠÃ¯ai":1952,"Ġias":1953,"roh":1954,"Ġmukul":1955,"ular":1956,"Ġwar":1957,"ision":1958,"Ġmynsaw":1959,"ĠKSU":1960,"ĠDab":1961,"Ġjingiakhun":1962,"....":1963,"eb":1964,"lin":1965,"hati":1966,"Ġjingkyrmen":1967,"Ġshatei":1968,"ĠJerusalem":1969,"Ġrem":1970,"yllung":1971,"ppud":1972,"ĠDabid":1973,"mynta":1974,"ile":1975,"huh":1976,"Ġbit":1977,"iuh":1978,"Ġbakh":1979,"Ġ22":1980,"hah":1981,"Kane":1982,"Ġkai":1983,"ĠÃ¯ohsngew":1984,"niam":1985,"ĠÃ¯alam":1986,"Ġput":1987,"Ġiano":1988,"Ġpla":1989,"Ã¯a":1990,"Ġkmen":1991,"Ġlongi":1992,"Wat":1993,"mai":1994,"Ġjingtohkit":1995,"wet":1996,"Ġkhad":1997,"ĠHynrei":1998,"ilon":1999,"Ġdkhar":2000,"Ġtad":2001,"Ġkhlam":2002,"Ġbret":2003,"pung":2004,"Ġchairman":2005,"ĠCEM":2006,"Ġangel":2007,"Ġtik":2008,"Ġkhappud":2009,"Ġjingkmen":2010,"Ġkynta":2011,"Ġshaduh":2012,"Ġpaul":2013,"Ġpyndap":2014,"Ġnongthohkhubor":2015,"Ġmp":2016,"shong":2017,"ĠDor":2018,"Ġbakhuid":2019,"Ġkynrad":2020,"11":2021,"ĠKane":2022,"Ġjutang":2023,"Ġmraw":2024,"ĠKong":2025,"Ġjunom":2026,"Ġnamarba":2027,"war":2028,"ĠSch":2029,"cent":2030,"ynnoh":2031,"Ġpres":2032,"Ġjingduwai":2033,"qu":2034,"ond":2035,"Ġialehkai":2036,"Ġthong":2037,"Ġbymman":2038,"Ġjurip":2039,"Ġshis":2040,"Ġpynt":2041,"Ġsoi":2042,"Ġlashai":2043,"Ġres":2044,"yllong":2045,"Ġkhein":2046,"Ġmynba":2047,"Ġpynthikna":2048,"Ġmap":2049,"Ġmem":2050,"kmen":2051,"Ġpoh":2052,"Ġbala":2053,"Ġ23":2054,"Ġkhus":2055,"had":2056,"pyr":2057,"13":2058,"ĠSta":2059,"ton":2060,"Ġjingias":2061,"14":2062,"dent":2063,"ĠAd":2064,"Ġpathai":2065,"ĠCommittee":2066,"Lada":2067,"die":2068,"Ġek":2069,"lic":2070,"Ġjingbitar":2071,"ĠhynÃ±iew":2072,"Ġsy":2073,"Ġsim":2074,"kyr":2075,"Ġconstituency":2076,"ational":2077,"âĢĿ.":2078,"Ġtap":2079,"tional":2080,"Ġkadei":2081,"Ġjingkit":2082,"Ġsar":2083,"Ġwai":2084,"Ġthew":2085,"Ġbording":2086,"SP":2087,"ĠNga":2088,"mon":2089,"ement":2090,"our":2091,"Ġjingkynnoh":2092,"ivision":2093,"Ġjubor":2094,"art":2095,"rin":2096,"Ġcent":2097,"shari":2098,"shad":2099,"Ġrym":2100,"Ġed":2101,"ĠÃ¯aid":2102,"oan":2103,"angeh":2104,"Ġjingbishar":2105,"Ġlyer":2106,"hat":2107,"lot":2108,"ĠKhrist":2109,"Ġpynm":2110,"Ġbitar":2111,"ĠÃ¯eng":2112,"Ġjingialam":2113,"Ġcourt":2114,"uri":2115,"laiÃ±":2116,"ĠDorbar":2117,"Ġpynim":2118,"Ġsyr":2119,"Ġbs":2120,"oint":2121,"boh":2122,"ĠÑĹ":2123,"jna":2124,"Ġnational":2125,"uti":2126,"Ġkurup":2127,"Ġslap":2128,"bud":2129,"Ġnapdeng":2130,"riang":2131,"onom":2132,"yntih":2133,"Ġchief":2134,"liew":2135,"ani":2136,"Ġpolice":2137,"Ġroi":2138,"Ġnongstoin":2139,"kurim":2140,"Ġnongwei":2141,"Ġjingiap":2142,"Ġ27":2143,"Ġrang":2144,"Ġkyrkhu":2145,"Ġschool":2146,"Ġtohkit":2147,"Ġbynriew":2148,"ato":2149,"Ġ&":2150,"ĠHaba":2151,"18":2152,"Ġmawlai":2153,"Ġkhajna":2154,"Ġdonkti":2155,"Ġnongmih":2156,"Ġjai":2157,"Ġdeputy":2158,"ĠSam":2159,"khlaw":2160,"Ġkhong":2161,"ynra":2162,"Ġkt":2163,"Ġjingsuk":2164,"Ġsop":2165,"Ġlieng":2166,"ĠMoses":2167,"sap":2168,"by":2169,"og":2170,"Ġshiphew":2171,"ipal":2172,"ĠCon":2173,"ohsngew":2174,"katkum":2175,"Ġcircle":2176,"Ġ2014":2177,"ulop":2178,"Ġtar":2179,"ĠEl":2180,"ĠPhi":2181,"Ġklet":2182,"16":2183,"Ġjingpynb":2184,"Ġbri":2185,"Ġhynniew":2186,"ĠRe":2187,"Ġthom":2188,"ĠTempl":2189,"Ġat":2190,"Ġnaka":2191,"ĠRo":2192,"ĠIn":2193,"ler":2194,"alei":2195,"spdp":2196,"baroh":2197,"Ġsep":2198,"do":2199,"Ġpyrta":2200,"Ġact":2201,"Ġnongkit":2202,"Ġtulop":2203,"Bad":2204,"Ġkompeni":2205,"Ġjingujor":2206,"ib":2207,"Ġsouth":2208,"Ġlyngkha":2209,"Ġkynsan":2210,"treilang":2211,"ĠLe":2212,"por":2213,"Ġsup":2214,"Ġsynd":2215,"Ġsohra":2216,"Ġsiat":2217,"Ġring":2218,"Ġker":2219,"rak":2220,"tone":2221,"Ġryntih":2222,"Ġas":2223,"8217":2224,"Ġjiw":2225,"has":2226,"Ġ26":2227,"ĠJudah":2228,"Ġrupa":2229,"shitom":2230,"Ġteng":2231,"Ġkhublei":2232,"ult":2233,"Ġjingba":2234,"olom":2235,"Ġtem":2236,"Ġjingong":2237,"Ġshimti":2238,"Hadien":2239,"Ġphew":2240,"Ġimlang":2241,"aron":2242,"Ġjingkieng":2243,"jek":2244,"ĠMan":2245,"ve":2246,"ff":2247,"ynshar":2248,"ko":2249,"Ia":2250,"ordar":2251,"Ġconrad":2252,"iaid":2253,"yrngem":2254,"Ġpynkhuid":2255,"Ġjingkyrshan":2256,"astor":2257,"Ġnpp":2258,"moit":2259,"aduh":2260,"Ġrakhe":2261,"Ġbab":2262,"Ġmihnoh":2263,"eid":2264,"ont":2265,"17":2266,"syiem":2267,"Ngi":2268,"olomon":2269,"Ġjer":2270,"Ġwait":2271,"oseph":2272,"Ġhspdp":2273,"Ġjingiaid":2274,"Ġcommissioner":2275,"sning":2276,"urs":2277,"Ġblock":2278,"Ġ2015":2279,"Ġpetr":2280,"Ġlajong":2281,"Ġkhana":2282,"yndong":2283,"Ġpher":2284,"ĠMP":2285,"Ġmaham":2286,"Ġjylliew":2287,"las":2288,"Ġjingri":2289,"Ġdohkha":2290,"Ġexecutive":2291,"Ġbyr":2292,"Ġeks":2293,"rain":2294,"ĠÃı":2295,"Ġjingkha":2296,"Ġmaws":2297,"Ġiohsngew":2298,"nia":2299,"son":2300,"Ġjingthung":2301,"Ġkew":2302,"Ġshiliang":2303,"Ġcl":2304,"lyngk":2305,"udent":2306,"Ġminit":2307,"dur":2308,"Ġoffic":2309,"abor":2310,"Ġbank":2311,"Ġkynti":2312,"Ġsub":2313,"SPDP":2314,"Ġkilo":2315,"Ġainguh":2316,"Ġassociation":2317,"hara":2318,"ĠAb":2319,"onbor":2320,"Ġsahlang":2321,"ure":2322,"Ġhynmen":2323,"kupar":2324,"rum":2325,"Ġmynmiet":2326,"nb":2327,"Ġkhlain":2328,"Ġjingjynjar":2329,"Ġtep":2330,"utonom":2331,"Ġthem":2332,"Ġnongniah":2333,"Ġtiket":2334,"Ġaiu":2335,"Ġ28":2336,"ess":2337,"ĠjingkÃ±ia":2338,"ĠDep":2339,"sniew":2340,"raham":2341,"ali":2342,"Ġ50":2343,"saw":2344,"DA":2345,"rieh":2346,"jot":2347,"utonomous":2348,"ĠNa":2349,"iawmoit":2350,"Ġpynrung":2351,"Ġis":2352,"katba":2353,"Ġpynl":2354,"bein":2355,"Ġpynsangeh":2356,"iad":2357,"oard":2358,"Ġstate":2359,"ĠDe":2360,"Ġag":2361,"Ġpynlait":2362,"Ġkabu":2363,"ĠSt":2364,"ig":2365,"ĠHSPDP":2366,"Ġbakhraw":2367,"Ġshet":2368,"ynter":2369,"Ġkhatduh":2370,"Ġdc":2371,"Ġbeain":2372,"ĠBan":2373,"paw":2374,"Ġ29":2375,"Ġitynn":2376,"Ġkarkhana":2377,"Ġjaidbynriew":2378,"ier":2379,"uba":2380,"Ġlyn":2381,"ĠLum":2382,"ĠIjipt":2383,"Ġwatla":2384,"khang":2385,"Ġpynroi":2386,"Ġjingtep":2387,"jli":2388,"odi":2389,"Ġno":2390,"beiÃ±":2391,"ship":2392,"Ġpynlut":2393,"Ġdirector":2394,"okram":2395,"ynsaw":2396,"ju":2397,"ral":2398,"kyn":2399,"leithaw":2400,"eth":2401,"ĠBad":2402,"jaiÃ±":2403,"AM":2404,"Ġbleithaw":2405,"Ġ2020":2406,"Ġta":2407,"Ġher":2408,"Ġkyndit":2409,"umber":2410,"Ġjingph":2411,"Ġkpu":2412,"Ġkhaw":2413,"Ġ2016":2414,"Ġpass":2415,"Ġbabha":2416,"Phi":2417,"Ġilp":2418,"Ġkhaii":2419,"ynsong":2420,"velop":2421,"Ġarphew":2422,"phniang":2423,"Ġlaw":2424,"shnong":2425,"Ġprokram":2426,"Ġnongmihkhmat":2427,"Ġdelhi":2428,"ublic":2429,"Ġrim":2430,"Ġsc":2431,"Ngan":2432,"halor":2433,"Ġsec":2434,"ght":2435,"hal":2436,"Ġkein":2437,"Ġmylliem":2438,"Ġkom":2439,"Ġdien":2440,"Ġdara":2441,"ect":2442,"ĠDon":2443,"Ġnongkitkam":2444,"shua":2445,"Ġjingduna":2446,"Ġjingti":2447,"Ġshimkhia":2448,"Ġpynbha":2449,"Ã¯ing":2450,"Ġpait":2451,"Ġnorth":2452,"ona":2453,"Ġhakhmat":2454,"Ġrieh":2455,"Ġkor":2456,"for":2457,"mit":2458,"star":2459,"Ġjingiakynduh":2460,"ĠGeneral":2461,"velopment":2462,"Ġmuk":2463,"Ġshyrkhei":2464,"ies":2465,"Ġnongap":2466,"Ġiashim":2467,"uel":2468,"und":2469,"gan":2470,"Ġtim":2471,"Ġnumber":2472,"Ġmal":2473,"PP":2474,"Ġcor":2475,",âĢĿ":2476,"ĠLat":2477,"Ġjingkular":2478,"Ġsamoi":2479,"ĠSohra":2480,"Ġkulai":2481,"Ġml":2482,"Ġnongkha":2483,"Ġnabar":2484,"lip":2485,"kim":2486,"Ġur":2487,"ctor":2488,"Ġshipor":2489,"Ġpynieng":2490,"ĠIa":2491,"ymmang":2492,"eop":2493,"Ġjingsynshar":2494,"Ġjowai":2495,"kieh":2496,"Ġhynne":2497,"oktor":2498,"phrang":2499,"ursla":2500,"nes":2501,"ngam":2502,"sah":2503,"Ġbyrngem":2504,"Ġryn":2505,"ĠâĢĶ":2506,"Ġser":2507,"ea":2508,"ĠMawlai":2509,"ocial":2510,"ĠPaul":2511,"Ġkitab":2512,"Ġcomp":2513,"Ġpynneh":2514,"artment":2515,"Ġshang":2516,"Ġshongkurim":2517,"Ġreg":2518,"Ġumphniang":2519,"Ġkhristan":2520,"katei":2521,"Ġnongpoh":2522,"Ġsum":2523,"Ġbein":2524,"Ġjingiadei":2525,"Ġlyngngoh":2526,"Ġnongdie":2527,"sar":2528,"Ġjingpyrkhat":2529,"ĠĊ":2530,"Ġdum":2531,"Ġcivil":2532,"Ġ2013":2533,"Ġjingpyrshah":2534,"ĠCourt":2535,"Ġbangladesh":2536,"Ġjingkhawai":2537,"nbsp":2538,"Ġlama":2539,"nar":2540,"Ġjingkwah":2541,"ical":2542,"Ġsal":2543,"stur":2544,"ĠnongÃ¯athuhlypa":2545,"list":2546,"ance":2547,"Ġjem":2548,"Ġphong":2549,"Ġset":2550,"Ġlyngk":2551,"Ġbieit":2552,"tylli":2553,"22":2554,"ket":2555,"Ġbylla":2556,"Katkum":2557,"hato":2558,"Ġphyllaw":2559,"Ġsaul":2560,"Ġjingsha":2561,"ulor":2562,"ĠBang":2563,"listia":2564,"Ġjuk":2565,"sem":2566,"ulmar":2567,"Ġshylla":2568,"ĠSing":2569,"khie":2570,"yc":2571,"Ġtheh":2572,"ria":2573,"suk":2574,"Ġon":2575,"Ġnongkyndong":2576,"ilonia":2577,"nis":2578,"uit":2579,"hadc":2580,"Ġgo":2581,"Ġkyrkieh":2582,"ohn":2583,"lyngkot":2584,"uwa":2585,"Ġjrong":2586,"Ġkashari":2587,"ngai":2588,"uksa":2589,"ĠLam":2590,"Ġborabor":2591,"Ġkamram":2592,"dieng":2593,"Ġsuba":2594,"Ġor":2595,"bhoi":2596,"Ġjingbthah":2597,"ari":2598,"Ġlynter":2599,"Ġlano":2600,"Ġpur":2601,"Ġeksamin":2602,"Ġcollege":2603,"Ġlympung":2604,"gp":2605,"liam":2606,"Ġriewlum":2607,"prah":2608,"ella":2609,"Ġbuit":2610,"kin":2611,"ĠNPP":2612,"yllem":2613,"ith":2614,"Ġthup":2615,"Ġjakob":2616,"thait":2617,"Ġse":2618,"ĠWar":2619,"ling":2620,"Ġjingkhein":2621,"Ġtyllong":2622,"kong":2623,"Ġbunsien":2624,"enti":2625,"kine":2626,"lc":2627,"Ġtuid":2628,"Ġkhih":2629,"shuh":2630,"liament":2631,"Ġjingkylla":2632,"Ġkaban":2633,"Ġhn":2634,"thie":2635,"min":2636,"Ġelection":2637,"Ġjingduh":2638,"Ġbhah":2639,"ĠKumta":2640,"Ġkhyndai":2641,"phlang":2642,"Ġpynshngain":2643,"Ġmi":2644,"shem":2645,"Ġbuhrieh":2646,"ĠWah":2647,"ĠKhristan":2648,"Ġthikna":2649,"bih":2650,"Ġsordar":2651,"Ġ31":2652,"Ġladep":2653,"Ġ40":2654,"ern":2655,"?âĢĿ":2656,"su":2657,"df":2658,"Ġjingbit":2659,"Ġjingkyrkhu":2660,"phai":2661,"pdiang":2662,"50":2663,"Ġpynsah":2664,"Ġjeh":2665,"Ġraid":2666,"Ġputhi":2667,"Ġex":2668,"yndai":2669,"Ġjingbuh":2670,"ric":2671,"Ġdoktor":2672,"Ġtyr":2673,"Ġnuksa":2674,"Ġarngut":2675,"Ġpynhiar":2676,"ĠNational":2677,"Ġthan":2678,"dum":2679,"ĠBhoi":2680,"kumba":2681,"yllok":2682,"Ġsynt":2683,"Ġnongt":2684,"Ġjingiathuh":2685,"Ġpynphai":2686,"23":2687,"Ġlebi":2688,"dar":2689,"Ġpynth":2690,"Ġpynskhem":2691,"jrong":2692,"Ġdustur":2693,"ynriah":2694,"Ġshano":2695,"Ġjingtei":2696,"Ġthliew":2697,"Ġkaiph":2698,"Ġkyntang":2699,"ome":2700,"Ġtreh":2701,"ĠBill":2702,"Ġkhusnam":2703,"Ġunion":2704,"rs":2705,"Ġphlang":2706,"Ġkyiad":2707,"Ġpynshisha":2708,"Ġphone":2709,"Ġharud":2710,"Ġmu":2711,"wad":2712,"Ġjingh":2713,"ĠHigh":2714,"Ġkomiti":2715,"ĠChief":2716,"Ġpercent":2717,"Ġshukor":2718,"hur":2719,"Ġdonbor":2720,"Ġjingpynbna":2721,"oannis":2722,"kham":2723,"ĠExecutive":2724,"Ġjingpynk":2725,"Mynta":2726,"Ġjingkyn":2727,"ĠDa":2728,"ana":2729,"Ġnangne":2730,"Ġpakhang":2731,"ese":2732,"Ġsaitjain":2733,"ĠMylliem":2734,"Ġthombor":2735,"ĠLada":2736,"pt":2737,"khrah":2738,"Ġpyndem":2739,"Ġlehse":2740,"reme":2741,"let":2742,"Ġkyrmen":2743,"ĠÃ±iew":2744,"kj":2745,"Ġnud":2746,"Ġlynd":2747,"Ġwork":2748,"ue":2749,"mer":2750,"Ġkad":2751,"Ġmai":2752,"yria":2753,"Ġthok":2754,"25":2755,"endra":2756,"Ġmot":2757,"Ġknieh":2758,"myn":2759,"du":2760,"Ġngat":2761,"ĠNgi":2762,"ĠÑĹa":2763,"sti":2764,"ĠjingÃ¯ap":2765,"Ġriam":2766,"Ġkato":2767,"Ġpynbor":2768,"jai":2769,"ĠRa":2770,"Ġlaitluid":2771,"ĠnongÃ¯alam":2772,"Ġpynkhein":2773,"Ġli":2774,"bangeit":2775,"Ġmardor":2776,"Ġpynpra":2777,"ĠKH":2778,"Ġbasa":2779,"Ġsynjuk":2780,"Ġbom":2781,"Te":2782,"jop":2783,"uster":2784,"sngi":2785,"ĠlongÃ¯ing":2786,"Ġmarak":2787,"Ġsepngi":2788,"Ġhangno":2789,"Ġparabangeit":2790,"aniel":2791,"Ġmynt":2792,"ĠNai":2793,"ondary":2794,"rakhe":2795,"Ġprestone":2796,"yntur":2797,"oth":2798,"Ġtest":2799,"ĠSorkar":2800,"ocie":2801,"ynram":2802,"inal":2803,"Ġpynshong":2804,"ffic":2805,"!âĢĿ":2806,"eration":2807,"Ġjingsniew":2808,"isha":2809,"wir":2810,"Ġben":2811,"ĠState":2812,"riat":2813,"ĠNE":2814,"Ġmarjan":2815,"ivers":2816,"Ġpynliem":2817,"ordan":2818,"Ġlui":2819,"Ġkr":2820,"Ġjingsngewsih":2821,"Ġphra":2822,"ional":2823,"ji":2824,"elbert":2825,"ociety":2826,"wieng":2827,"Ġtied":2828,"ĠDieng":2829,"les":2830,"pad":2831,"uklar":2832,"ĠAct":2833,"iphew":2834,"Ġlongiing":2835,"Ġbasha":2836,"oram":2837,"Ġpynioh":2838,"Ġpyniasoh":2839,"pper":2840,"ĠBalang":2841,"DF":2842,"Ġjingthaw":2843,"wbih":2844,"Ġkrem":2845,"Ġpynhap":2846,"Ġpynkup":2847,"Ġnongrum":2848,"ĠÃ¯ak":2849,"Ġjinglut":2850,"Ġstation":2851,"langbrot":2852,"synei":2853,"Ġialap":2854,"ĠSa":2855,"adei":2856,"ucation":2857,";&":2858,"jukut":2859,"Ġmitar":2860,"ĠMo":2861,"thep":2862,"Ġz":2863,"eople":2864,"Ġtyrwa":2865,"ĠÃ¯arap":2866,"Ġharum":2867,"Ġphlim":2868,"pateng":2869,"Ġkaiphod":2870,"Ġnapoh":2871,",\"":2872,"Ġthngan":2873,"ktien":2874,"ĠDeputy":2875,"Ġjingpynkh":2876,"24":2877,"ĠSup":2878,"ĠTo":2879,"Ġnongwan":2880,"upang":2881,"Ġjin":2882,"Ġpost":2883,"ĠEd":2884,"Ġbymkhuid":2885,"ocrat":2886,"Ġkhet":2887,"Ġpolit":2888,"byter":2889,"lia":2890,"aitung":2891,"Ġbymjukut":2892,"Ġjingrakhe":2893,"Ġjinglait":2894,"ĠSchool":2895,"eon":2896,"yrshan":2897,"Ġnia":2898,"athan":2899,"ĠBab":2900,"Ġnongai":2901,"shiing":2902,"ĠDC":2903,"Ġsi":2904,"Ġshisnem":2905,"Ġlyngkhot":2906,"Katba":2907,"iversity":2908,"NAM":2909,"yllun":2910,"ocratic":2911,"Ġlaiphew":2912,"Ġjingshakri":2913,"Ġjingsumar":2914,"Ġkhadduh":2915,"co":2916,"tap":2917,"Ġkhynra":2918,"Ġjingkitkhlieh":2919,"ry":2920,"oll":2921,"Ġjingpule":2922,"Ġyouth":2923,"uwahati":2924,"laka":2925,"Ġsynn":2926,"ug":2927,"naba":2928,"aphriang":2929,"Ġlber":2930,"Ġec":2931,"Ġksuid":2932,"Ġjingsiew":2933,"Ġnongkhaii":2934,"ĠPynsh":2935,"jia":2936,"roi":2937,"elf":2938,"Ġ0":2939,"Ġsap":2940,"Ġnongpang":2941,"Ġtamasa":2942,"Ġtangba":2943,"Ġfr":2944,"Ġbadonbor":2945,"Ġpynkhih":2946,"LC":2947,"Ġniew":2948,"Ġpynkyntang":2949,"Ġwaitlam":2950,"mraw":2951,"ynsiem":2952,"ĠAssociation":2953,"Ġtri":2954,"Ġ100":2955,"kan":2956,"kjgp":2957,"Ġkyllon":2958,"Ġall":2959,"Ġmed":2960,"tt":2961,"Ġkhiew":2962,"ngap":2963,"hok":2964,"Ġsong":2965,"shisha":2966,"CC":2967,"Ġsolomon":2968,"ngat":2969,"Ġpynpoi":2970,"Ġmyntoi":2971,"Ġsmai":2972,"Ġjymmang":2973,"Ġaaron":2974,"Ġrupang":2975,"Ġriewspah":2976,"Ġisih":2977,"wang":2978,"ĠUnit":2979,"Ġjingbha":2980,"Ġther":2981,"Ġbasah":2982,"Ġkup":2983,"ĠDkhar":2984,"ĠParty":2985,"Ko":2986,"oiÃ±":2987,"ĠĠĠĠ":2988,"ven":2989,"Namar":2990,"radesh":2991,"Ġtlot":2992,"Ġjingkn":2993,"phna":2994,"edule":2995,"hab":2996,"alth":2997,"Ġjingman":2998,"Ġriang":2999,"ĠHe":3000,"Ġtuklar":3001,"Ġarta":3002,"ynnin":3003,"ostol":3004,"Ġkurim":3005,"Ġlyoh":3006,"ness":3007,"ĠWat":3008,"lung":3009,"riew":3010,"ĠDelhi":3011,"Ġstudent":3012,"ase":3013,"Ġsab":3014,"sai":3015,"ynei":3016,"well":3017,"ĠBlock":3018,"Ġakor":3019,"unic":3020,"sher":3021,"Ġjingis":3022,"khuh":3023,"Ġpynkiew":3024,"Ġline":3025,"ĠJowai":3026,"ĠKHNAM":3027,"Ġsuh":3028,"Ġlais":3029,"icen":3030,"Ġkiar":3031,"Ġmyllung":3032,"Ġnongkyrshan":3033,"Ġkynthoh":3034,"thiah":3035,"Shuh":3036,"ynjur":3037,"Ġhyc":3038,"kar":3039,"Ġpastor":3040,"Ġlamler":3041,"ĠMarak":3042,"Ġsymbud":3043,"Ġjingiatreilang":3044,"Ġpdf":3045,"Ġshyntur":3046,"Ġphira":3047,"Ġjingjot":3048,"Ġshemphang":3049,"Ġhynniewtrep":3050,"ember":3051,"met":3052,"Ġpynkhlain":3053,"Ġardent":3054,"rd":3055,"ject":3056,"ww":3057,"ĠAg":3058,"ĠBangladesh":3059,"ohsniew":3060,"ĠPro":3061,"Ġinter":3062,"chi":3063,"jamin":3064,"triem":3065,"Ġklas":3066,"Ġlyndet":3067,"Ġlawei":3068,"umkhrah":3069,"Ġjoseph":3070,"Ġkambah":3071,"Ġbamsap":3072,"ĠShylla":3073,"ĠConrad":3074,"Me":3075,"ts":3076,"dih":3077,"thong":3078,"ĠÃ¯aroh":3079,"ĠAn":3080,"ĠHospital":3081,"ck":3082,"mas":3083,"enshad":3084,"Ġshispah":3085,"ĠPres":3086,"Ġofficer":3087,"ood":3088,"ĠCircle":3089,"27":3090,"ose":3091,"ĠkhlaiÃ±":3092,"Ġmareh":3093,"Ġabraham":3094,"Ġsnieh":3095,"ĠSyn":3096,"kongor":3097,"ederation":3098,"Kh":3099,"kla":3100,"any":3101,"char":3102,"erin":3103,"isi":3104,"ĠKhong":3105,"aineh":3106,"Ã±iuh":3107,"GP":3108,"Ġshathie":3109,"beit":3110,"Ġni":3111,"dem":3112,"Ġbei":3113,"Ġkhap":3114,"Ġpahara":3115,"Ġkrad":3116,"endent":3117,"oot":3118,"Ġtura":3119,"Ġjingiaseng":3120,"Ġiadon":3121,"Ġnom":3122,"ĠKhun":3123,"khing":3124,"ĠCommissioner":3125,"Ġer":3126,"Ġlonging":3127,"Ġpynkhiah":3128,"8211":3129,"mut":3130,"Ym":3131,"Ġjinglehniam":3132,"Ġsocial":3133,"26":3134,"Ġsynduk":3135,"lak":3136,"ĠBaroh":3137,"orts":3138,"Ġlute":3139,"Ġsyntiew":3140,"Ġjingdum":3141,"so":3142,"Ġfkjgp":3143,"teh":3144,"Ġshongkha":3145,"Ġlyngkot":3146,"Ã¯ap":3147,"emb":3148,"ution":3149,"Ġpynkynriah":3150,"Ġmember":3151,"Da":3152,"jam":3153,"II":3154,"Ġrel":3155,"ĠCent":3156,"ĠRym":3157,"Ġkhoh":3158,"kah":3159,"ĠMynsiem":3160,"ĠHN":3161,"uta":3162,"Ñĸ":3163,"Ġkhleh":3164,"lib":3165,"bynta":3166,"land":3167,"Ġsymbai":3168,"ministr":3169,"ĠÃ¯ano":3170,"Ġmetiap":3171,"ld":3172,"Ġkylliang":3173,"Ġjingshem":3174,"Ġmanla":3175,"Ġ35":3176,"Ġtieng":3177,"ĠPolice":3178,"ranium":3179,"unicipal":3180,"Ġdonlang":3181,"eme":3182,"ĠIew":3183,"Ġjingpynshitom":3184,"Ġhat":3185,"Ġjingpyntrei":3186,"Ġtynsong":3187,"Ġsawphew":3188,"io":3189,"Ġhun":3190,"Ġwut":3191,"ĠLait":3192,"Ġkhreh":3193,"ĠPDF":3194,"ĠNiam":3195,"Ġjingmynjur":3196,"Baroh":3197,"sing":3198,"ngen":3199,"ynjuh":3200,"ĠBar":3201,"Ġpynjah":3202,"ural":3203,"ĠNongst":3204,"nap":3205,"ĠNorth":3206,"Ġmynder":3207,"wit":3208,"Ġjingpynjot":3209,"Ġdepartment":3210,"Ġnamarkata":3211,"ting":3212,"ĠCollege":3213,"ynniew":3214,"Ġshkor":3215,"Ġkada":3216,"Ġvice":3217,"elfare":3218,"Ġsngewtynn":3219,"Ġnohprah":3220,"ball":3221,"Ġjynjar":3222,"Ġjingbun":3223,"akob":3224,"Ġpetrol":3225,"Ġiba":3226,"waiÃ±":3227,"pyrshah":3228,"Ġpaitbah":3229,"28":3230,"Ġrnong":3231,"Ġautonomous":3232,"dr":3233,"skhem":3234,"Ġjhadc":3235,"embly":3236,"ĠRupang":3237,"Ġsarong":3238,"baniang":3239,"obile":3240,"Ġthik":3241,"mi":3242,"Ġphyr":3243,"Ġphut":3244,"Ġiahap":3245,"Ġpathar":3246,"Ġjingshong":3247,"Ġnongbylla":3248,"Ġdo":3249,"Hato":3250,"gre":3251,"khiew":3252,"byterian":3253,"Ġkotkhubor":3254,"Ġen":3255,"Ġjingiwbih":3256,"Ġkynthih":3257,"ej":3258,"Ġurlong":3259,"pang":3260,"Ġmus":3261,"Ġ2017":3262,"rinc":3263,"EC":3264,"Ġiong":3265,"ĠNongrum":3266,"Ġpri":3267,"Ġtbit":3268,"ĠNongstoiÃ±":3269,"Ġcorona":3270,"ĠSp":3271,"ĠArdent":3272,"Ġshil":3273,"erson":3274,"Ġphareng":3275,"wd":3276,"aÃ¯ah":3277,"ĠDei":3278,"Ġmei":3279,"kyrwat":3280,"Ġpatsha":3281,"Ġdevelopment":3282,"duma":3283,"Ġnongbishar":3284,"LP":3285,"ĠFor":3286,"Ġjot":3287,"Ġpung":3288,"Ġminister":3289,"ĠChairman":3290,"Ġsingh":3291,"ĠaÃ¯":3292,"Ġ197":3293,"Ġbujli":3294,"rop":3295,"Ġpuk":3296,"Ġktem":3297,"wer":3298,"ower":3299,"lyngngoh":3300,"ĠMaws":3301,"said":3302,"Ġitynnat":3303,"Ġkarta":3304,"ĠSaul":3305,"Ġsanphew":3306,"Ġrahbor":3307,"Halor":3308,"sit":3309,"Ġboard":3310,"ĠwaiÃ±":3311,"ospel":3312,"kawei":3313,"Ġcluster":3314,"baje":3315,"Ġpynkit":3316,"Ġpynmynsaw":3317,"Ġkhunlung":3318,"eri":3319,"entil":3320,"ces":3321,"ator":3322,"ĠPh":3323,"ĠJiw":3324,"Ġmawsh":3325,"Lah":3326,"Ġqu":3327,"Ġpynshlur":3328,"Ġrud":3329,"rincipal":3330,"bet":3331,"Ġuei":3332,"ecretar":3333,"tra":3334,"ony":3335,"ĠSamla":3336,"Ġbyrni":3337,"ĠBasa":3338,"ĠsohwaiÃ±":3339,"ĠDiengdoh":3340,"Ġphan":3341,"ĠJa":3342,"Ġiaiong":3343,"Ġkhyllung":3344,"SA":3345,"irang":3346,"oso":3347,"siew":3348,"Ġjoshua":3349,"Ġdivision":3350,"Kine":3351,"tok":3352,"Ġatiar":3353,"bal":3354,"Ġphilistia":3355,"Ġjaboh":3356,"ĠKatei":3357,"uwei":3358,"Ġkidei":3359,"otduma":3360,"Ba":3361,"Ġkyrhai":3362,"ach":3363,"oun":3364,"paid":3365,"Ġiaroh":3366,"Ġshar":3367,"line":3368,"Ġjingshim":3369,"Ġaw":3370,"Ġpynph":3371,"Ġpynngat":3372,"Ġpublic":3373,"erv":3374,"Ġpyrkhing":3375,"iing":3376,"Ġroy":3377,"hynnin":3378,"Ġnongleit":3379,"Ġrisaw":3380,"ĠJakob":3381,"Ġryng":3382,"Ìĥ,":3383,"Ġbabilonia":3384,"ĠSouth":3385,"Ġsuki":3386,"Ġapostol":3387,"Ġjingisynei":3388,"Ġjingsngewkhia":3389,"Ġbuddien":3390,"ooid":3391,"Ġshongthait":3392,"Ġbeth":3393,"oam":3394,"haduh":3395,"Ġthei":3396,"Ġjingkiew":3397,"illa":3398,"donburom":3399,"Ġeph":3400,"ecl":3401,"Ġpynsngewbha":3402,"40":3403,"bo":3404,"ga":3405,"itei":3406,"ĠSan":3407,"urlong":3408,"Ġshikat":3409,"Ġmiej":3410,"hit":3411,"Ġphla":3412,"Ġpynursla":3413,"Ġthyll":3414,"asseh":3415,"Ġjingbakla":3416,"bri":3417,"Ġpwd":3418,"Ġpyndam":3419,"Ġprojek":3420,"Ġshaba":3421,"Ġsher":3422,"ĠSec":3423,"Ġkhah":3424,"nda":3425,"Ġhek":3426,"Ġjingtreikam":3427,"Ġud":3428,"Ġisa":3429,"ÂłÂł":3430,"balei":3431,"Ġjingkhot":3432,"udui":3433,"shop":3434,"Ġtran":3435,"ĠLebi":3436,"ther":3437,"Ġparliament":3438,"Ġjingem":3439,"idi":3440,"adan":3441,"ĠKur":3442,"29":3443,"Ġlicen":3444,"hin":3445,"tine":3446,"ĠRam":3447,"Ġjingshitom":3448,"Ãıa":3449,"Ġnailur":3450,"kt":3451,"Ġieid":3452,"ontrak":3453,"ullai":3454,"Ġthiaw":3455,"Ġdork":3456,"inong":3457,"ĠLap":3458,"Ġ60":3459,"Ġjingkyrpad":3460,"Ġshisngi":3461,"Ġlumbah":3462,"yne":3463,"ula":3464,"ĠConstituency":3465,"Ġbasaiawmoit":3466,"not":3467,"inance":3468,"ĠPol":3469,"Ġmodi":3470,"ĠMin":3471,"Ġrymphang":3472,"Ġkajing":3473,"ĠSP":3474,"Ġnew":3475,"Ġjingit":3476,"seng":3477,"Ġ199":3478,"Ġbathymmai":3479,"Ġsoitan":3480,"ĠNgan":3481,"Ġmobile":3482,"stor":3483,"bishar":3484,"bat":3485,"Ġjon":3486,"Ġpliang":3487,"ĠOffic":3488,"ĠSingh":3489,"Ġmanag":3490,"ĠNongsynshar":3491,"ĠHynniew":3492,"oboam":3493,"ulture":3494,"Ġmala":3495,"Ġnailar":3496,"Ġsuda":3497,"ĠGo":3498,"Ġkynram":3499,"bapt":3500,"lakam":3501,"Ġcentre":3502,"Ġthylliej":3503,"Ġbos":3504,"Ġkhniang":3505,"Ġshon":3506,"ĠTura":3507,"YC":3508,"Ġkord":3509,"ames":3510,"Ġumsning":3511,"ĠJeh":3512,"ĠPr":3513,"Ġ32":3514,"be":3515,"ĠDirector":3516,"hem":3517,"wo":3518,"ganis":3519,"sal":3520,"8216":3521,"Pyn":3522,"sam":3523,"Ġkpoh":3524,"Ġpy":3525,"Ġsai":3526,"andhi":3527,"Ġhiarpateng":3528,"Ġpetros":3529,"Ġhnlc":3530,"PA":3531,"35":3532,"ĠCivil":3533,"ngaiÃ±":3534,"Ġsharak":3535,"Ġiewduh":3536,"Ġbainong":3537,"Ġcentral":3538,"Ġsiang":3539,"ĠNongpoh":3540,".\"":3541,"ele":3542,"ĠUnion":3543,"ĠPhar":3544,"ĠMi":3545,"Ġjud":3546,"ĠaÃ¯u":3547,":-":3548,"Ġjingmane":3549,"Ġrkhie":3550,"omin":3551,"Ġmynsngi":3552,"Ġjames":3553,"ho":3554,"yf":3555,"shew":3556,"Ġthap":3557,"Ġmeecl":3558,"Ġthait":3559,"ipaw":3560,"Ġkhlur":3561,"Ġsynniang":3562,"baptis":3563,"Ġnonglam":3564,"tic":3565,"gar":3566,"Ġeng":3567,"ublei":3568,"Ġnaiwieng":3569,"Ġmukotduma":3570,"Ġkontrak":3571,"Ġshaid":3572,"Ġbet":3573,"Ġshyieng":3574,"Ġbsf":3575,"ffai":3576,"Ġjoit":3577,"Ġcommission":3578,"36":3579,"pur":3580,"baton":3581,"Ġpas":3582,"Ġkoidi":3583,"ootball":3584,"gram":3585,"Ġjingtim":3586,"ĠLal":3587,"yrkhong":3588,"Ġraj":3589,"Ġpoint":3590,"Ġlaban":3591,"Ġhan":3592,"KJ":3593,"Ġblang":3594,"yndi":3595,"Ġhangtei":3596,"........":3597,"Ġpun":3598,"Ġhasem":3599,"Ġlieh":3600,"Ġtehlakam":3601,"Ġkhuslai":3602,"ĠRaid":3603,"ĠNongk":3604,"Ġdorkhas":3605,"ĠBasaiawmoit":3606,"Ġnaitung":3607,"Ġjingpeit":3608,"omen":3609,"ĠHato":3610,"Ġtharai":3611,"Ġmradkhlaw":3612,"Ġpynurlong":3613,"Ġcompany":3614,"lop":3615,"Ġshadien":3616,"ĠHukum":3617,"Ġlain":3618,"mane":3619,"Ġkynrum":3620,"Ġshait":3621,"Ġnongbud":3622,"ngin":3623,"Ġsniang":3624,"khlia":3625,"Ġpra":3626,"Ġrad":3627,"Ġjingpynshai":3628,"Ġjingtih":3629,"xi":3630,"hajar":3631,"awei":3632,"Ġjingsheptieng":3633,"Ġac":3634,"ino":3635,"Ġacc":3636,"Ġjongno":3637,"vern":3638,"per":3639,"ĠÃ¯ingjaiÃ±":3640,"vir":3641,"Ġiatreilang":3642,"Ġlamphang":3643,"yrngam":3644,"pliang":3645,"Ġhep":3646,"mary":3647,"Ġkliar":3648,"did":3649,"Ġĉ":3650,"Ġphatok":3651,"ody":3652,"itiz":3653,"ecretariat":3654,"Ġshikatdei":3655,"Ġisynei":3656,"Ġtak":3657,"Ġjingkhynra":3658,"ĠLang":3659,"Ġeli":3660,"Ġdrok":3661,"pei":3662,"Ġ45":3663,"Ġmda":3664,"Ġnep":3665,"shaniah":3666,"yntiew":3667,"Ġsyiar":3668,"illage":3669,"Ġarliang":3670,"ingjain":3671,"ash":3672,"Ġran":3673,"ĠPetr":3674,"Ġclub":3675,"Ġlehniam":3676,"ruh":3677,"Ġkandid":3678,"lass":3679,"Ġkhanglad":3680,"Ġjingbatai":3681,"Ġdaniel":3682,"ynnad":3683,"Ġlapang":3684,"areen":3685,"Ġsin":3686,"Ġcase":3687,"bru":3688,"Ġmission":3689,"Ġjngohkai":3690,"Ġpeople":3691,"Katei":3692,"Ġmul":3693,"ĠKpa":3694,"ĠHadien":3695,"Ġ37":3696,"Ġkyllalyngkot":3697,"Ġuranium":3698,"Ġtan":3699,"Ġnombar":3700,"Ġkamon":3701,"Ġjingjur":3702,"Ġnonglamktien":3703,"sc":3704,"Ġniah":3705,"Ġes":3706,"ĠYouth":3707,"jied":3708,"kynti":3709,"van":3710,"shyrkhei":3711,"Ġkm":3712,"lane":3713,"ĠsaiÃ±":3714,"jari":3715,"Ġjingaiei":3716,"med":3717,"Ġpom":3718,"Kumba":3719,"all":3720,"aidkam":3721,"use":3722,"Ġtour":3723,"Ġkolej":3724,"34":3725,"Ġshal":3726,"ĠÃ¯am":3727,"Ġtrad":3728,"bong":3729,"Ġitynnad":3730,"pah":3731,"ĠBakhuid":3732,"ĠYm":3733,"ĠâĢĻ":3734,"ieit":3735,"Ġdis":3736,"Ġbanse":3737,"Ġimat":3738,"bl":3739,"ech":3740,"jee":3741,"Ġkandidet":3742,"Ġjingiada":3743,"ĠKhlieh":3744,"Ġjingmaham":3745,"Ġkhunlangbrot":3746,"ear":3747,"Ġsamuel":3748,"pr":3749,"Ġmatlah":3750,"ple":3751,"ĠNamar":3752,"Ġiakhih":3753,"iance":3754,"Ġkper":3755,"Ġham":3756,"Ġshit":3757,"pong":3758,"Ġsbai":3759,"Ġpep":3760,"Ġshlur":3761,"pareen":3762,"Ġplan":3763,"kaÃ¯ah":3764,"ĠRoy":3765,"ald":3766,"Ġsecondary":3767,"KJGP":3768,"Ġ.":3769,"Ġmer":3770,"rep":3771,"ikor":3772,"Ġ33":3773,"ou":3774,"ĠKo":3775,"Ġrev":3776,"lom":3777,"Ġsut":3778,"oph":3779,"Ġshane":3780,"bilat":3781,"Ġiam":3782,"Ġshalan":3783,"ind":3784,"ĠAutonomous":3785,"Ġarea":3786,"edul":3787,"Ġkhyn":3788,"ĠJoseph":3789,"Ġbyn":3790,"ĠBen":3791,"ĠIsa":3792,"ffairs":3793,"ee":3794,"Ġhealth":3795,"Ġjordan":3796,"Ġpyng":3797,"Ġ36":3798,"ĠAl":3799,"koh":3800,"Ġjhur":3801,"ĠÃ¯ada":3802,"ĠJer":3803,"raim":3804,"bol":3805,"vi":3806,"Ġkumwei":3807,"shit":3808,"itizen":3809,"jir":3810,"yan":3811,"ĠHYC":3812,"Ġthala":3813,"Ġshngain":3814,"Ġhistor":3815,"Ġtala":3816,"ymman":3817,"ĠkheiÃ±":3818,"isabet":3819,"Ġsupreme":3820,"Ġkuna":3821,"ĠTe":3822,"Ġhaneng":3823,"ence":3824,"tific":3825,"ngar":3826,"ĠSngi":3827,"loi":3828,"ĠNo":3829,"ĠEM":3830,"Ġeducation":3831,"?\"":3832,"reen":3833,"khong":3834,"Ġjingphohsniew":3835,"erint":3836,"ngit":3837,"Ġringmraw":3838,"Ġjohn":3839,"NG":3840,"oping":3841,"ĠpynkheiÃ±":3842,"ĠkÃ±ia":3843,"kiwei":3844,"ohipaw":3845,"Ġwarjri":3846,"Ġkynriah":3847,"Ġ2021":3848,"//":3849,"jih":3850,"Ġupper":3851,"zoram":3852,"ĠKine":3853,"ngad":3854,"Ġjingshna":3855,"Ġlaisen":3856,"eduled":3857,"Ġdewbilat":3858,"Ġnongpyniaid":3859,"Ġit":3860,"Ġjingialeh":3861,"ĠAaron":3862,"bon":3863,"de":3864,"ipur":3865,"bnai":3866,"par":3867,"ttp":3868,"Ġshella":3869,"lein":3870,"45":3871,"cha":3872,"nah":3873,"Ġsyngk":3874,"ĠSolomon":3875,"phran":3876,"Ġ2012":3877,"indo":3878,"Ġthylli":3879,"Ġmoab":3880,"Ġlen":3881,"AC":3882,"Ġrynsan":3883,"fer":3884,"iria":3885,"Ġdemocratic":3886,"erintendent":3887,"ble":3888,"Ġjingshaniah":3889,"Ġind":3890,"://":3891,"ĠAs":3892,"Ġsahkut":3893,"Ġroad":3894,"kynthei":3895,"Ġgn":3896,"ĠEC":3897,"gn":3898,"ynÃ±iew":3899,"Sh":3900,"Ġtyll":3901,"rip":3902,"bneng":3903,"Ġpai":3904,"Ġuniversity":3905,"mukul":3906,"xth":3907,"Ġhyndai":3908,"Ġlymne":3909,"ĠTham":3910,"paidbah":3911,"jahar":3912,"brai":3913,"YF":3914,"ngim":3915,"Ġbaha":3916,"alang":3917,"Ġsuin":3918,"Ġpradesh":3919,"itor":3920,"vement":3921,"Ġsociety":3922,"Ġjingjah":3923,"nalor":3924,"ĠJu":3925,"Ġsad":3926,"kaei":3927,"Ġsahit":3928,"snem":3929,"Ġbol":3930,"kas":3931,"Ġscheme":3932,"ĠSe":3933,"Ġ198":3934,"tun":3935,"ĠJHADC":3936,"ĠJohn":3937,"ĠFKJGP":3938,"Ġcard":3939,"ylliang":3940,"kitei":3941,"ĠStudent":3942,"Ġho":3943,"ishot":3944,"Ġrisain":3945,"ĠPastor":3946,"ecial":3947,"Ġ34":3948,"shor":3949,"ĠILP":3950,"Ġmawsiang":3951,"31":3952,"Ġkn":3953,"pih":3954,"Ġjingthiah":3955,"ryng":3956,"Ġhttp":3957,"Ġpynst":3958,"itos":3959,"rei":3960,"ten":3961,"ĠSha":3962,"ĠKatkum":3963,"05":3964,"Ġunited":3965,"Î·":3966,"Ġge":3967,"ick":3968,"rist":3969,"ngor":3970,"Ġkyndong":3971,"akynduh":3972,"Ġjanai":3973,"Ġgospel":3974,"istrik":3975,"ymmei":3976,"WD":3977,"lyn":3978,"Ġguwahati":3979,"Ġjingnang":3980,"Ġejahar":3981,"ĠLaloo":3982,"otel":3983,"endment":3984,"ĠLah":3985,"Ġlicense":3986,"ĠNangta":3987,"Ġjinglah":3988,"ĠMat":3989,"Ġshiah":3990,"ĠModi":3991,"Ġmynno":3992,"Ġthohdieng":3993,"Shi":3994,"Ġjingpyni":3995,"ĠReg":3996,"Ġbo":3997,"Ġkana":3998,"Ġpynher":3999,"ĠAbraham":4000,"syndon":4001,"Ġjongngi":4002,"Ġhind":4003,"Ġdud":4004,"trik":4005,"AB":4006,"Ġhaiing":4007,"incent":4008,"akren":4009,"ĠjingÃ¯arap":4010,"ĠHNLC":4011,"ÌĦ":4012,"Ġrishot":4013,"Ġjingsawa":4014,"Ġak":4015,"kumno":4016,"Ġpynkhyllem":4017,"Ġpharshi":4018,"ms":4019,"Ġlakh":4020,"âĢĶ":4021,"Ġkuli":4022,"Ġmark":4023,"Ġstet":4024,"33":4025,"Ġnguh":4026,"Ġjingsdang":4027,"Ġmihkhmat":4028,"istant":4029,"vis":4030,"Ġwer":4031,"Ġelaka":4032,"com":4033,"Ġdalade":4034,"Ġtnum":4035,"ias":4036,"Ġngap":4037,"ĠKam":4038,"Ġrej":4039,"ryngk":4040,"Ġkordor":4041,"Ġmairang":4042,"Ġjingkam":4043,"Ġpynleit":4044,"Ġord":4045,"Ġsyndah":4046,"Ġjeho":4047,"gy":4048,"ĠJon":4049,"Ġturoi":4050,"Ġkhur":4051,"Bhoi":4052,"Ġdam":4053,"ĠSaw":4054,"Ġadelbert":4055,"ĠSynjuk":4056,"Ġshn":4057,"biang":4058,"Ġshajrong":4059,"Ġwain":4060,"Ġ70":4061,"ĠMU":4062,"ount":4063,"Ġhall":4064,"buk":4065,"Ġsn":4066,"Ġnongthep":4067,"Ġjingpynr":4068,"Ġpynslem":4069,"ĠLapang":4070,"thied":4071,"Ġiatai":4072,"Ġdrmukul":4073,"ery":4074,"Ġbakyntang":4075,"ĠAll":4076,"Ġsun":4077,"Ġnei":4078,"ute":4079,"yllai":4080,"aria":4081,"Ġron":4082,"NLA":4083,"Ġrymbai":4084,"naduh":4085,"Ġkop":4086,"ĠJames":4087,"Ġpui":4088,"lion":4089,"Ġmawsynram":4090,"buh":4091,"Ġkieng":4092,"Ġjingiaroh":4093,"Ġjingpyns":4094,"Ġstudents":4095,"reng":4096,"win":4097,"Ban":4098,"era":4099,"yndang":4100,"Ġmag":4101,"Ġvi":4102,"ump":4103,"khlad":4104,"ĠkeiÃ±":4105,"Ġjingpl":4106,"Ġpermit":4107,"Ġshaei":4108,"Ġlehkmen":4109,"/-":4110,"Ġrm":4111,"Ġshaphrang":4112,"ĠNongstoin":4113,"larem":4114,"Ġbhalang":4115,"tin":4116,"phri":4117,"Ġpynsuk":4118,"lumlang":4119,"ĠWarjri":4120,"sat":4121,"Ġshe":4122,"ĠPWD":4123,"olicy":4124,"ÍĤ":4125,"Ġiuh":4126,"Ġjingpynlong":4127,"Ġschedule":4128,"32":4129,"ca":4130,"Ġksai":4131,"Ġnongrit":4132,"ague":4133,"Ġnuti":4134,"48":4135,"ĠBoard":4136,"roup":4137,"60":4138,"Ġkynjah":4139,"ĠLaw":4140,"Ġkapor":4141,"Ġhaki":4142,"yriem":4143,"Ġpynsngewthuh":4144,"Ġrat":4145,"Ġpyntriem":4146,"Ġshisyndon":4147,"Ġsneng":4148,"Ġpyrda":4149,"Ġjingker":4150,"Ġdoctor":4151,"Ġthymmei":4152,"engal":4153,"Ġjinghiar":4154,"Ġjingpynkhreh":4155,"ĠPynshngaiÃ±":4156,"jait":4157,"va":4158,"ishon":4159,"Ġpyndait":4160,"amot":4161,"ĠSub":4162,"ĠNongs":4163,"Ġkyang":4164,"ĠMai":4165,"ĠjingkheiÃ±":4166,"ĠDevelopment":4167,"Ġpyntha":4168,"Ġryngk":4169,"Ġtyrkhong":4170,"ĠSim":4171,"yndit":4172,"Ġsports":4173,"ĠPynursla":4174,"Ġbenjamin":4175,"ĠSal":4176,"olog":4177,"Ġthungkam":4178,"Ġgnla":4179,"Ġpynthymmai":4180,"Ġmawlong":4181,"ĠWan":4182,"Ġjingdie":4183,"ken":4184,"Ġshongsuk":4185,"37":4186,"47":4187,"haar":4188,"own":4189,"Ġshan":4190,"ĠSait":4191,"ektrik":4192,"Ġlymda":4193,"istrate":4194,"Ġwith":4195,"Ġkyrduh":4196,"wain":4197,"Ġton":4198,"Ġshaneng":4199,"Ġkynj":4200,"ouse":4201,"Ġchi":4202,"lik":4203,"Ngam":4204,"Ġpohi":4205,"Ġpyndonburom":4206,"ĠMed":4207,"Ġbyndi":4208,"Ġaad":4209,"ĠÃ¯ohpdiang":4210,"ynda":4211,"Ġpynit":4212,"Ġjingtyrwa":4213,"ĠCommission":4214,"kylla":4215,"Ġwelfare":4216,"istry":4217,"ĠSoso":4218,"Ġkharshiing":4219,"Ġpynheh":4220,"ilead":4221,"Ai":4222,"oid":4223,"sain":4224,"Ġkub":4225,"Ġpynpait":4226,"Ġkilom":4227,"Ġjentil":4228,"Ġhus":4229,"Ġbran":4230,"Ġnongiathuh":4231,"Ġout":4232,"itizenship":4233,"Ġbsa":4234,"Ġfc":4235,"Ġdiengphna":4236,"stad":4237,"thad":4238,"hadness":4239,"hadnessar":4240,"Ġolib":4241,"ministration":4242,"Ġkanaan":4243,"Ġoh":4244,"ience":4245,"ben":4246,"irot":4247,"Ġkontraktor":4248,"thiang":4249,"ĠPat":4250,"Ġartatien":4251,"Ġnongialehkai":4252,"Ġ500":4253,"Balei":4254,"sang":4255,"Ġiasoh":4256,"ĠNar":4257,"ĠRang":4258,"ĠEn":4259,"Ġserv":4260,"ĠÃ¯akynduh":4261,"sport":4262,"ĠBadonbor":4263,"salom":4264,"di":4265,"ĠDem":4266,"Ġjingpyndonkam":4267,"Ġmawp":4268,"38":4269,"ml":4270,"iak":4271,"ynrad":4272,"Ġmuluk":4273,"ĠHam":4274,"Ġlumlang":4275,"Ġkhn":4276,"Ġjingiadon":4277,"Ġhill":4278,"Naba":4279,"sarong":4280,"ĠBabilonia":4281,"ĠMember":4282,"Ġjirang":4283,"Ġlab":4284,"ĠSi":4285,"ession":4286,"WO":4287,"obin":4288,"Ġnongkren":4289,"Dei":4290,"Ġkwai":4291,"Ġsos":4292,"Ġjingsngewthuh":4293,"illiam":4294,"loo":4295,"song":4296,"Ġjingpynmih":4297,"ander":4298,"Ġmunicipal":4299,"Ġpynjari":4300,"Ġdonkupar":4301,"Ġsohwain":4302,"Ġthuh":4303,"Ġsngewkhia":4304,"Ġjingdih":4305,"aiÃ±tia":4306,"Ġwahlang":4307,"ĠOfficer":4308,"Ġartad":4309,"Ġjingpynkylla":4310,"alap":4311,"ĠOr":4312,"Ġpolitik":4313,"ative":4314,"Ġcab":4315,"ens":4316,"uslai":4317,"Ġlynnong":4318,"swet":4319,"Ġproject":4320,"ĠRes":4321,"Ġrangbahduh":4322,"Ġmiat":4323,"ĠSab":4324,"Ġbymdei":4325,"Ġpynduna":4326,"Ġjingshngain":4327,"Ġtynjuh":4328,"ocess":4329,"Ġthuk":4330,"ĠVice":4331,"ĠPhilistia":4332,"Ġkawang":4333,"Ġjingkoit":4334,"Ġ38":4335,"Ġkdar":4336,"ditional":4337,"ulit":4338,"eter":4339,"Ġmawk":4340,"ĠGNLA":4341,"Ġjingshemphang":4342,"red":4343,"Ġbish":4344,"Ġnongleh":4345,"Ġshahshitom":4346,"Ġkhyllem":4347,"Ġkynd":4348,"ilding":4349,"Ġoffice":4350,"ĠPyr":4351,"Ġphiah":4352,"Ġpynthut":4353,"ĠRaj":4354,"sor":4355,"ĠHenshad":4356,"Ġ2011":4357,"Ġmait":4358,"Ġjingpynim":4359,"ĠÃ¯ingsyiem":4360,"Ġmutlop":4361,"Ġsyria":4362,"Ġdonbok":4363,"ynrut":4364,"race":4365,"Ġjingsah":4366,"Ġjinglaitluid":4367,"ide":4368,"Ġjingkulmar":4369,"tain":4370,"ĠÃ¯as":4371,"kem":4372,"phylla":4373,"Ġedom":4374,"vin":4375,"ĠMal":4376,"Ġjingiateh":4377,"ryngkneng":4378,"Ġnongkrem":4379,"Ġsngewtynnad":4380,"Ġpi":4381,"Ġryndang":4382,"Kaba":4383,"shen":4384,"Ġpolo":4385,"snam":4386,"Ġby":4387,"ĠBeth":4388,"Ġilekshon":4389,"ĠJoshua":4390,"HC":4391,"ĉčĊ":4392,"Ġ195":4393,"Ġseisoh":4394,"ĠDonkupar":4395,"jer":4396,"Ġpyrsa":4397,"Ġassyria":4398,"yllei":4399,"Ġpoim":4400,"ĠPa":4401,"kito":4402,"Ġprof":4403,"Ġpohiing":4404,"ekai":4405,"king":4406,"Ġshibnai":4407,"Ġsted":4408,"pynban":4409,"pyrthei":4410,"SS":4411,"ĠAR":4412,"âĢĻ.":4413,"yntieh":4414,"aland":4415,"ĠCentral":4416,"ĠÃ±":4417,"Ġjingkhlad":4418,"ĠÃıa":4419,"Ġradbah":4420,"duid":4421,"kajia":4422,"Ġgu":4423,"uthor":4424,"Ġkhoit":4425,"Ġprogram":4426,"elekh":4427,"sta":4428,"Ġpresbyterian":4429,"ĠMynta":4430,"Ġpaidlang":4431,"Ġengine":4432,"Ġpynjulor":4433,"ail":4434,"Ġcha":4435,"Ġjoint":4436,"Ġps":4437,"Ġprincipal":4438,"Ġnongthaw":4439,"rik":4440,"Ġmaramot":4441,"Ġkharkongor":4442,"ĠZ":4443,"ĠKyn":4444,"ĠHynÃ±iew":4445,"ĠPetros":4446,"pc":4447,"rung":4448,"net":4449,"Ġkhliehriat":4450,"Ġkubur":4451,"Ġbabun":4452,"osit":4453,"Ġrisk":4454,"Ġmawshun":4455,"Ġsawa":4456,"ron":4457,"Ġsngewsarong":4458,"Ġpyll":4459,"Ġbasniew":4460,"ĠTa":4461,"Ġmarbam":4462,"Ġkerkut":4463,"ĠJeho":4464,"ertific":4465,"ĠBS":4466,"ĠSupreme":4467,"Ġkumar":4468,"Ġthad":4469,"ĠAi":4470,"Ġjingdap":4471,"Ġwahduid":4472,"nep":4473,"ĠJaiÃ±tia":4474,"Ġummat":4475,"Ġriewkynthei":4476,"Ġpawnam":4477,"HU":4478,"rym":4479,"ĠAdelbert":4480,"Ġliangpyrshah":4481,"Ġ39":4482,"akma":4483,"ĠMawsynram":4484,"Ġpynwan":4485,"Ġshuti":4486,"trai":4487,"Uwei":4488,"Ġsaphriang":4489,"Ġkhring":4490,"Ġfa":4491,"ioh":4492,"Ġshla":4493,"Ġjingpyntreikam":4494,"Ġnongiathuhlypa":4495,"Ġphc":4496,"istar":4497,"Ġkhadar":4498,"Ġdonburom":4499,"Ġpala":4500,"Ġdistrik":4501,"eas":4502,"Ġkli":4503,"Ġkhuri":4504,"Ġjakhlia":4505,"Ġkulmar":4506,"Ġ1000":4507,"Ġsabha":4508,"Ġtreilang":4509,"Ġbuaid":4510,"43":4511,"mah":4512,"Ġjaiaw":4513,"Ġnongpeit":4514,"Ġlaloo":4515,"ateh":4516,"Ġsani":4517,"Ġjingjied":4518,"ĠKatba":4519,"Ġkthang":4520,"Ġmawphlang":4521,"Ġniut":4522,"Ġhistori":4523,"tive":4524,"Ġkob":4525,"Ġshadem":4526,"Ġphyrnai":4527,"Ġlahduh":4528,"Ġmanasseh":4529,"Ġmynhynnin":4530,"Ġsul":4531,"Ġpah":4532,"Ġmlien":4533,"Ġjingiakop":4534,"Ġmuda":4535,"Ġworking":4536,"Ġdri":4537,"Ġryntieh":4538,"thony":4539,"Ġdar":4540,"Ġengineer":4541,"ĠNew":4542,"Ġartylli":4543,"Ġsopti":4544,"Ġso":4545,"ley":4546,"Ġjingmynsaw":4547,"Ma":4548,"Ġjongphi":4549,"angnud":4550,"ules":4551,"Ġantad":4552,"way":4553,"ĠEm":4554,"Ġphutbol":4555,"Ġbap":4556,"Ġbashisha":4557,"out":4558,"Ġbaj":4559,"Ġtong":4560,"Ġcom":4561,"ĠPublic":4562,"Ġksew":4563,"Ġnongtuh":4564,"jaw":4565,"day":4566,"Ġjingpynd":4567,"ĠKharshiing":4568,"Ġnehu":4569,"ĠPrestone":4570,"Ġah":4571,"Ġarpa":4572,"istor":4573,"Ġ80":4574,"Ġamendment":4575,"khawai":4576,"Ġjinghap":4577,"Ġmarbaniang":4578,"Ġlabour":4579,"ST":4580,"td":4581,"Ġiashong":4582,"ĠKynrad":4583,"Ġelisha":4584,"Ġjingpyrshang":4585,"ĠUmsning":4586,"yrngiew":4587,"ĠParliament":4588,"fa":4589,"tes":4590,"Ġtyngk":4591,"Ġshlei":4592,"ĠSociety":4593,"ukhi":4594,"Ġmawhati":4595,"Ġaccount":4596,"DO":4597,"Ġriat":4598,"Ġshata":4599,"ĠLber":4600,"ktiar":4601,"bur":4602,"ynna":4603,"ited":4604,"ale":4605,"yllon":4606,"Ġbus":4607,"ris":4608,"bari":4609,"urse":4610,"Ġhajir":4611,"Ġmynn":4612,"ĠTha":4613,"Ġsamaria":4614,"ĠjaiÃ±kup":4615,"suin":4616,"rope":4617,"Ġiapher":4618,"Ġjingshlur":4619,"Ġjingmihpat":4620,"Ġjingktah":4621,"Ġumroi":4622,"Ġfootball":4623,"Ġpynjlan":4624,"39":4625,"chal":4626,"Ġassembly":4627,"stitute":4628,"Ġjingshlei":4629,"lu":4630,"tyng":4631,"Ġmawkyrwat":4632,"Ġjingtieng":4633,"Ġbadon":4634,"lehrain":4635,"ĠMUDA":4636,"thang":4637,"Ġshilliang":4638,"Ġpynmihpat":4639,"division":4640,"Ġhano":4641,"Ġti":4642,"Ġiktiar":4643,"Ġnongthymmai":4644,"Ġlongbriew":4645,"ymp":4646,"dep":4647,"myntoi":4648,"Ġpalei":4649,"Ġjusti":4650,"Ġpynsakma":4651,"Ġquar":4652,"ĠNongkrem":4653,"moh":4654,"tation":4655,"khlem":4656,"Ġbarit":4657,"Ġ48":4658,"ĠARPA":4659,"TI":4660,"Un":4661,"sy":4662,"Ġsyrngiew":4663,"Ġtb":4664,"Ġphuh":4665,"ĠDepartment":4666,"ĠKar":4667,"Ġumiam":4668,"ĠKashari":4669,"PC":4670,"Ġhotel":4671,"Ġmarwein":4672,"Ġdpei":4673,"Ġnadong":4674,"Ġcs":4675,"ĠLad":4676,"ĠPynshngain":4677,"Ġkynsai":4678,"Ġbniat":4679,"phin":4680,"ertificate":4681,"Nalor":4682,"Ġdi":4683,"Ġstieh":4684,"itara":4685,"he":4686,"Ġjingangnud":4687,"ĠNoh":4688,"Ġjingkynthoh":4689,"Ġjingdeng":4690,"ction":4691,"Ġsot":4692,"Ġsalia":4693,"Ġtlang":4694,"edar":4695,"Ġhnyf":4696,"Ġiar":4697,"Ġthwet":4698,"Ġkynton":4699,"that":4700,"vernment":4701,"Ġdhar":4702,"ĠbeiÃ±":4703,"Ġjingpynkhuid":4704,"ĠRymbai":4705,"Ġdeng":4706,"ohpdiang":4707,"nel":4708,"khaid":4709,"Ġmawthoh":4710,"ĠLaban":4711,"Ġjoab":4712,"bin":4713,"Ġhaei":4714,"Ġrip":4715,"ngiah":4716,"Ġialang":4717,"Ġsob":4718,"the":4719,"ĠMih":4720,"Ġmihpat":4721,"aster":4722,"uben":4723,"Ġisaak":4724,"Ġjinglam":4725,"Ġbih":4726,"ĠMuk":4727,"ru":4728,"Ġlakam":4729,"Ġjingot":4730,"onia":4731,"ĠJordan":4732,"Ġribhoi":4733,"Ġrani":4734,"umai":4735,"Ġaiom":4736,"ĠEli":4737,"Ġsting":4738,"Ġsabbaton":4739,"Ġsuloi":4740,"49":4741,"national":4742,"Ġjob":4743,"ĠHek":4744,"Kin":4745,"Myn":4746,"Ġnadien":4747,"ĠNG":4748,"Ġpynksan":4749,"Ġparliamentary":4750,"Ġsiej":4751,"Ġkitkhlieh":4752,"Kawei":4753,"Ġdus":4754,"Ġwing":4755,"urity":4756,"ĠSamuel":4757,"hiar":4758,"hath":4759,"Ġjyrngam":4760,"Ġpynbaptis":4761,"them":4762,"ĠBalei":4763,"ĠWork":4764,"ulation":4765,"kos":4766,"alum":4767,"Ġjyr":4768,"Ġishu":4769,"Ġpynlip":4770,"Ġwanphai":4771,"Ġjingkynmaw":4772,"Ġshongdor":4773,"sur":4774,"ĠTri":4775,"Ġnarendra":4776,"Ġmudui":4777,"Ġkhyll":4778,"angne":4779,"shap":4780,"ĠUpper":4781,"spung":4782,"ĠShella":4783,"DR":4784,"Ġsboh":4785,"Ġiaw":4786,"Ġbabilon":4787,"Ġpolicy":4788,"Ġnaphang":4789,"ĠShang":4790,"Ġbyrnihat":4791,"ĠHynniewtrep":4792,"dy":4793,"kular":4794,"para":4795,"Ġkynjri":4796,"Ġfederation":4797,"ĠSecondary":4798,"utei":4799,"Ġcan":4800,"raph":4801,"Ġkajih":4802,"mend":4803,"Ġsahteng":4804,"Ynda":4805,"ĠKyr":4806,"Ġca":4807,"irdar":4808,"Ġbabu":4809,"Ġpm":4810,"Ġhome":4811,"sngewthuh":4812,"Ġpharisi":4813,"ĠRev":4814,"ĠBank":4815,"lub":4816,"Ġtyllai":4817,"kir":4818,"AI":4819,"cel":4820,"Ġpynap":4821,"Ġngt":4822,"Ġshullai":4823,"Ġnongsha":4824,"Ġorganis":4825,"SE":4826,"Ġsection":4827,"ynnat":4828,"ĠKaba":4829,"jay":4830,"ECL":4831,"gal":4832,"Ġmedia":4833,"Ġtah":4834,"Ġbanyngkong":4835,"Ġshadong":4836,"Ġfir":4837,"orld":4838,"Ġshawei":4839,"Ġhenshad":4840,"Kiba":4841,"Ġpyntngit":4842,"Ġkhep":4843,"Ġshin":4844,"lir":4845,"Ġresult":4846,"Ġsobjek":4847,"arta":4848,"Ġijli":4849,"ĠMadan":4850,"Ġthrang":4851,"Ġprimary":4852,"Ġjingiapher":4853,"ĠJud":4854,"poration":4855,"viron":4856,"Ġjes":4857,"ore":4858,"une":4859,"ĠDivision":4860,"66":4861,"Ġje":4862,"ism":4863,"Ġjingkhiah":4864,"Ġ:":4865,"Ġbody":4866,"ito":4867,"Ġdusmon":4868,"Ġmil":4869,"arong":4870,"Ġsanbor":4871,"Ġtemple":4872,"Ġchar":4873,"ĠBas":4874,"Ġarti":4875,"ĠRong":4876,"Ġskulbah":4877,"iur":4878,"Ġhura":4879,"imited":4880,"Ġmashin":4881,"Ġmalu":4882,"Ġjingjurip":4883,"Ġtrading":4884,"Ġjos":4885,"ant":4886,"Ġhigher":4887,"rie":4888,"sel":4889,"Ġjumai":4890,"Ġmb":4891,"khap":4892,"mation":4893,"Ġlanot":4894,"saÃ¯ah":4895,"Ġapp":4896,"Ġkolshor":4897,"Ġhead":4898,"Ġlinen":4899,"Tang":4900,"Ġpei":4901,"Ġreng":4902,"Ġrom":4903,"Ġphainal":4904,"Ġborder":4905,"Ġ42":4906,"Ġthapniang":4907,"Ġripod":4908,"ngiang":4909,"pohliew":4910,"Ġliengsuin":4911,"Ġsnoh":4912,"ĠLok":4913,"nament":4914,"ound":4915,"Ġkhunswet":4916,"Ġjingkyrduh":4917,"Ġjerem":4918,"ĠDaniel":4919,"Ġsyiemlieh":4920,"Ġjinglehrain":4921,"buit":4922,"Ġrobert":4923,"Ġsw":4924,"katto":4925,"Ġkba":4926,"Ġjinglap":4927,"Ġshihajar":4928,"...":4929,"kordor":4930,"MS":4931,"pha":4932,"Ġjingthew":4933,"ĠEph":4934,"Ġmagistrate":4935,"Ġup":4936,"Ġpyllun":4937,"raishan":4938,"ĠJingkhawai":4939,"ĠÃıing":4940,"Ġregister":4941,"ngiew":4942,"ero":4943,"ĠTynsong":4944,"Ġkitbok":4945,"ĠRis":4946,"44":4947,"Ġskum":4948,"ft":4949,"uno":4950,"ĠSc":4951,"borlang":4952,"ĠÃ¯apom":4953,"ustom":4954,"Ġclass":4955,"asoh":4956,"Ġaffairs":4957,"Ġilektrik":4958,"ĠÃ¯aineh":4959,";.":4960,"Ġdan":4961,"Ġtduh":4962,"Ġwomen":4963,"Ġjingsam":4964,"katno":4965,"ĠStation":4966,"ĠManag":4967,"Ġsecretariat":4968,"Ġpap":4969,"sngewbha":4970,"ĠMoab":4971,"Ġkiban":4972,"Ġahab":4973,"athiah":4974,"ĠSchedule":4975,"shaphat":4976,"dew":4977,"ex":4978,"post":4979,"ĠSocial":4980,"ĠClub":4981,"eba":4982,"krang":4983,"Ġarspah":4984,"ĠEx":4985,"Ġdiengduh":4986,"ĠPri":4987,"nagar":4988,"lance":4989,"thut":4990,"Ġbhabriew":4991,"Ġjingheh":4992,"Ġjingwad":4993,"Ġsharum":4994,"Ġjingjulor":4995,"Ġchyne":4996,"Ġpukri":4997,"Ġmyr":4998,"Ġrngai":4999,"ĠshÃ±iuh":5000,"ĠKA":5001,"Ġamit":5002,"khoi":5003,"spector":5004,"bron":5005,"Ġjingkhuid":5006,"Ġmizoram":5007,"oy":5008,"ĠÃ¯adei":5009,"thma":5010,"ulong":5011,"ĠCS":5012,"Ġ44":5013,"unachal":5014,"Ġjingriam":5015,"ender":5016,"ĠKharkongor":5017,"formation":5018,"ĠWahlang":5019,"Ġpump":5020,"Ġjingshad":5021,"Ġmynshem":5022,"Ġdurkhmat":5023,"adon":5024,"ĠRan":5025,"Ġkhrong":5026,"lyngdoh":5027,"napara":5028,"ĠDemocratic":5029,"KH":5030,"esti":5031,"Ġdawki":5032,"ĠFr":5033,"vt":5034,"Ġx":5035,"Ġsm":5036,"Ġphria":5037,"Ġjingkynshew":5038,"Ġheprit":5039,"jh":5040,"lukhi":5041,"Ġskim":5042,"Ġpyneh":5043,"yllip":5044,"Ġumdih":5045,"bani":5046,"ĠFC":5047,"Ġ90":5048,"shoh":5049,"ĠInd":5050,"Ġnongsiej":5051,"42":5052,"Sha":5053,"Ġsieh":5054,"Ġkhan":5055,"ĠBi":5056,"thadraishan":5057,"Ġrisa":5058,"tice":5059,"Ġjingkynt":5060,"Ã¯i":5061,"Ġshaw":5062,"Ġotsher":5063,"ĠThom":5064,"shillong":5065,"Ġjingkhraw":5066,"Ġmarkhmat":5067,"Ġthawain":5068,"ĠMeECL":5069,"aiah":5070,"Ġphom":5071,"Ġgandhi":5072,"Ġgroup":5073,"Ġ2009":5074,"Ġpynthor":5075,"Ġawria":5076,"ĠjingÑĸ":5077,"ĠSC":5078,"Ġpynbitar":5079,"ĠAssembly":5080,"heng":5081,"kohnguh":5082,"Ġjab":5083,"ĠThang":5084,"Ġresol":5085,"ĠElection":5086,"Ġzone":5087,"Ġongu":5088,"Ìĥ.":5089,"Ġvillage":5090,"ĠJutang":5091,"Ġhese":5092,"ĠSu":5093,"ĠTam":5094,"akor":5095,"ineh":5096,"Ġforest":5097,"sad":5098,"ingsyiem":5099,"shet":5100,"ĠComp":5101,"Ġriewstad":5102,"Ġpyut":5103,"Ġkynjoh":5104,"Don":5105,"itting":5106,"shain":5107,"ĠAp":5108,"ĠRai":5109,"Ġvir":5110,"Ġsainar":5111,"Ġpynhun":5112,"unity":5113,"Ġjingkut":5114,"ĠGuwahati":5115,"Ġriewngeit":5116,"Ġlaitumkhrah":5117,"rea":5118,"ĠLajong":5119,"uman":5120,"kho":5121,"ultural":5122,"ĠÃ¯alumlang":5123,"ina":5124,"Ġsengkmie":5125,"Ġjingpynpaw":5126,"lynnong":5127,"Ġkj":5128,"Ġtdem":5129,"oni":5130,"Ġthiat":5131,"tre":5132,"Ġjingsngewbha":5133,"ĠÃ¯akren":5134,"Ġephraim":5135,"ĠPolo":5136,"tyr":5137,"Ġsl":5138,"Ġhdr":5139,"ĠJymmang":5140,"kiew":5141,"Ġbaneh":5142,"Ġhs":5143,"kher":5144,"Ġcr":5145,"apom":5146,"ngab":5147,"Ġsohiong":5148,"ply":5149,"ĠRobert":5150,"65":5151,"narphna":5152,"lish":5153,"Ġposit":5154,"ĠLai":5155,"Ġ75":5156,"Ġsuperintendent":5157,"Ġfront":5158,"Ġrmiang":5159,"ĠNGT":5160,"go":5161,"uber":5162,"Ġumpohliew":5163,"Kaei":5164,"Ġpaka":5165,"ĠNEHU":5166,"ĠMairang":5167,"beh":5168,"Ġnohphai":5169,"Ġtynrah":5170,"Ġforum":5171,"Ġelijah":5172,"Ġsienjam":5173,"Ġcement":5174,"ĠMot":5175,"Ġjingplie":5176,"Ġtrep":5177,"ĠTang":5178,"old":5179,"Ġbaibl":5180,"Ġshangpliang":5181,"Ġpynsniew":5182,"Ġsynod":5183,"Ġjingkhublei":5184,"niuh":5185,"Ġnongpop":5186,"oitri":5187,"Ġkput":5188,"Ġjingud":5189,"shlur":5190,"Ġjamin":5191,"Ġkupar":5192,"Ġphyrngab":5193,"ĠBSF":5194,"Kitei":5195,"sorkar":5196,"Ġsosp":5197,"tab":5198,"thngan":5199,"Ngin":5200,"Ġampareen":5201,"Ġsympat":5202,"Ġhanm":5203,"nie":5204,"Ġday":5205,"ĠMission":5206,"ĠPala":5207,"Ġbunkam":5208,"ĠNailar":5209,"Ġsharud":5210,"rup":5211,"Ġonline":5212,"ĠUnited":5213,"wiang":5214,"ohkynti":5215,"len":5216,"ĠBri":5217,"Ġjyn":5218,"Ġ2010":5219,"Ġktieh":5220,"Ġpynjahburom":5221,"Ġjingpynslem":5222,"Ġpynmong":5223,"www":5224,"ĠIewduh":5225,"Ġssa":5226,"Ġjingialap":5227,"Ġpynsleh":5228,"jylla":5229,"Ġjyll":5230,"ĠÃ¯alap":5231,"ĠMarbaniang":5232,"uct":5233,"Ġjyrwa":5234,"ise":5235,"ĠKylla":5236,"Ġghadc":5237,"Ġmaha":5238,"âĢĻ,":5239,"Ġih":5240,"Ġnongjop":5241,"teidor":5242,"Ġriewpaidbah":5243,"Ġpeitngor":5244,"Ġpyntbit":5245,"ĠNohprah":5246,"jab":5247,"klur":5248,"aiong":5249,"khnang":5250,"yntathiang":5251,"ĠEducation":5252,"ĠStudents":5253,"Ġjustice":5254,"sk":5255,"Ã±iang":5256,"Ġsynreit":5257,"Ġcswo":5258,"Ġvirus":5259,"hu":5260,"ideon":5261,"phong":5262,"Ġpohing":5263,"ĠPeople":5264,"Ġagnes":5265,"gra":5266,"vc":5267,"Ġkner":5268,"ama":5269,"ĠSordar":5270,"Ġbymmyntoi":5271,"Ġstar":5272,"ĠKumba":5273,"sot":5274,"yrpang":5275,"charge":5276,"Ġ2000":5277,"Ġmawkhar":5278,"Ġeastern":5279,"Ġsngewtynnat":5280,"AN":5281,"ĠPulit":5282,"ac":5283,"Ġnet":5284,"Ġphara":5285,"Ġjingbymman":5286,"ĠShuh":5287,"ĠSabha":5288,"ugh":5289,"Ġnongkhlaw":5290,"Ġkumto":5291,"khiang":5292,"Ġkyllum":5293,"ela":5294,"Ġkijuh":5295,"Ġpyllong":5296,"ĠLuk":5297,"jaka":5298,"Ġplasti":5299,"uthority":5300,"ÑĹ":5301,"Ġtitos":5302,"trhem":5303,"Ġjonathan":5304,"Ġhusiar":5305,"SC":5306,"Ġiajan":5307,"mare":5308,"Ġsohp":5309,"ĠjingkhlaiÃ±":5310,"Ġscheduled":5311,"yllipmat":5312,"tikna":5313,"iden":5314,"ĠHalor":5315,"ĠJylliew":5316,"ĠMawthoh":5317,"RD":5318,"ukor":5319,"haios":5320,"Ġspecial":5321,"Ġangnud":5322,"age":5323,"Ġkhim":5324,"aishah":5325,"Ġpynbam":5326,"ĠKs":5327,"trol":5328,"ĠMawphlang":5329,"Ġhynriewphew":5330,"ĠBenjamin":5331,"bym":5332,"ĠPradesh":5333,"ĠUniversity":5334,"Ġmedical":5335,"Ġpharaoh":5336,"ĠMunicipal":5337,"Ġparamar":5338,"Ġsuit":5339,"ĠProf":5340,"Ġhindu":5341,"Ġparamarjan":5342,"Ġbna":5343,"Ġshiphang":5344,"Ġjingthut":5345,"ual":5346,"Ġbaal":5347,"Ġ41":5348,"41":5349,"mp":5350,"tact":5351,"asam":5352,"Ġlight":5353,"Ġpyntieng":5354,"ĠTran":5355,"Ġjingpyllait":5356,"Ġjingsarong":5357,"ĠMihngi":5358,"atha":5359,"Ġmana":5360,"ĠMawkyrwat":5361,"Ġnongrwai":5362,"Ġsoskular":5363,"Ġlyngraw":5364,"Ġjingpyniaid":5365,"Ġinner":5366,"Ġsynrop":5367,"shaid":5368,"apher":5369,"dge":5370,"iarap":5371,"Ġfe":5372,"Ġmovement":5373,"ĠJaiaw":5374,"Sa":5375,"Ġshahjop":5376,"Ġalliance":5377,"Ġsik":5378,"Ġnaki":5379,"ĠSym":5380,"Ġbrai":5381,"ĠPer":5382,"Ġsngewlem":5383,"ĠMawk":5384,"Ġmotphran":5385,"olloi":5386,"wel":5387,"Ġjulor":5388,"Ġrap":5389,"phoh":5390,"Ġmak":5391,"Ġ47":5392,"ĠpynÃ¯eng":5393,"Ġjingpynbeit":5394,"Ġsixth":5395,"ĠKhliehriat":5396,"Ġkhmut":5397,"ĠKitei":5398,"nolo":5399,"Ġprobin":5400,"Ġjingtem":5401,"linia":5402,"Ġeriong":5403,"ĠSun":5404,"Ġphe":5405,"ordekai":5406,"Ġacting":5407,"Ġmanager":5408,"OC":5409,"Ġsniehdoh":5410,"artatien":5411,"46":5412,"jok":5413,"ĠShad":5414,"ĠPur":5415,"ĠAN":5416,"Ġmuslim":5417,"RI":5418,"Ġbaduk":5419,"ĠLong":5420,"Ġdulir":5421,"Ġnongiasaid":5422,"Ġsakma":5423,"Ġtin":5424,"ocal":5425,"Ġjingkhlain":5426,"Ġthangkhiew":5427,"Ġlevel":5428,"gen":5429,"Ġpynlwet":5430,"hapoh":5431,"Ġjn":5432,"Ġpoitri":5433,"arieh":5434,"Ġmanipur":5435,"Ġteach":5436,"ĠPresbyterian":5437,"useta":5438,"Ġorder":5439,"ĠÃıingjaiÃ±":5440,"Ġlo":5441,"umer":5442,"yllah":5443,"ĠNalor":5444,"mal":5445,"Ġlatip":5446,"Ġrti":5447,"ĠGandhi":5448,"Ġpynjop":5449,"Ġjingtbit":5450,"Ġduitara":5451,"Ġsian":5452,"Ġsngewnguh":5453,"Ġjingduk":5454,"pyrkhat":5455,"Ġjingpynrung":5456,"sng":5457,"ĠKumar":5458,"ĠHill":5459,"Ġindian":5460,"Ġpyndik":5461,"Ġammon":5462,"Ġkhohsiew":5463,"ita":5464,"Ġngon":5465,"Ġdaka":5466,"Ġpynsted":5467,"ialam":5468,"Ġland":5469,"Ġpyntikna":5470,"Ġoid":5471,"ĠjingÃ¯as":5472,"ĠKana":5473,"Ġmutdur":5474,"ĠNgam":5475,"ĠOlib":5476,"Ġjingbuhbeit":5477,"ĠKol":5478,"Ġjingjrong":5479,"alumlang":5480,"vironment":5481,"kun":5482,"val":5483,"Ġut":5484,"ĠNongsiej":5485,"shngain":5486,"phet":5487,"cher":5488,"ĠMinister":5489,"puri":5490,"Ġkthong":5491,"Ġbengal":5492,"Ġlongsem":5493,"Ġwoh":5494,"Ġjingsuba":5495,"Ġ300":5496,"Ġmeter":5497,"Ġassistant":5498,"ĠSohiong":5499,"Ġneig":5500,"usi":5501,"za":5502,"Ġjingsngewnguh":5503,"Ġamlarem":5504,"ĠElisabet":5505,"90":5506,"Ġnongrah":5507,"Ġhouse":5508,"pyni":5509,"Ġtaxi":5510,"ĠCentre":5511,"mendment":5512,"ĠPha":5513,"ĠjingÃ¯ohipaw":5514,".âĢĻ":5515,"Ġken":5516,"Ġnujor":5517,"Ġkhlei":5518,"Ġmanbha":5519,"chiang":5520,"Ġkalong":5521,"Ġhor":5522,"pati":5523,"tuh":5524,"ĠÃ¯oannis":5525,"Ġsngur":5526,"than":5527,"ĠMawlong":5528,"Ngim":5529,"Ġiasaid":5530,"70":5531,"port":5532,"Ġpu":5533,"Ġtaw":5534,"bunal":5535,"ĠFederation":5536,"Ġjakarieh":5537,"ĠNailur":5538,"ÂłÂłÂłÂł":5539,"sbun":5540,"Ġnala":5541,"Ġcamp":5542,"Ġ108":5543,"Ġservice":5544,"Ġlung":5545,"Ġphikir":5546,"Ġgad":5547,"Ġwater":5548,"Ġbuilding":5549,"ĠCSWO":5550,"Ġdd":5551,"yrnai":5552,"ĠSyria":5553,"Ġnohsngi":5554,"Ġrilum":5555,"Ġpyntngen":5556,"Ġranikor":5557,"Ġsospon":5558,"AT":5559,"bir":5560,"Ġpal":5561,"iewspah":5562,"Ġcitizenship":5563,"ĠElaka":5564,"Ġdujok":5565,"areth":5566,"ĠEdom":5567,"my":5568,"ĠÃ¯aleit":5569,"ĠKonstitwensi":5570,"VC":5571,"apung":5572,"ĠHall":5573,"Ġshongsain":5574,"ĠMus":5575,"Ġjac":5576,"Ġjingpan":5577,"ĠâĢŁ":5578,"Ġkynthah":5579,"ĠKanaan":5580,"Ġdung":5581,"Ġmid":5582,"Ġrec":5583,"Ġkynran":5584,"Ġbahaing":5585,"fe":5586,"erub":5587,"ĠHDR":5588,"Ġsaian":5589,"Ġmarngar":5590,"Ġmata":5591,"iawbhalang":5592,"Ġcontact":5593,"Ġministry":5594,"ĠAgnes":5595,"Ġdavid":5596,"Ġnongkh":5597,"ĠArea":5598,"SO":5599,"gis":5600,"Ġthabah":5601,"lehem":5602,"Ġgilead":5603,"Ġjingdonlang":5604,"ward":5605,"ition":5606,"ynrew":5607,"ĠShullai":5608,"onstitution":5609,"ĠNaiwieng":5610,"bukhadnessar":5611,"Ġsein":5612,"Ġbindo":5613,"Ġpynbud":5614,"Ġraij":5615,"!\"":5616,"Naduh":5617,"iut":5618,"Ġjyllau":5619,"aining":5620,"Kiwei":5621,"Ġkompani":5622,"Ġmpcc":5623,"ology":5624,"Ġnongsharai":5625,"01":5626,"ĠSynd":5627,"Ġshongshit":5628,"Ġsahnarphna":5629,"Ġsawkmie":5630,"ĠWelfare":5631,"BI":5632,"NE":5633,"wal":5634,"ĠJyrwa":5635,"Ġ196":5636,"Kumno":5637,"enior":5638,"Ġtrans":5639,"dal":5640,"pion":5641,"Ġshun":5642,"Ġshap":5643,"ami":5644,"ĠJAC":5645,"Ġnebukhadnessar":5646,"Ġabsalom":5647,"Ġtyllep":5648,"mir":5649,"Ġjingpa":5650,"Ġmluh":5651,"Ġborbah":5652,"lal":5653,"anai":5654,"Ġnangno":5655,"Ġpyllaitluid":5656,"Pynban":5657,"ful":5658,"Ġputa":5659,"Ġbdo":5660,"Ġpain":5661,"Ġwa":5662,"ĠJus":5663,"ĠNaitung":5664,"Ġtax":5665,"Ġshaka":5666,"ĠIaiong":5667,"hangta":5668,"bui":5669,"Ġtikna":5670,"byf":5671,"book":5672,"Haduh":5673,"Ġklim":5674,"Ġkynshew":5675,"ĠDoh":5676,"Ġ43":5677,"Ġ55":5678,"lyngba":5679,"ĠRoad":5680,"ny":5681,"wn":5682,"Ġsnep":5683,"Ġtoh":5684,"neer":5685,"ĠDis":5686,"ĠMawkhar":5687,"Ġkhongpong":5688,"Ġfrom":5689,"Ġnongthied":5690,"Ġtransport":5691,"mur":5692,"Ġknia":5693,"Ġpatiaw":5694,"Ġ49":5695,"reat":5696,"dorbar":5697,"75":5698,"Ġkon":5699,"Ġlit":5700,"ory":5701,"Ġpynbit":5702,"ĠVi":5703,"ĠInter":5704,"Ġjuti":5705,"Ġdain":5706,"Ġair":5707,"ĠJob":5708,"ĠNag":5709,"ĠDur":5710,"Ġgali":5711,"Ġjingjngai":5712,"ĠUmroi":5713,"Ġprobins":5714,"Ġsaid":5715,"Ġmic":5716,"Ġpynlang":5717,"Ġpynwit":5718,"umbai":5719,"ĠpynÃ¯aidkam":5720,"ĠNarendra":5721,"ĠSynduk":5722,"Ġniang":5723,"Ġber":5724,"Ġnongm":5725,"Ġcertificate":5726,"Ġvincent":5727,"Ġbynshet":5728,"ĠSalm":5729,"bak":5730,"Ġtech":5731,"Ġrben":5732,"Ġnag":5733,"Ġbatbor":5734,"ners":5735,"agog":5736,"Ġtika":5737,"siang":5738,"Ġpo":5739,"Ġnon":5740,"Ġiso":5741,"Ġlitar":5742,"ĠLi":5743,"Ġkhum":5744,"Ġhoping":5745,"Ġshitrhem":5746,"Ġchan":5747,"yngkiang":5748,"ĠAssyria":5749,"Ġthomas":5750,"viser":5751,"Ġrejistar":5752,"cial":5753,"Ġiala":5754,"Ġrngiew":5755,"rih":5756,"ĠJingthoh":5757,"Ġet":5758,"ynjah":5759,"Ġtynnad":5760,"Ġdas":5761,"adem":5762,"ĠML":5763,"Ġjingsmai":5764,"try":5765,"Ġga":5766,"amaria":5767,"Ġmis":5768,"ĠKor":5769,"apdeng":5770,"ĠMawsh":5771,"Ġrambrai":5772,"Uta":5773,"kren":5774,"Ġpen":5775,"Ġpynkha":5776,"ĠMDA":5777,"ĠCha":5778,"Ġover":5779,"atholi":5780,"80":5781,"serv":5782,"Ġbasan":5783,"Ġtirot":5784,"Ġmor":5785,"emino":5786,"Ġbymngeit":5787,"ĠSyiemlieh":5788,"Ġpositive":5789,"peit":5790,"syntiew":5791,"Ġkhyllipmat":5792,"Ġnongshim":5793,"Ġjingpyntip":5794,"2021":5795,"bulance":5796,"Ġent":5797,"Ġnc":5798,"Ġkatdei":5799,"ĠPrincipal":5800,"ĠChi":5801,"Ġmukhim":5802,"akhun":5803,"Ġdik":5804,"ĠDhar":5805,"ĠAI":5806,"Ġjingsneng":5807,"Ġlynshop":5808,"tar":5809,"arm":5810,"ally":5811,"Ġaks":5812,"ĠMarwei":5813,"Ġnoc":5814,"icket":5815,"Ġjingkhuslai":5816,"ĠThoh":5817,"Ġdriver":5818,"tis":5819,"Ġdait":5820,"Ġjingshit":5821,"Ġjinglongmraw":5822,"Ġpublicity":5823,"kynmaw":5824,"Ġsuid":5825,"banon":5826,"Ġ65":5827,"kseh":5828,"Ġjeroboam":5829,"ristian":5830,"ĠBe":5831,"Ġpyrthat":5832,"ĠEngi":5833,"hampion":5834,"ĠPharphri":5835,"iagra":5836,"kad":5837,"ĠSut":5838,"oanis":5839,"Ġnongtem":5840,"put":5841,"rangbah":5842,"Ġmeh":5843,"ida":5844,"Ġ2008":5845,"Ġnongsumar":5846,"Ġjaw":5847,"Ġrule":5848,"Ġjingkhih":5849,"Ġjingrung":5850,"Uno":5851,"Ġlyiur":5852,"ĠManasseh":5853,"vention":5854,"Ġkilomitar":5855,"Ġlatiplang":5856,"ds":5857,"hooid":5858,"jon":5859,"work":5860,"Ġbashyrkhei":5861,"Ġdiaw":5862,"Ġmam":5863,"khraw":5864,"majai":5865,"Ġkhluit":5866,"Ġadministration":5867,"atrei":5868,"Ġpynkyndit":5869,"blang":5870,"Ġlamare":5871,"Ġkynbat":5872,"ĠHoping":5873,"ynniaw":5874,"uson":5875,"Ġsynagog":5876,"Ġjingieid":5877,"ĠpynkhlaiÃ±":5878,"ecretery":5879,"Ġkurbah":5880,"ĠNgin":5881,"Ġanvc":5882,"riel":5883,"yer":5884,"Ġkyrthep":5885,"Ġumbam":5886,"ĠGe":5887,"Ġ46":5888,"neral":5889,"fication":5890,"ryngkham":5891,"Ġpylliem":5892,"jana":5893,"Ġiasnoh":5894,"Ġsbun":5895,"Ġkynjat":5896,"Ġkhait":5897,"ĠNongthymmai":5898,"Ġadditional":5899,"ĠThem":5900,"Ġjemino":5901,"chik":5902,"non":5903,"ring":5904,"hil":5905,"khadc":5906,"ĠRom":5907,"imelekh":5908,"ĠKata":5909,"Ġkhanatang":5910,"Ġjabieng":5911,",&#":5912,"ĠX":5913,"ĠMB":5914,"Ġtraining":5915,"Ġphun":5916,"Ġmary":5917,"ostel":5918,"Ġpynphriang":5919,"ĠThomas":5920,"500":5921,"tiang":5922,"ĠBriew":5923,"ĠTour":5924,"Ġvide":5925,"shaiÃ±":5926,"beration":5927,"Ġnongpule":5928,"Ġtein":5929,"ĠSSA":5930,"Ġmetbah":5931,"Ġnongaplangbrot":5932,"Ġbashatei":5933,"mang":5934,"khel":5935,"ĠRani":5936,"Ġbsuh":5937,"ĠEngineer":5938,"Ġjingtap":5939,"Ġkhyllah":5940,"ĠSur":5941,"ordin":5942,"Ġsngewhun":5943,"kumjuh":5944,"Ġelisabet":5945,"Ġinjek":5946,"Ġchc":5947,"Ġartat":5948,"ĠRymphang":5949,"ĠParliamentary":5950,"SI":5951,"dein":5952,"ficit":5953,"ĠRisaw":5954,"Ġian":5955,"Ġbiej":5956,"atip":5957,"shma":5958,"Ġjingiatai":5959,"Ġjingthep":5960,"eak":5961,"peng":5962,"Ġnurse":5963,"Ġlot":5964,"khiah":5965,"ĠMr":5966,"Ġbaheh":5967,"ĠTei":5968,"lex":5969,"Ġjingdheng":5970,"Ġbeijot":5971,"Ġkopi":5972,"Ġsloit":5973,"Hangta":5974,"Ġsdien":5975,"Ġblah":5976,"ities":5977,"Ġprogramme":5978,"Ġtwad":5979,"ĠbanbeiÃ±":5980,"Ġpynshah":5981,"ĠÃ¯ar":5982,"Ġiohlum":5983,"Ġmawryngkneng":5984,"IL":5985,"ukh":5986,"Ġbl":5987,"Ġsngewkmen":5988,"olf":5989,"Ġpynkloi":5990,"Ġprocess":5991,"Ġaksiden":5992,"ksan":5993,"Ġiateh":5994,"Ġlyngkhuh":5995,"Ġforces":5996,"ĠANVC":5997,"Ġmihpaw":5998,"ĠNongkhlaw":5999,"iii":6000,"Ġasst":6001,"Ġrynjah":6002,"Ġkadiang":6003,"iet":6004,"ĠSecretariat":6005,"Ġthur":6006,"Ġlumrit":6007,"Ġtyngkhuh":6008,"200":6009,"rc":6010,"enith":6011,"ĠjingÃ¯aleh":6012,"Ġreport":6013,"ĠSaitjain":6014,"illiamnagar":6015,"Ġudei":6016,"ety":6017,"Ġphadar":6018,"ĠNyngkong":6019,"Ġparad":6020,"Ġsumer":6021,"ĠSports":6022,"ĠRanikor":6023,"86":6024,"Bun":6025,"YN":6026,"ze":6027,"ati":6028,"Ġdab":6029,"Ġmynthi":6030,"Ġvab":6031,"Ġbsein":6032,"ibeon":6033,"85":6034,"Kam":6035,"lun":6036,"pura":6037,"bang":6038,"Ġpyngkiang":6039,"Ġrnga":6040,"Ã¯on":6041,"Ġdkoh":6042,"Ġrum":6043,"nongrim":6044,"ĠHer":6045,"ĠJos":6046,"Ġjingmudui":6047,"Ġbuhai":6048,"ĠAmpareen":6049,"ĠElisha":6050,"Ġsia":6051,"Ġrbyf":6052,"Ġmynh":6053,"ices":6054,"Ġprot":6055,"Ġiaphi":6056,"ganj":6057,"Ġjingithuh":6058,"ĠIsaak":6059,"Ġnagaland":6060,"person":6061,"Ġnylla":6062,"ieu":6063,"Ġiit":6064,"Ġhuri":6065,"ĠBor":6066,"eser":6067,"Kata":6068,"Ġfinal":6069,"tung":6070,"Ġ/":6071,"Ġsnar":6072,"Ġjingpynlut":6073,"ede":6074,"Ġss":6075,"Ġjingiatylli":6076,"Ġaud":6077,"ĠGu":6078,"eoples":6079,"ĠSabbaton":6080,"73":6081,"Ġthiang":6082,"along":6083,"ĠPS":6084,"uph":6085,"Ġstadium":6086,"ĠLamphang":6087,"ĠkhynÃ±iuh":6088,"Ġrs":6089,"awki":6090,"ĠShan":6091,"eck":6092,"ĠSanbor":6093,"Ġtbian":6094,"Ġjyllop":6095,"nology":6096,"ras":6097,"Ġjinglum":6098,"Ġjingknia":6099,"born":6100,"akhi":6101,"HE":6102,"ush":6103,"Ġright":6104,"Ġkylluid":6105,"Katto":6106,"Ġnongbri":6107,"ĠKyllalyngkot":6108,"Ġjingkah":6109,"Ġpynlyngngoh":6110,"ĠJoint":6111,"ynsai":6112,"ĠsuiÃ±":6113,"ĠJoab":6114,"gani":6115,"Ġsylla":6116,"Ġiaineh":6117,"Ġiingmane":6118,"Ġnongpynim":6119,"Ġtyrpeng":6120,"Ġjongnga":6121,"Ġshri":6122,"ynrai":6123,"Ġphasi":6124,"Ġbible":6125,"ĠThangkhiew":6126,"Ġphohsniew":6127,"ica":6128,"khatduh":6129,"Ġkyllain":6130,"Ġsecurity":6131,"Kham":6132,"Um":6133,"roit":6134,"sut":6135,"Ġhati":6136,"Ġaadhaar":6137,"rut":6138,"Ġjingnoh":6139,"Ġjingartatien":6140,"ĠUtei":6141,"Ġprod":6142,"ishop":6143,"ĠThabah":6144,"byr":6145,"Ġjh":6146,"Ġlep":6147,"Ã¯ong":6148,"Ġlehbein":6149,"Ġthat":6150,"ĠEks":6151,"Ġsawspah":6152,"sngiat":6153,"Maw":6154,"puh":6155,"ĠQ":6156,"ĠTim":6157,"Ġaf":6158,"Ġkdup":6159,"Ġsaindur":6160,"Ġpynsngewsih":6161,"Ġtalasi":6162,"antine":6163,"Ġkhlong":6164,"khmih":6165,"ĠServ":6166,"Ġjingkyllon":6167,"stone":6168,"Ġger":6169,"Ġbymhok":6170,"ĠKaei":6171,"Ġtournament":6172,"ganiz":6173,"JH":6174,"east":6175,"kot":6176,"Ġjor":6177,"Ġnh":6178,"Ġtop":6179,"ĠSamaria":6180,"ĠUne":6181,"ĠJentil":6182,"olun":6183,"Ġjingmang":6184,"ĠOrganis":6185,"gisla":6186,"Utei":6187,"anda":6188,"ĠShah":6189,"Ġhiarthma":6190,"ĠVAB":6191,"map":6192,"ĠByr":6193,"ĠIs":6194,"ĠKiba":6195,"Ġpawkhmat":6196,"Ġsimon":6197,"bymman":6198,"ĠBindo":6199,"zar":6200,"Ġsih":6201,"ĠSar":6202,"Ġtra":6203,"ĠPHC":6204,"Ġahi":6205,"Ġahas":6206,"lynn":6207,"sm":6208,"vate":6209,"Ġpil":6210,"Ġhamar":6211,"Ġnonglum":6212,"Ġiohlad":6213,"ĠAad":6214,"Ġmajai":6215,"ĠMawhati":6216,"Ġpansngiat":6217,"Ġscience":6218,"Ġvideo":6219,"pen":6220,"orial":6221,"ĠMet":6222,"Ġehrang":6223,"Ġminot":6224,"ratis":6225,"Ġmalki":6226,"pan":6227,"Ġsil":6228,"Ġpynkulmar":6229,"Ġteam":6230,"ĠSynod":6231,"ĠÃ¯adon":6232,"Ġmynne":6233,"ĠTrep":6234,"borah":6235,"Ġsutnga":6236,"uphratis":6237,"Ġjynd":6238,"Ġjyllei":6239,"Ġuto":6240,"Ġmep":6241,"ĠÃ¯abam":6242,"Ġkynting":6243,"Ġpynbun":6244,"Ġjingtlot":6245,"Ar":6246,"YM":6247,"cs":6248,"Ġkshaid":6249,"Ġsyllok":6250,"ike":6251,"Ġmanbriew":6252,"cebook":6253,"ĠHynÃ±iewtrep":6254,"jit":6255,"Ġiamih":6256,"Ġngiah":6257,"Ġkhanapara":6258,"Ġtown":6259,"Ġ150":6260,"Ġlynthem":6261,"jaintia":6262,"Ġkhai":6263,"lius":6264,"nod":6265,"Ġbymdon":6266,"Ġelec":6267,"ĠVincent":6268,"Ġeksam":6269,"Ġler":6270,"âĢĺ":6271,"Ġparish":6272,"ĠWing":6273,"Ġjingkhia":6274,"Ġpluh":6275,"ĠSawkmie":6276,"Ġperson":6277,"ĠSer":6278,"Ġcm":6279,"tric":6280,"Ġamor":6281,"ĠĠĠĠĠĠĠĠ":6282,"kput":6283,"pi":6284,"Ġlip":6285,"ĠJes":6286,"Ġsngewsynei":6287,"akhih":6288,"Ġsyier":6289,"Ġcorporation":6290,"Ġsngewlyngngoh":6291,"ĠIng":6292,"ĠForest":6293,"Ġhamlet":6294,"Ġjingiadonlang":6295,"weng":6296,"Ġkud":6297,"khlam":6298,"Ġmegha":6299,"ĠNeb":6300,"Ġthaba":6301,"Ġ52":6302,"bram":6303,"ĠmetÃ¯ap":6304,"Phin":6305,"ĠHealth":6306,"Ġbaka":6307,"Ġtender":6308,"Ġshalor":6309,"Ġnongri":6310,"ĠTrad":6311,"Ġjingsaphriang":6312,"ĠRTI":6313,"Ġpre":6314,"Ġaplai":6315,"gislative":6316,"Kito":6317,"Ġpuit":6318,"Ġbok":6319,"Ġlur":6320,"estine":6321,"Ġlehrain":6322,"ĠJemino":6323,"stem":6324,"Ġapot":6325,"ĠShangpliang":6326,"dam":6327,"Ġklang":6328,"Ġiakhaid":6329,"Ġmomin":6330,"Ġkhwai":6331,"Ġshat":6332,"uto":6333,"ĠUr":6334,"khara":6335,"Ġash":6336,"Ġrashon":6337,"ksu":6338,"Ġhebru":6339,"cer":6340,"Ġdat":6341,"Ġlimited":6342,"aleit":6343,"Ġgrace":6344,"Ġinstitute":6345,"Ġpynrit":6346,"icky":6347,"wait":6348,"yp":6349,"Ġkynsh":6350,"odom":6351,"tali":6352,"ĠJirang":6353,"ĠShem":6354,"Ġleilieh":6355,"ĠBala":6356,"Ġmynbarim":6357,"riculture":6358,"ĠHNYF":6359,"Ġkedar":6360,"Ġmes":6361,"ĠPang":6362,"ĠShibun":6363,"ĠFootball":6364,"Ġshadkmen":6365,"ĠHigher":6366,"ĠFront":6367,"cor":6368,"Ġsirdar":6369,"Ġdom":6370,"urer":6371,"2019":6372,"ĠRambrai":6373,"virus":6374,"Nong":6375,"Ġsliang":6376,"Ġarsien":6377,"Ġbharat":6378,"Ġpynbiej":6379,"Ġjingkhmih":6380,"Ġpangniang":6381,"8212":6382,"Ġ2005":6383,"ĠJustice":6384,"biria":6385,"Ġbis":6386,"ĠMei":6387,"phra":6388,"Ġlumpung":6389,"aboh":6390,"ersia":6391,"bei":6392,"we":6393,"Ġtor":6394,"ynran":6395,"alek":6396,"Ġlangpih":6397,"ĠNongthaw":6398,"ĠjingÃ¯athuh":6399,"den":6400,"Ġjingtynjuh":6401,"Ġreuben":6402,"site":6403,"akajia":6404,"Ġbiria":6405,"Ġaicc":6406,"Ġ56":6407,"ĠChyne":6408,"Ġsyriem":6409,"Ġbapaw":6410,"ialehkai":6411,"ĠHin":6412,"ĠDam":6413,"Ġsynsar":6414,"abriel":6415,"ortem":6416,"ĠEastern":6417,"Ġtaksi":6418,"Ġpyngngad":6419,"Ġrejister":6420,"Ġpahuh":6421,"Ġkhi":6422,"Ġmir":6423,"Ġkhrup":6424,"ĠNongbah":6425,"Ġkhyriem":6426,"Ġiasoi":6427,"Ġthanad":6428,"rihms":6429,"HI":6430,"ehoboam":6431,"ĠBat":6432,"apoh":6433,"ĠDong":6434,"thap":6435,"Ġsynrai":6436,"Ġpynithuh":6437,"hol":6438,"Ġke":6439,"Ġson":6440,"tiphi":6441,"Ġhangto":6442,"khuit":6443,"ĠVillage":6444,"ĠThe":6445,"Ġkristan":6446,"gree":6447,"Ġpynwandur":6448,"ĠKin":6449,"ĠJait":6450,"ĠAcc":6451,"ĠAhab":6452,"Ġseat":6453,"ĠLaitumkhrah":6454,"mm":6455,"Ġpyniar":6456,"Ġkherub":6457,"Ġmyntor":6458,"kil":6459,"ĠDan":6460,"ĠRah":6461,"Ġjingiohi":6462,"ĠIndian":6463,"ĠhynÃ±iewphew":6464,"ĠDavid":6465,"79":6466,"NC":6467,"her":6468,"ĠPlan":6469,"thir":6470,"Ġleague":6471,"uction":6472,"Ġsyrnod":6473,"taiew":6474,"Ġsalm":6475,"Mar":6476,"knieh":6477,"lien":6478,"ynad":6479,"Ġkatjuh":6480,"Ġbarieh":6481,"ĠNC":6482,"ĠRB":6483,"Ġgreen":6484,"Ġ53":6485,"tonio":6486,"Ġmbose":6487,"Ġras":6488,"ĠKawei":6489,"ĠJe":6490,"ilp":6491,"Ġjingmong":6492,"Ġmawiong":6493,"Ġjngum":6494,"ĠĠĠ":6495,"Ġherod":6496,"Ġisaiah":6497,"Ġarticle":6498,"Ġep":6499,"Ġsd":6500,"Ġkheit":6501,"awan":6502,"ĠTar":6503,"Ġmari":6504,"thabah":6505,"ĠKhyndai":6506,"Ġiapyn":6507,"Ġiasyllok":6508,"Ġrangli":6509,"Ġpyngrope":6510,"ensus":6511,"Ġsel":6512,"Ġarmed":6513,"former":6514,"Ġoutpost":6515,"Ġpylleng":6516,"Ġbadonburom":6517,"Ġnongot":6518,"ason":6519,"Ġumsaw":6520,"mawlong":6521,"ior":6522,"mus":6523,"Ġii":6524,"othi":6525,"ĠPi":6526,"Ġjingbyrngem":6527,"Ġriewbymman":6528,"Ġ51":6529,"andid":6530,"ebul":6531,"ĠManipur":6532,"Ġaadhar":6533,"ĠEphraim":6534,"Ġtwa":6535,"oloi":6536,"mano":6537,"ĠKhyr":6538,"Ġdrug":6539,"Ġus":6540,"Ġpuson":6541,"Ġworld":6542,"urch":6543,"ĠSad":6544,"ĠPass":6545,"ĠAS":6546,"Ġshymla":6547,"Ġpynjynjar":6548,"Ġanti":6549,"ĠMPCC":6550,"Ġexam":6551,"estival":6552,"Ġpainkhana":6553,"**":6554,"abam":6555,"view":6556,"then":6557,"ĠKan":6558,"khasi":6559,"Ġgram":6560,"ĠGHADC":6561,"Ġjingdkoh":6562,"bil":6563,"yal":6564,"hael":6565,"Ġhaw":6566,"Ġkhla":6567,"Ġcar":6568,"ĠAffairs":6569,"Ġaka":6570,"Ġpharphri":6571,"okh":6572,"uin":6573,"bas":6574,"Ġbthei":6575,"Ġkynsha":6576,"ĠHat":6577,"Ġmawkordor":6578,"sohmoh":6579,"Ġgovernment":6580,"ĠForum":6581,"Ġquarantine":6582,"adab":6583,"idon":6584,"ocese":6585,"tiphiket":6586,"IG":6587,"pm":6588,"Ġrural":6589,"kalang":6590,"eterin":6591,"uck":6592,"Ġmawshynrut":6593,"alade":6594,"bed":6595,"uli":6596,"Ġsmit":6597,"asar":6598,"Ġsngewrit":6599,"Ġasher":6600,"ĠShe":6601,"eterinary":6602,"Ġmr":6603,"Ġhel":6604,"Ġaireng":6605,"eting":6606,"Ġlyngkor":6607,"Ġkhatsaw":6608,"Ġsuper":6609,"04":6610,"basa":6611,"ĠSumer":6612,"shmir":6613,"Ġfinance":6614,"istol":6615,"ĠbeaiÃ±":6616,"Ġcontra":6617,"owel":6618,"Ġshadap":6619,"ustr":6620,"Ġpukni":6621,"Ġjehoshaphat":6622,"ĠMotphran":6623,"shmael":6624,"bna":6625,"Ġhad":6626,"Ġkhni":6627,"ĠSep":6628,"Ġhir":6629,"Ġpham":6630,"Ġtham":6631,"Ġnangkiew":6632,"ĠNongpyn":6633,"Ġtyngshain":6634,"ĠSixth":6635,"99":6636,"Man":6637,"pf":6638,"ĠMer":6639,"ademy":6640,"hoc":6641,"Ġjsu":6642,"ĠSoi":6643,"ĠHese":6644,"ĠTyr":6645,"ĠII":6646,"Ġjingpynlait":6647,"Ġval":6648,"ĠMawp":6649,"ĠKitab":6650,"lute":6651,"jahrin":6652,"form":6653,"ĠElijah":6654,"cement":6655,"gi":6656,"Ġeit":6657,"laÃ¯a":6658,"Ġujuh":6659,"Ġdh":6660,"orge":6661,"Ġshut":6662,"ĠKal":6663,"Ġkhriat":6664,"Ġeleas":6665,"ĠScheme":6666,"ĠÃıoannis":6667,"cellor":6668,"kjat":6669,"mdc":6670,"nath":6671,"rew":6672,"Ġtiew":6673,"Ġkhop":6674,"Ġlehbha":6675,"Ġcode":6676,"Ġroshan":6677,"Ġjingpynkhein":6678,"Ġjudia":6679,"Ġdolloi":6680,"ĠHan":6681,"Ġarunachal":6682,"ĠRon":6683,"thain":6684,"ester":6685,"Ġhesekai":6686,"ĠRaij":6687,"kiang":6688,"nad":6689,"Ġklong":6690,"Ġseh":6691,"Ġsdo":6692,"Ġjingbah":6693,"ngewbha":6694,"Ġjingsngewlem":6695,"hallan":6696,"ĠBabilon":6697,"Jing":6698,"Ġwanlam":6699,"Ġshongman":6700,"Ġjehu":6701,"Ġsyngkai":6702,"ubab":6703,"Ġpyndon":6704,"khublei":6705,"Ġphawa":6706,"ree":6707,"ĠUmiam":6708,"Ġjehoi":6709,"Ġthis":6710,"ĠAiÃ±":6711,"Ġphylliew":6712,"ĠScheduled":6713,"Ġbashaphang":6714,"ĠMukhim":6715,"Ġorganisation":6716,"din":6717,"lation":6718,"Ġpynkham":6719,"Ġwin":6720,"erce":6721,"ishah":6722,"khynd":6723,"ĠMary":6724,"Ġkyrhuh":6725,"ĠHAN":6726,"Ġjingpynduh":6727,"hairperson":6728,"ield":6729,"Ġrymbui":6730,"Ġjingduhnong":6731,"Ġtyngkai":6732,"PF":6733,"ys":6734,"Ġialum":6735,"Ġiph":6736,"Ġkhwan":6737,"ĠKen":6738,"ĠBha":6739,"Ġphrang":6740,"Ġsohtun":6741,"Ġdiesel":6742,"Ġhebron":6743,"Ġmaloi":6744,"RC":6745,"Ġtab":6746,"Ġrick":6747,"Ġpak":6748,"Ġjingbiang":6749,"Ġdohling":6750,"ĠSuperintendent":6751,"kol":6752,"Ġpress":6753,"ĠPak":6754,"ĠAng":6755,"ics":6756,"ĠWomen":6757,"Ġshipara":6758,"ynsur":6759,"ĠYnda":6760,"down":6761,"Ġrules":6762,"Ġpynlehrain":6763,"ĠBody":6764,"Ġinformation":6765,"Ġmanagement":6766,"ophy":6767,"Ġtngen":6768,"ĠÃ¯awan":6769,"Ġdaju":6770,"lih":6771,"ĠPynd":6772,"Ġpynsaphriang":6773,"Ġhynriewspah":6774,"servation":6775,"olunte":6776,"mei":6777,"Ġjingpdiang":6778,"Ġtyngshop":6779,"Ġmalngiang":6780,"ference":6781,"Ġvictor":6782,"Ġneigrihms":6783,"bthuh":6784,"nit":6785,"Ġnongspung":6786,"khen":6787,"Ġpynkmen":6788,"Ġpilat":6789,"ashong":6790,"Ġbtap":6791,"khoh":6792,"Ġjingjylliew":6793,"Ġcommunity":6794,"ĠActing":6795,"Ġtripura":6796,"ĠJonathan":6797,"Ġetc":6798,"Ġthurmur":6799,"jym":6800,"jal":6801,"mad":6802,"pd":6803,"Ġsen":6804,"Ġdm":6805,"ull":6806,"ĠDi":6807,"Ġakar":6808,"Ġbaibam":6809,"ĠDeut":6810,"mynba":6811,"Ġbapli":6812,"*âĢľ":6813,"con":6814,"Ġpower":6815,"Ġmordekai":6816,"Ã¯eng":6817,"Ġweb":6818,"oper":6819,"Ġ58":6820,"Ġjingtwa":6821,"ĠBaal":6822,"Ġanthony":6823,"june":6824,"Ġlaispah":6825,"samla":6826,"ĠJerem":6827,"ĠHANM":6828,"kroh":6829,"mund":6830,"wul":6831,"Ġhaman":6832,"Ġshniuh":6833,"Ġjingiatrei":6834,"Ã±iar":6835,"ĠRap":6836,"Ġjingwanrah":6837,"ĠMovement":6838,"purew":6839,"Ġshnat":6840,"Ġhain":6841,"Ġhostel":6842,"Ġshira":6843,"ĠDawki":6844,"Ġarsap":6845,"Ġfood":6846,"Ġjingthang":6847,"sohtun":6848,"ĠĠĊ":6849,"Ġesther":6850,"Ġryngkew":6851,"78":6852,"sieh":6853,"Ġbal":6854,"Ġjngi":6855,"Ġpistol":6856,"Ġwas":6857,"ĠAmendment":6858,"Ġsngewdei":6859,"ĠkrenbeiÃ±":6860,"ĠAssistant":6861,"Ġ*âĢľ":6862,"Ġsymboh":6863,"Ġjingiasyllok":6864,"Ġnoah":6865,"Ġmillion":6866,"Em":6867,"fety":6868,"iathuh":6869,"Ġjinglyngngoh":6870,"inth":6871,"ĠBDO":6872,"Ġjingphah":6873,"Ġgideon":6874,"Ġdiengdoh":6875,"Ġrahul":6876,"Ġambulance":6877,"Ġnongshongshnong":6878,"Ġsertiphiket":6879,"ĠSymbud":6880,"ĠHindu":6881,"Ġshini":6882,"ĠIm":6883,"Ġdiengsoh":6884,"owell":6885,"ĠrisaiÃ±":6886,"Ġbashathie":6887,"Ġpnar":6888,"uhor":6889,"Ġshynna":6890,"Ġarsut":6891,"Ġjingslem":6892,"Ġpynkhie":6893,"Ġurban":6894,"dait":6895,"heh":6896,"Ġkah":6897,"thor":6898,"ĠKHA":6899,"Ġcol":6900,"ĠMomin":6901,"Ġsngewskhem":6902,"Ġ54":6903,"jingit":6904,"Ġcoronavirus":6905,"Ġianujor":6906,"deit":6907,"Ġdiang":6908,"Ġbanbein":6909,"Ġibit":6910,"Ġshatri":6911,"ĠDo":6912,"Ġtraishnong":6913,"Ġabi":6914,"Ġsahep":6915,"inet":6916,"ĠAmmon":6917,"que":6918,"ĠStates":6919,"ĠWorking":6920,"raphew":6921,".,":6922,"Kan":6923,"niap":6924,"tle":6925,"Ġiawan":6926,"Ġnaei":6927,"Ġhooid":6928,"ymdeit":6929,"Ġkyndang":6930,"ĠSy":6931,"ĠUba":6932,"ĠNgim":6933,"Ġdumbur":6934,"cem":6935,"nat":6936,"air":6937,"Ġlynn":6938,"Ġlocal":6939,"ĠNep":6940,"ĠRyngkat":6941,"oss":6942,"Ġkhroh":6943,"Ġpoiwir":6944,"Ġcoun":6945,"Ġ144":6946,"Ġjwat":6947,"hir":6948,"Ġnonglute":6949,"ĠShal":6950,"Ġiohthiah":6951,"ĠHar":6952,"Ġasha":6953,"Ġksing":6954,"Ġcoach":6955,"Ġdeficit":6956,"Ġforce":6957,"haraoh":6958,"KA":6959,"Ġrhem":6960,"Ġnah":6961,"Ġsngiu":6962,"Ġsport":6963,"bieit":6964,"ĠRangbahduh":6965,"ĠMawsor":6966,"Ġbranch":6967,"Ġjynthut":6968,"97":6969,"bh":6970,"Ġkes":6971,"Ġbangeit":6972,"Ġlar":6973,"Ġdwar":6974,"ĠÃ¯ashong":6975,"thup":6976,"ĠKr":6977,"ope":6978,"ĠPharaoh":6979,"ĠAnd":6980,"Ġlyngkhuit":6981,"Ġmathaios":6982,"ĠjingÃ¯aroh":6983,"ishian":6984,"Ġadministr":6985,"Ġstand":6986,"Ġpolisi":6987,"Khie":6988,"ĠThohdieng":6989,"pu":6990,"Ġjingat":6991,"ĠSmit":6992,"ĠMor":6993,"Ġmynleh":6994,"ĠJong":6995,"Ġkhunbynriew":6996,"ĠKiwei":6997,"ĠPrimary":6998,"ebulun":6999,"lieng":7000,"Ġlaya":7001,"Ġnot":7002,"Ġnajan":7003,"ĠÃ¯athiah":7004,"Ġkyrsiew":7005,"ĠDang":7006,"ĠDas":7007,"mihngi":7008,"Ġprum":7009,"nihat":7010,"Ġcontrol":7011,"ĠMuslim":7012,"ĠMawshynrut":7013,"ubor":7014,"iewtrep":7015,"ĠRynjah":7016,"Ġkyntur":7017,"Ġpynjur":7018,"ĠPharisi":7019,"lym":7020,"Ġnda":7021,"Ġpyndeng":7022,"Ġpyrem":7023,"Ġeleasar":7024,"jistor":7025,"hila":7026,"angno":7027,"Ġkhain":7028,"sim":7029,"Ġjingpynshisha":7030,"Ġnangbah":7031,"radu":7032,"Ġcommander":7033,"Ġ2007":7034,"ources":7035,"Ġmawsor":7036,"Ġinternational":7037,"................":7038,"Ġaction":7039,"Ġtit":7040,"ĠLine":7041,"mied":7042,"ĠNongbri":7043,"Ġ57":7044,"brary":7045,"ĠAdministration":7046,"rymbai":7047,"ĠMarwein":7048,"'t":7049,"Yn":7050,"Ġbanteidor":7051,"Ġshibynta":7052,"ĠMic":7053,"ĠHistor":7054,"reg":7055,"eah":7056,"Ġbalai":7057,"Ġialong":7058,"ohli":7059,"Ġibein":7060,"ĠTirot":7061,"ĠCor":7062,"Ġjingiaknieh":7063,"Ġinc":7064,"Ġjingpyrta":7065,"Ġiasuk":7066,"ĠÃ±iewbeiÃ±":7067,"tainment":7068,"MC":7069,"Ġsus":7070,"Ġhashen":7071,"Ġmod":7072,"Ġluk":7073,"kash":7074,"ĠSin":7075,"Ġauthority":7076,"Ġkhambha":7077,"Ġregulation":7078,"Ġrajya":7079,"Ġtylliat":7080,"ĠAlliance":7081,"binus":7082,"mitar":7083,"phim":7084,"Ġmain":7085,"Ġlp":7086,"Ġlower":7087,"Ġshatai":7088,"ite":7089,"Ġnonglait":7090,"Ġlongk":7091,"ynrih":7092,"ĠStad":7093,"ĠNOC":7094,"hapdeng":7095,"ĠJingpyn":7096,"Ġshetkylla":7097,"ĠProcess":7098,"Ġjingjahburom":7099,"51":7100,"Ġkni":7101,"Ġdai":7102,"Ġnongd":7103,"Ġwieh":7104,"Ġkyrdoh":7105,"Ġnongseng":7106,"Ġkaikhlaw":7107,"jiju":7108,"Ġiangi":7109,"Ġmass":7110,"ĠSo":7111,"ĠRiti":7112,"Ġbethel":7113,"atholic":7114,"Ġsenti":7115,"Ġiatrei":7116,"Ġnongshah":7117,"ĠNI":7118,"Ġarch":7119,"Ġumjer":7120,"Ġklun":7121,"rime":7122,"etry":7123,"eaker":7124,"ĠPangniang":7125,"Ġking":7126,"Ġbin":7127,"Ġmuhor":7128,"kaji":7129,"ĠBlah":7130,"ĠPost":7131,"ĠHor":7132,"ĠNeh":7133,"Ġthah":7134,"ivek":7135,"Ġkharbani":7136,"Ġlambok":7137,"ĠLatip":7138,"tyngkhuh":7139,"Ġpad":7140,"Ġltd":7141,"Ġkhath":7142,"mareh":7143,"ĠTitos":7144,"Ġriwar":7145,"Ġmalik":7146,"bhah":7147,"ndra":7148,"Ġsawbthuh":7149,"yntem":7150,"ĠKhyriem":7151,"ĠMizoram":7152,"itorium":7153,"Ġordinance":7154,"Ġhajrong":7155,"Ġbur":7156,"ĠMag":7157,"asyllok":7158,"khand":7159,"Ġtnaw":7160,"ĠGilead":7161,"ĠNonghikai":7162,"Ġjingroi":7163,"lution":7164,"Ġjeri":7165,"ĠHebru":7166,"aka":7167,"yang":7168,"Ġtel":7169,"Ġbadno":7170,"Ġkhor":7171,"ĠPai":7172,"ĠHaduh":7173,"Ġpyniakhun":7174,"ningstar":7175,"Ġbihar":7176,"Ġpolitishian":7177,"Ġkhapngiah":7178,"Ġmoh":7179,"Ġioanis":7180,"Ġryntathiang":7181,"unar":7182,"Ġcell":7183,"Ġbahok":7184,"Ġphriang":7185,"Ġ2006":7186,"Ġbyrthen":7187,"Ġfacebook":7188,"Ġsentimitar":7189,"Une":7190,"Ġhajuh":7191,"etre":7192,"Ġumsoh":7193,"matlah":7194,"ĠpynÃ¯aid":7195,"Ġkarbi":7196,"meghalaya":7197,"Ġbalaam":7198,"Ġnepali":7199,"bynna":7200,"Ġlanong":7201,"Ġmt":7202,"ukhadnessar":7203,"ĠUranium":7204,"ĠHangne":7205,"Ġjingsngap":7206,"ĠGrace":7207,"ibeah":7208,"Ġpyiar":7209,"Ġjingkyntu":7210,"Ġjingrai":7211,"Ġbynniaw":7212,"ĠBu":7213,"ĠGad":7214,"ĠWei":7215,"Ġnongshet":7216,"Ġlamwir":7217,"istration":7218,"ĠLamare":7219,"Ġinternet":7220,"ĠkhleiÃ±":7221,"Ġkajong":7222,"Ġmy":7223,"aman":7224,"ĠBengal":7225,"Ġiaknieh":7226,"Ġamen":7227,"Katno":7228,"ĠPyniaid":7229,"Ġpynhiarkput":7230,"Ġcharles":7231,"lynnai":7232,"pynd":7233,"Ġmah":7234,"Ġjingkem":7235,"ĠLan":7236,"Ġaug":7237,"Ġviagra":7238,"ĠtyngshaiÃ±":7239,"Ġbatskhem":7240,"ĠÃ¯ingbishar":7241,"ĠAmlarem":7242,"forcement":7243,"Ġexc":7244,"Ġnetwork":7245,"ĠNebukhadnessar":7246,"Ġtdong":7247,"Ġiwbih":7248,"ambriew":7249,"Ġunder":7250,"Ġnongshna":7251,"Ġnongput":7252,"Ġenvironment":7253,"Shwa":7254,"ĠByrnihat":7255,"55":7256,"uter":7257,"yngkhong":7258,"ĠMis":7259,"Ġjingsep":7260,"ĠLamin":7261,"ĠIing":7262,"Ġksan":7263,"ĠKhie":7264,"Ġjingshyrkhei":7265,"Ġbasaw":7266,"Ġjingphla":7267,"Ġbishni":7268,"Ġtawiar":7269,"Ġwebsite":7270,"Ġlin":7271,"yngrope":7272,"ĠBo":7273,"ĠUwei":7274,"Ġjingiasngewthuh":7275,"ask":7276,"Ġmeti":7277,"ĠMawryngkneng":7278,"order":7279,"iller":7280,"ĠKumno":7281,"ĠAbsalom":7282,"Ġmong":7283,"Ġsahmiet":7284,"rymbong":7285,"STA":7286,"76":7287,"Ġiathoh":7288,"kaiah":7289,"Ġnongiarap":7290,"sheba":7291,"ĠPHE":7292,"Ġpynsan":7293,"ĠEs":7294,"Ġpynjem":7295,"Ġnongioh":7296,"Ġpyntyllun":7297,"Ġjingiasoi":7298,"ĠAdditional":7299,"Ġsumo":7300,"Ġryngkhat":7301,"Ġshalyntem":7302,"Dang":7303,"Ġ?":7304,"Ġpip":7305,"Ġmess":7306,"Ġlock":7307,"hish":7308,"Ã¯aineh":7309,"khmah":7310,"ombor":7311,"Ġlyngkhoi":7312,"upara":7313,"hangne":7314,"Ġpurno":7315,"ĠAnthony":7316,"ĠSpecial":7317,"ĠMes":7318,"ĠJan":7319,"traw":7320,"Ġsngewshyrkhei":7321,"sakhar":7322,"Ġkhliehduh":7323,"Ġdegree":7324,"ĠRoshan":7325,"Ġlyngkhai":7326,"Ġpynkhamti":7327,"poi":7328,"pule":7329,"Ġsoso":7330,"Ġiohkem":7331,"ĠPo":7332,"Ġshahjingit":7333,"Ġart":7334,"ĠRep":7335,"Ġgil":7336,"Ġpynkoit":7337,"cus":7338,"Ġasa":7339,"Ġkath":7340,"Ġdrai":7341,"Ã±i":7342,"Ġfund":7343,"Ġjingiakynad":7344,"ĠjingÃ¯adei":7345,"Ġlamkhmat":7346,"atiplem":7347,"ĠLatiplang":7348,"Ġ!":7349,"hasi":7350,"talang":7351,"Ġpynlah":7352,"ĠMyr":7353,"Ġ400":7354,"pynlong":7355,"uiÃ±":7356,"ebus":7357,"link":7358,"loh":7359,"Ġnguid":7360,"ulom":7361,"Ġpynshoi":7362,"ĠHead":7363,"Shillong":7364,"khla":7365,"ĠSai":7366,"asaid":7367,"Ġsamson":7368,"Ġjingpynkup":7369,"Ġkhrawbor":7370,"Ġrangialehkai":7371,"--":7372,"daw":7373,"Ġkiang":7374,"Ġhaing":7375,"Ġmian":7376,"angka":7377,"ena":7378,"Ġwicket":7379,"Ã±iah":7380,"Ġmawlynnai":7381,"Ġjingiakob":7382,"Ġalong":7383,"ĠDohling":7384,"ĠRahul":7385,"Ġjerikho":7386,"eman":7387,"Ġbarabor":7388,"Ġpyrman":7389,"Ġdurbar":7390,"Ġkhyrdep":7391,"Ġstates":7392,"Ġbethlehem":7393,"bhur":7394,"if":7395,"Ġcbi":7396,"Ġcustom":7397,"Ġtrophy":7398,"Ġsahdien":7399,"Ġtourist":7400,"ĠHamlet":7401,"ĠÃ±iut":7402,"ĠManager":7403,"Ġteachers":7404,"ey":7405,"mo":7406,"Ðĩ":7407,"Ġmortem":7408,"Ġkhlein":7409,"Ġwill":7410,"udp":7411,"Ġumdum":7412,"Ġinspector":7413,"nabas":7414,"Ġchild":7415,"ĠAICC":7416,"Ġpakistan":7417,"MP":7418,"akhlad":7419,"yd":7420,"erran":7421,"Ġphraphew":7422,"Ġyear":7423,"hadad":7424,"halupara":7425,"Ġnongaibuit":7426,"Ġjudas":7427,"Ġsinai":7428,"jin":7429,"kwah":7430,"lok":7431,"Ġjingkord":7432,"Ġshongduh":7433,"nesis":7434,"Ġregional":7435,"AP":7436,"beth":7437,"Ġbani":7438,"ĠTein":7439,"yntiat":7440,"thohlieh":7441,"ĠShira":7442,"Ġplied":7443,"Ġkyrdem":7444,"ĠsaitjaiÃ±":7445,"isteri":7446,"Ġpolling":7447,"Ġjingshalan":7448,"ĠAsst":7449,"Ġkhyllie":7450,"Ġncp":7451,"dl":7452,"ĠTea":7453,"Ġjingmap":7454,"Ġkyiuh":7455,"Ġjingitynnad":7456,"erranian":7457,"!âĢĻ":7458,"56":7459,"Uba":7460,"bs":7461,"gg":7462,"Ġsma":7463,"Ġkhnai":7464,"Ġnongj":7465,"ade":7466,"ĠUta":7467,"Ġarts":7468,"Ġgom":7469,"ĠlaiÃ±":7470,"ĠMarngar":7471,"ectoral":7472,"Ġnongsyntiat":7473,"Ġduma":7474,"Ġjinglamler":7475,"shing":7476,"sheth":7477,"ĠLab":7478,"mensong":7479,"ĠGa":7480,"Ġpeitkai":7481,"ĠKham":7482,"ĠKhubor":7483,"Ġcheck":7484,"Ġsharai":7485,"Ġshitaiew":7486,"ĠPoh":7487,"Ġmarten":7488,"Ġpynkyrpang":7489,"ĠGali":7490,"ĠNonglait":7491,"Ġ66":7492,"Ġpassah":7493,"ricket":7494,"Ġsabbha":7495,"ĠJeroboam":7496,"ĠPurno":7497,"KHADC":7498,"hoh":7499,"omi":7500,"Ġjingkhai":7501,"Ġmeeting":7502,"Ġingsah":7503,"Ġkhatwei":7504,"namarkata":7505,"Ġmotor":7506,"Ġtribal":7507,"Ġpunkhun":7508,"sotti":7509,"edekaÃ¯ah":7510,"Ġdraibar":7511,"57":7512,":&#":7513,"RE":7514,"yier":7515,"Ġiawer":7516,"Ġjingban":7517,"Ġjingweng":7518,"Ġmawpat":7519,"Ġmawnongrim":7520,"Ġkdiah":7521,"Ġkharkrang":7522,"ĠbseiÃ±":7523,"ttar":7524,"ĠMedical":7525,"Ġplastik":7526,"Ġpuja":7527,"Ġ8220":7528,"Ġbakhatduh":7529,"Ġic":7530,"Ġiw":7531,"ison":7532,"Ġcity":7533,"Ġcandid":7534,"Ġlehsbun":7535,"ĠGospel":7536,"Ġmetor":7537,"reel":7538,"Ġdro":7539,"III":7540,"Ġshekhem":7541,"Ġcaa":7542,"Ġgalilai":7543,"Ġparadoh":7544,"ĠService":7545,"Leh":7546,"Ġten":7547,"kamni":7548,"ainia":7549,"Ġmawrie":7550,"ĠJingdon":7551,"Ġjail":7552,"Lyng":7553,"president":7554,"Ġpn":7555,"ynin":7556,"ĠnongÃ±iah":7557,"ĠMak":7558,"Ġiohpdiang":7559,"ĠEle":7560,"ĠMari":7561,"ĠNEIG":7562,"ĠWater":7563,"Ġmynnor":7564,"Ġmidian":7565,"Ġpuh":7566,"Ġpynwai":7567,"ĠPalei":7568,"Ġmawlyngk":7569,"Ġksang":7570,"Ġhighway":7571,"Ġsyrnot":7572,"bridge":7573,"ĠMalki":7574,"ĠCitizenship":7575,"ĠLuseta":7576,"olution":7577,"Ġpajih":7578,"Ġjingpyniap":7579,"Ġiapoi":7580,"Ġrynieng":7581,"Ġjinglamphrang":7582,"100":7583,"Ġsenior":7584,"nela":7585,"utia":7586,"âĢ¢":7587,"ĠMid":7588,"Ġpaidbhur":7589,"ĠEng":7590,"Ġpynbynta":7591,"berb":7592,"Ġkhatsan":7593,"Ġjeremai":7594,"ĠNagaland":7595,"dat":7596,"Ġbut":7597,"Ġjyllaka":7598,"sic":7599,"macy":7600,"Ġwaheh":7601,"Ġjakpoh":7602,"Ġjingpluh":7603,"Ġservices":7604,"Ġtransformer":7605,"Ġkudam":7606,"72":7607,"IC":7608,"get":7609,"aring":7610,"ennai":7611,"ĠHad":7612,"bria":7613,"Ġjingpynrem":7614,"Ġmawprem":7615,"ĠPhawa":7616,"Ġmawlyngkniap":7617,"hep":7618,"mulong":7619,"Ġkhmied":7620,"Ġdamas":7621,"shaphang":7622,"ĠBun":7623,"Ġphad":7624,"Ġpata":7625,"Ġmawthadraishan":7626,"ĠOut":7627,"Ġnartiang":7628,"Ġsubject":7629,"Ġquarter":7630,"89":7631,"meng":7632,"Ġmisteri":7633,"ĠlehbeiÃ±":7634,"sil":7635,"Ġrif":7636,"Ġsngewlehrain":7637,"Ġpulom":7638,"ĠjingpynÃ¯ap":7639,"ĠKhraw":7640,"Ġincharge":7641,"Ġyo":7642,"Ġsima":7643,"Ġnongleitkurim":7644,"Ġsmat":7645,"esos":7646,"Ġjingiatip":7647,"ily":7648,"ĠLand":7649,"Ġshongnia":7650,"ĠIso":7651,"Ġkyllut":7652,"Ġkrung":7653,"ĠKurbah":7654,"Ġkatholi":7655,"pass":7656,"rot":7657,"Ġbaar":7658,"Ġhateng":7659,"Ġbadei":7660,"ĠChar":7661,"ĠAL":7662,"ĠLeh":7663,"Ġparo":7664,"Ġpynkohnguh":7665,"Ġjingthied":7666,"Ġjingthrang":7667,"Ġjingiw":7668,"Ġsanspah":7669,"Ġjingshukor":7670,"Ġtyros":7671,"Ġaward":7672,"Ġpynphong":7673,"WA":7674,"bniah":7675,"ku":7676,"nal":7677,"Ġkjp":7678,"Ġrally":7679,"enik":7680,"erica":7681,"ĠKtien":7682,"Ġlahkmen":7683,"Ġpyrsad":7684,"kita":7685,"ĠPugh":7686,"ĠHome":7687,"ĠLicen":7688,"nemsniew":7689,"Ġpynsngap":7690,"Ġjingburom":7691,"Ġ59":7692,"Ġinf":7693,"rant":7694,"Ġlebanon":7695,"Ġtribunal":7696,"Ġbahakhlieh":7697,"ĠSutnga":7698,"Division":7699,"eshon":7700,"tem":7701,"wood":7702,"Ġdip":7703,"Ġjingle":7704,"Ġprie":7705,"Ġcontainment":7706,"ĠOp":7707,"ĠPetrol":7708,"surance":7709,"sun":7710,"xy":7711,"Ġbh":7712,"Ġbil":7713,"Ġwkh":7714,"Ġkumtei":7715,"engali":7716,"ĠkhaÃ¯i":7717,"Ġcultural":7718,"dala":7719,"ĠPyngrope":7720,"ĠHouse":7721,"ĠAin":7722,"ynnah":7723,"Ġbymkohnguh":7724,"jingia":7725,"ĠBangla":7726,"ĠBabu":7727,"venue":7728,"sati":7729,"Ġsikret":7730,"Ġswer":7731,"Ġlalot":7732,"Ġmumbai":7733,"Ġroll":7734,"ĠSn":7735,"Ġculture":7736,"ĠBak":7737,"dajied":7738,"Ġgate":7739,"Ġhangtai":7740,"rear":7741,"ĠDay":7742,"ĠJaka":7743,"ĠGovernment":7744,"Ġpunjab":7745,"Ġkatholik":7746,"eo":7747,"ekh":7748,"muri":7749,"ps":7750,"Ġ;":7751,"haka":7752,"Ġhu":7753,"Ġhit":7754,"ĠHo":7755,"ĠIA":7756,"Ġpynjanai":7757,"Ġjingkhie":7758,"Ġkharpuri":7759,"Ġsyntiat":7760,"Ġephod":7761,"ĠQu":7762,"Ġdyngkhong":7763,"Ġmom":7764,"ohthiah":7765,"shyr":7766,"Ġjingiai":7767,"Ġphud":7768,"Ġmahadei":7769,"ĠPermit":7770,"ira":7771,"yiap":7772,"Ġtymp":7773,"Ġrb":7774,"langsohmoh":7775,"strum":7776,"Ġmonlang":7777,"ĠInstitute":7778,"Ġsotti":7779,"ĠTransport":7780,"Ġtechnology":7781,"luit":7782,"Ġ)":7783,"Ġhabud":7784,"âĢ¦":7785,"shtra":7786,"ĠâĢ¢":7787,"Ġriewblei":7788,"akhin":7789,"saia":7790,"Ġabimelekh":7791,"alification":7792,"bosheth":7793,"Ġhindi":7794,"ĠSimon":7795,"Ġianga":7796,"Ġtyllun":7797,"Ġkatai":7798,"Ġkynshi":7799,"kiei":7800,"ĠDum":7801,"Ã±ium":7802,"Ġlambor":7803,"inebeh":7804,"ĠMajaw":7805,"Ġkhyndailad":7806,"Ġtheisotti":7807,"Ġbishop":7808,"ĠKsiar":7809,"raduate":7810,"Ġuss":7811,"Ġloit":7812,"Ġshajan":7813,"Ġainong":7814,"Ġchallan":7815,"Ġsatar":7816,"ĠjingÃ¯ada":7817,"Ġlamin":7818,"phiw":7819,"ĠYn":7820,"Ġsecy":7821,"Ġlilam":7822,"ĠPublicity":7823,"ay":7824,"vit":7825,"Ġmrs":7826,"yment":7827,"Ġjingsma":7828,"Ġmarpyrshah":7829,"Ġpaham":7830,"Ġ5000":7831,"Ġlaitlan":7832,"Ġingkhong":7833,"Ġkharlukhi":7834,"ĠpynÃ¯oh":7835,"Ġabner":7836,"ĠSengbhalang":7837,"Ġexamin":7838,"Ġshallang":7839,"num":7840,"rkhie":7841,"Ġlor":7842,"ader":7843,"stieh":7844,"Ġksiang":7845,"ĠWitting":7846,"Ġresident":7847,"ĠBareh":7848,"Ġjingjahthait":7849,"Ġsniawbhalang":7850,"Ġmawkynrew":7851,"skor":7852,"ngmat":7853,"asuk":7854,"Ġjyllaha":7855,"Ġfran":7856,"thala":7857,"Ġjana":7858,"ghbridge":7859,"Ġliengbah":7860,"ĠLabour":7861,"Hooid":7862,"Ġkg":7863,"Ġiatylli":7864,"Ġmur":7865,"ates":7866,"Ġkhem":7867,"inar":7868,"ĠBai":7869,"khan":7870,"ungoh":7871,"Ġphyllung":7872,"Ġiakane":7873,"ĠJinglait":7874,"catam":7875,"likeshon":7876,"strument":7877,"54":7878,"gation":7879,"lynti":7880,"Ġ%":7881,"Ġnongrem":7882,"Ġnongjri":7883,"Ġchampion":7884,"ĠJen":7885,"Ġmaji":7886,"Ġsemi":7887,"ĠlynÃ±iar":7888,"Ġkorphiw":7889,"Ġorganiz":7890,"ription":7891,"corona":7892,"\".":7893,"OSE":7894,"rand":7895,"Ġkynrei":7896,"Ġnes":7897,"Ġshabong":7898,"liw":7899,"Ġjinglehkmen":7900,"Ġmask":7901,"ĠRight":7902,"low":7903,"Ġprivate":7904,"Ġronnie":7905,"heal":7906,"ĠMrk":7907,"ĠsuiÃ±bneng":7908,"68":7909,"69":7910,"bishop":7911,"ye":7912,"Ġjinglyng":7913,"ĠShar":7914,"Ġtriang":7915,"osia":7916,"Ġpynbthei":7917,"anee":7918,"Ġ67":7919,"pling":7920,"Ġbaieit":7921,"Ġbaskhem":7922,"starwell":7923,"Ġmanaging":7924,"jirem":7925,"kano":7926,"Ġkhra":7927,"Ġwitting":7928,"aliang":7929,"Ġbarli":7930,"asi":7931,"Ġskei":7932,"Ġkolkata":7933,"Ġjingpynkiew":7934,"ĠShadap":7935,"52":7936,"hn":7937,"rwiang":7938,"siej":7939,"Ġbajur":7940,"Ġtuber":7941,"iewphew":7942,"Ġcare":7943,"ĠTrip":7944,"phyrnai":7945,"Ġaj":7946,"ĠÃ¯ohthiah":7947,"hisien":7948,"Ġjingbymdon":7949,"Ġjinglute":7950,"Ġplanning":7951,"74":7952,"jngai":7953,"pw":7954,"Ġsr":7955,"arter":7956,"ynroh":7957,"khleh":7958,"ĠMon":7959,"Ġphawar":7960,"ĠCHC":7961,"ĠAhi":7962,"ĠAug":7963,"Ġteilinia":7964,"Ġregion":7965,"ĠApostol":7966,"ĠLanong":7967,"bisu":7968,"iei":7969,"Ġhala":7970,"umn":7971,"mara":7972,"ĠRyng":7973,"Ġkseh":7974,"ĠÃ¯ohkynti":7975,"ĠMawthadraishan":7976,"Ġcher":7977,"ĠLyngngam":7978,"ĠAmor":7979,"Ġsyrtap":7980,"rick":7981,"Ġ1972":7982,"bm":7983,"uei":7984,"Ġsq":7985,"Ġjri":7986,"Ġdkut":7987,"ĠÃ¯asaid":7988,"iewbein":7989,"ullam":7990,"Ġaplikeshon":7991,"olunteer":7992,"cription":7993,"kn":7994,"thew":7995,"Ġcensus":7996,"ĠBorder":7997,"ĠJam":7998,"khai":7999,"Ġauto":8000,"ĠIaw":8001,"Ġpynsawa":8002,"ĠGreen":8003,"ĠFe":8004,"Ġ85":8005,"Ġjingdonkti":8006,"ccl":8007,"Ġscreen":8008,"Ġgood":8009,"Ġtohmet":8010,"PR":8011,"TC":8012,"Ġdng":8013,"Ġnathan":8014,"Ġcec":8015,"ĠJaid":8016,"Ġsngewphylla":8017,"Ġgs":8018,"bidi":8019,"ksis":8020,"kay":8021,"ĠKedar":8022,"ĠMem":8023,"Ġvdp":8024,"Ġbakyrpang":8025,"eshbon":8026,"ĠProject":8027,"Ġinterview":8028,"Ġhistory":8029,"Ġpaiem":8030,".)":8031,"KI":8032,"Ġkale":8033,"Ġhave":8034,"Ġtliw":8035,"atei":8036,"light":8037,"ĠHous":8038,"ĠTown":8039,"udan":8040,"Ġjingpra":8041,"aitlang":8042,"ĠNongspung":8043,"Ġampati":8044,"Ġchristian":8045,"ĠKharlukhi":8046,"ĠLeague":8047,"Ġsupply":8048,"ĠStep":8049,"bytery":8050,"Ġplastic":8051,"tngen":8052,"Ġtup":8053,"talion":8054,"Ġpyrd":8055,"ĠPM":8056,"Ġmarkhap":8057,"Ġnangtei":8058,"Ġlangsning":8059,"mula":8060,"Ġ68":8061,"Ġjingshahjop":8062,"ishna":8063,"Ġmining":8064,"Ġale":8065,"shimet":8066,"Ġbethan":8067,"kasia":8068,"ĠAadhaar":8069,"Ġiapynbeit":8070,"Ġlockdown":8071,"ehi":8072,"mynt":8073,"sak":8074,"Ġtal":8075,"athar":8076,"khnam":8077,"ril":8078,"tih":8079,"ĠBos":8080,"ĠNDA":8081,"toit":8082,"thaba":8083,"ĠMawiong":8084,"ĠShri":8085,"Ġ72":8086,"Ġnarpuh":8087,"Ġbangla":8088,"lication":8089,"ĠLevel":8090,"Ġzenith":8091,"Ġpolitical":8092,"Ġtourism":8093,"Ġcabinet":8094,"Ġmynnyngkong":8095,"ĠTripura":8096,"Ġsed":8097,"Ġsodom":8098,"Ġpli":8099,"Ġshrong":8100,"khein":8101,"ĠDD":8102,"Ġsngewtriem":8103,"mati":8104,"Ġbunbah":8105,"Ġmayr":8106,"ĠGer":8107,"Ġdawbah":8108,"Ġjingteh":8109,"reement":8110,"Ġpynshit":8111,"Ġstephan":8112,"ksuid":8113,"Ġsystem":8114,"ĠReuben":8115,"diengjri":8116,"ĠOffice":8117,"ĠSoitan":8118,"Mat":8119,"nc":8120,"pe":8121,"Ġid":8122,"Ġshlem":8123,"ĠSS":8124,"ĠSk":8125,"Ġjingiakajia":8126,"Ġmarks":8127,"Ġnangmih":8128,"Ġpynjia":8129,"Ġlutksan":8130,"Ġadviser":8131,"Ġkhyrnit":8132,"harashtra":8133,"Ġliberation":8134,"Ġsuting":8135,"ĠScience":8136,"reater":8137,"ĠNCP":8138,"ĠPaiem":8139,"TA":8140,"Ġwir":8141,"ĠRural":8142,"Ġparab":8143,"Ġjingpyndonburom":8144,"Ġkhrum":8145,"Ġsohryngkham":8146,"lement":8147,"pynbeit":8148,"ĠKharkrang":8149,"ĠSaitjaiÃ±":8150,"53":8151,"62":8152,"Kim":8153,"Ġpe":8154,"Ġdy":8155,"Ġthwei":8156,"iram":8157,"thai":8158,"Ġdiengpyn":8159,"Ġtariang":8160,"Ġbomb":8161,"Ġchina":8162,"64":8163,"GS":8164,"wi":8165,"Ġneng":8166,"ney":8167,"ĠÃ¯ew":8168,"Ġkhalai":8169,"ependent":8170,"Ġkyrng":8171,"Ġkitrwiang":8172,"ĠAsh":8173,"ster":8174,"shiliang":8175,"Ġsawangka":8176,"andal":8177,"Ġlamphrang":8178,"Ġadam":8179,"Ġdirectorate":8180,"Ġjingphet":8181,"Ġhamsaia":8182,"Ġsyngkien":8183,"ĠMalngiang":8184,"ĠRongbiria":8185,"comm":8186,"nei":8187,"ryn":8188,"Ġjylli":8189,"ĠKmie":8190,"ĠHS":8191,"phylliew":8192,"Ġiingsyiem":8193,"Ġbamut":8194,"ĠBabha":8195,"Ġjingbamsap":8196,"owal":8197,"Ġnongsam":8198,"tonment":8199,"Ġtribe":8200,"saiwul":8201,"ĠMinistry":8202,"Ġjingsahkut":8203,"Ġmamla":8204,"Ġdamaskos":8205,"Phim":8206,"ving":8207,"Ġpd":8208,"Ġmit":8209,"Ġjingkyang":8210,"ĠPeoples":8211,"ĠDar":8212,"Ġarmet":8213,"chers":8214,"ĠShibidi":8215,"Ġkhatphra":8216,"Ġpangnud":8217,"fu":8218,"lumar":8219,"uaid":8220,"Ġkun":8221,"Ġnusi":8222,"Ġnongshad":8223,"ĠBneng":8224,"ĠJain":8225,"ĠAc":8226,"Ġjingpynsh":8227,"Ġjingbthei":8228,"Ġbilat":8229,"ĠPariong":8230,"Ġiashimbynta":8231,"vernor":8232,"oa":8233,"tep":8234,"Ġbari":8235,"Ġnhai":8236,"ora":8237,"tage":8238,"apan":8239,"Ġlehkai":8240,"Ġbunjait":8241,"Ġelia":8242,"Ġdrama":8243,"hanan":8244,"Ġadc":8245,"Ġbilor":8246,"ĠÃ¯aishah":8247,"Ġbyrtong":8248,"Ġbashapoh":8249,"Ġpynshahshkor":8250,"Ġmynhynin":8251,"ĠPakistan":8252,"KSU":8253,"ĠKim":8254,"Ġconstitution":8255,"asta":8256,"ĠCRD":8257,"lehse":8258,"rade":8259,"reas":8260,"Ġiapom":8261,"alore":8262,"Ġnongpyni":8263,"Ġkordit":8264,"Ġfirst":8265,"ĠDuriaw":8266,"umnuid":8267,"FA":8268,"ryngkat":8269,"Ġbajrong":8270,"onsar":8271,"ĠÃ¯uh":8272,"Ġwell":8273,"ĠSirdar":8274,"Ġphilip":8275,"Ġpathaw":8276,"ĠPun":8277,"Ġjingpynhiar":8278,"mynjur":8279,"Ġricky":8280,"hra":8281,"ngot":8282,"Ġpersia":8283,"Ġden":8284,"Ġbel":8285,"Ġmishon":8286,"ĠSuk":8287,"mart":8288,"ĠTech":8289,"ĠNangbah":8290,"ĠDu":8291,"Ġabram":8292,"icial":8293,"Ġpanpoh":8294,"Ġadkar":8295,"ĠPynban":8296,"ible":8297,"tainia":8298,"kharaÃ¯ah":8299,"Hapoh":8300,"SB":8301,"pet":8302,"Ġbajan":8303,"Ġstr":8304,"aim":8305,"Ġbest":8306,"Ġhuman":8307,"ĠSwer":8308,"ĠKI":8309,"ĠPB":8310,"ĠPra":8311,"nata":8312,"Ġkaleb":8313,"bus":8314,"sen":8315,"ĠBer":8316,"ĠUC":8317,"khad":8318,"Ġjingbeh":8319,"boklang":8320,"Ġlicence":8321,"Ġentry":8322,"Ġcontractor":8323,"ĠHesekaÃ¯ah":8324,"EO":8325,"Men":8326,"diaw":8327,"oyment":8328,"tml":8329,"Ġsig":8330,"Ġnem":8331,"Ġtian":8332,"Ġtara":8333,"ĠBhar":8334,"asnam":8335,"ĠAsher":8336,"mali":8337,"Ġlyngskor":8338,"Ġhabar":8339,"Ġfer":8340,"Ġpruid":8341,"rint":8342,"Ġshilynter":8343,"Ġjosai":8344,"ĠKolkata":8345,"Ġparabriew":8346,"88":8347,"oor":8348,"Ġsylliang":8349,"Ġucil":8350,"Ġrehoboam":8351,"Ġlongshuwa":8352,"ĠKJP":8353,"liff":8354,"Ġchairperson":8355,"Ġthut":8356,"ĠPal":8357,"ĠTom":8358,"Ġmarpoh":8359,"Ġbamja":8360,"Ġdurblei":8361,"watla":8362,"oseshon":8363,"Ġmusla":8364,"Ġtakrain":8365,"Ġmawpud":8366,"Mynba":8367,"ĠJaitbynriew":8368,"MDC":8369,"federation":8370,"nic":8371,"zo":8372,"Ġmm":8373,"Ġlg":8374,"asai":8375,"kharai":8376,"Ġpariat":8377,"Ġgolf":8378,"Ġ69":8379,"Ġdewlynnong":8380,"Ġsuchiang":8381,"Ġsimeon":8382,"Ġpynmyntoi":8383,"Ġagriculture":8384,"Ġhatmajai":8385,"oundation":8386,"Ġkonsti":8387,"ĠNepali":8388,"Ġsecretery":8389,"eil":8390,"ingbishar":8391,"Ġtat":8392,"ĠibeiÃ±":8393,"Ġnajrong":8394,"yle":8395,"Ġcas":8396,"asad":8397,"ĠNH":8398,"str":8399,"Ġmaruti":8400,"Ġshongkai":8401,"Ġjingpynlip":8402,"dcl":8403,"andi":8404,"Ġamalek":8405,"yrngia":8406,"ĠnongkhaÃ¯i":8407,"Ġcomso":8408,"ĠTeilinia":8409,"pot":8410,"Ġone":8411,"Ġtes":8412,"Ġluseta":8413,"Ġngop":8414,"Ġwiang":8415,"ĠMen":8416,"ashim":8417,"Ġjingkohnguh":8418,"ĠNaduh":8419,"udy":8420,"Ġfestival":8421,"Ġksam":8422,"Ġpyniakhlad":8423,"brij":8424,"ĠrkhiebeiÃ±":8425,"Ġpynstet":8426,"eracy":8427,"thenes":8428,"ĠPassah":8429,"06":8430,"Ġ82":8431,"band":8432,"batai":8433,"Ġbahalor":8434,"Ġhakhlieh":8435,"ington":8436,"Ġred":8437,"ukta":8438,"ĠAir":8439,"Ġmajistor":8440,"ĠjingÃ¯alang":8441,"Ġdier":8442,"Ġreshon":8443,"Ġrympei":8444,"ĠÑĹing":8445,"ĠProgram":8446,"mluh":8447,"ĠRoberts":8448,"cm":8449,"ke":8450,"khi":8451,"kieng":8452,"Ġbashan":8453,"Ġdig":8454,"Ġnur":8455,"ĠÃ¯ng":8456,"Ġhss":8457,"ĠKot":8458,"raft":8459,"ĠTr":8460,"ild":8461,"ĠRules":8462,"Ġparasnam":8463,"anesh":8464,"Ġ62":8465,"Ġislam":8466,"Ġrights":8467,"Ġjingkhaii":8468,"Ġkyrngah":8469,"77":8470,"AR":8471,"IR":8472,"ONG":8473,"Ġnaph":8474,"Ġjingkhap":8475,"ĠPan":8476,"ĠAud":8477,"ĠLy":8478,"ĠLimited":8479,"Ġlaitkor":8480,"Ġkynrup":8481,"Ġ1948":8482,"ĠJones":8483,"ĠJudia":8484,"ĠStadium":8485,"59":8486,"dom":8487,"kra":8488,"itional":8489,"ĠKit":8490,"Ġjingsop":8491,"ĠLeb":8492,"Ġumling":8493,"Ġmawbynna":8494,"ĠKharbani":8495,"Ġcomplex":8496,"bati":8497,"Ġsek":8498,"Ġpynnoh":8499,"ument":8500,"Ġshrah":8501,"amon":8502,"shken":8503,"Ġkyrain":8504,"ĠAh":8505,"ilm":8506,"iehnoh":8507,"Ġmarket":8508,"Ġ600":8509,"tant":8510,"ĠLyngkhoi":8511,"Ġjingbymlah":8512,"ĠHebron":8513,"Ġsharing":8514,"ominic":8515,"ĠLangpih":8516,"ĠJehoshaphat":8517,"ĠCorporation":8518,"09":8519,"rta":8520,"Ġmiaw":8521,"Ġwilliamnagar":8522,"khur":8523,"omo":8524,"shna":8525,"ĠMah":8526,"apur":8527,"Ġuni":8528,"ĠNongialam":8529,"ĠMegha":8530,"Ġcommand":8531,"ĠAmpati":8532,"kyntien":8533,"Ġguard":8534,"Ġjingpyndait":8535,"ashem":8536,"akah":8537,"nical":8538,"ua":8539,"wners":8540,"Ġpeter":8541,"Ġishyrkhei":8542,"Ġkyntoit":8543,"Ġshimiet":8544,"Ġali":8545,"Ġakasia":8546,"Ġjingbieit":8547,"lood":8548,"Ġplayer":8549,"knia":8550,"mel":8551,"tc":8552,"zareth":8553,"Ġsonia":8554,"Ġjingda":8555,"Ġjacatam":8556,"ĠCBI":8557,"Ġjingjaboh":8558,"nduli":8559,"2020":8560,"Ġjingring":8561,"naitang":8562,"ĠPynthor":8563,"Ġshyllangmat":8564,"arius":8565,"Ġsedekai":8566,"Ġkaw":8567,"Ġsiaw":8568,"Ġtoll":8569,"Ġine":8570,"Ġkate":8571,"utta":8572,"ĠSDO":8573,"Ġjala":8574,"ĠCC":8575,"Ġkrenbein":8576,"Ġskud":8577,"Ġejh":8578,"shisien":8579,"Ġlammihngi":8580,"Ġnongkynti":8581,"Ġtorti":8582,"CEM":8583,"RB":8584,"ĠÃ¯asoh":8585,"Ġcum":8586,"Ġcup":8587,"Ġjingkdew":8588,"ĠPnar":8589,"Ġgog":8590,"Ġjingpynkut":8591,"Ġev":8592,"Ġ1947":8593,"Ġjoash":8594,"ĠKhrn":8595,"Ġ2003":8596,"Ġnongkhai":8597,"ĠJehu":8598,"ĠRajya":8599,"akhlia":8600,"power":8601,"Ġ[":8602,"Ġdaki":8603,"Ġkynad":8604,"Ġcricket":8605,"Ġjingput":8606,"ĠCom":8607,"ĠAction":8608,"Ġkhambun":8609,"Ġsawkun":8610,"Ġcoal":8611,"Ġpynkhraw":8612,"Ġklep":8613,"2015":8614,"Ġjingaiti":8615,"Kumjuh":8616,"Ġpynriewspah":8617,"Ġbabe":8618,"Ġgoal":8619,"Namarkata":8620,"Ġtrade":8621,"ĠSeÃ¯on":8622,"Ġproduct":8623,"Ġelectric":8624,"ĠPilat":8625,"enikton":8626,"nataka":8627,"cl":8628,"Ġsyl":8629,"Ġjlan":8630,"eisoh":8631,"Ġiathir":8632,"Ġjingniew":8633,"Ġwe":8634,"ista":8635,"khreh":8636,"ocument":8637,"Ġveterinary":8638,"ĠFran":8639,"Ġchurch":8640,"ĠArunachal":8641,"Ġkaiphot":8642,"ĠTribunal":8643,"Ġkhniot":8644,"ĠRonnie":8645,"byndi":8646,"Ġishmael":8647,"Ġnongiew":8648,"ĠJSU":8649,"ĠTuber":8650,"ĠNe":8651,"ĠGroup":8652,"radhan":8653,"ĠjingÃ¯alam":8654,"Ġproberb":8655,"vey":8656,"Ġjingkyntait":8657,"Ġnaphtali":8658,"lep":8659,"olar":8660,"Ġjingkyntiew":8661,"Ġkitkhia":8662,"Ġmawroh":8663,"ekka":8664,"Ġkhrui":8665,"ĠjingÃ¯am":8666,"Ġcons":8667,"Ġlymb":8668,"Ġkhylliap":8669,"ĠBasan":8670,"ATAM":8671,"kein":8672,"skur":8673,"Ġempl":8674,"Ġhas":8675,"kal":8676,"ĠSor":8677,"ĠMad":8678,"ĠRiew":8679,"Ġjingthwet":8680,"Ġoc":8681,"Ġkhriam":8682,"Ġdeborah":8683,"Ġkhatlai":8684,"ines":8685,"Ġlegislative":8686,"Ġ1971":8687,"ĠSabbha":8688,"Ġorganising":8689,"ĠOrganisation":8690,"ĠEnglish":8691,"rting":8692,"sumar":8693,"Ġms":8694,"ĠSei":8695,"ĠKJ":8696,"uly":8697,"ĠCamp":8698,"ĠRiang":8699,"olia":8700,"hangno":8701,"Ġjingthombor":8702,"ĠFinance":8703,"round":8704,"Ġkhristmas":8705,"Ġatom":8706,"ĠInner":8707,"Ġpynitynnat":8708,"ĠTaxi":8709,"ĠCompany":8710,"Ġscreening":8711,"soi":8712,"Ġhashwa":8713,"âĢŁ":8714,"ĠPress":8715,"ĠLot":8716,"Ġpark":8717,"ĠWorld":8718,"Ġjingshet":8719,"2014":8720,"ĠBanteidor":8721,"Mano":8722,"pud":8723,"pulit":8724,"uary":8725,"Ġstang":8726,"Ġbla":8727,"Ġmccl":8728,"Ġrain":8729,"ĠÃ¯ashem":8730,"Ġhur":8731,"ishai":8732,"Ġaibor":8733,"Ġarrear":8734,"Ġjingsangeh":8735,"ĠWKH":8736,"Ġagency":8737,"Ġbosco":8738,"Ġtakma":8739,"Ġindustr":8740,"ĠÃ¯asyllok":8741,"Ġjingpyndep":8742,"ĠhesekaÃ¯ah":8743,"ĠMBOSE":8744,"deinkhlam":8745,"ĠUrban":8746,"ĠKHASI":8747,"95":8748,"bes":8749,"cis":8750,"het":8751,"ker":8752,"pres":8753,"rom":8754,"Ġwapung":8755,"ĠSon":8756,"ĠSyngk":8757,"ĠMoo":8758,"Ġmawbah":8759,"assam":8760,"ĠjaiÃ±phong":8761,"ĠbakhlaiÃ±":8762,"Ġjingpynkyntang":8763,"Ġ05":8764,"Ġrudnong":8765,"ĠÃ¯ambriew":8766,"ĠMetbah":8767,"98":8768,"gency":8769,"Ġbay":8770,"Ġbazar":8771,"Ġlan":8772,"Ġkhynr":8773,"Ġshynriah":8774,"shat":8775,"daÃ¯ah":8776,"okpot":8777,"ĠDal":8778,"ĠFood":8779,"Ġjingris":8780,"Ġadhoc":8781,"Ġrakhel":8782,"Ġantonio":8783,"ĠParish":8784,"Ġsarma":8785,"artiang":8786,"Ġiadonlang":8787,"ĠPhareng":8788,"earch":8789,"Ġmarkylliang":8790,"ĠSniawbhalang":8791,"pham":8792,"Ġruth":8793,"Ġrkhiang":8794,"ĠSil":8795,"ĠSus":8796,"ĠRyntathiang":8797,"imal":8798,"ĠGil":8799,"Ġjingsngewskhem":8800,"Ġbakhlem":8801,"ĠInspector":8802,"Ġsalonsar":8803,"ĠKynthei":8804,"Ġxii":8805,"ĠVictor":8806,"byrtha":8807,"ĠSepngi":8808,"abad":8809,"kg":8810,"ns":8811,"Ġkiaw":8812,"Ġdup":8813,"Ġnob":8814,"ĠjingÑĹ":8815,"Ġtait":8816,"awl":8817,"ĠSein":8818,"ĠPyllun":8819,"Ġelek":8820,"Ġstem":8821,"2013":8822,"Ġche":8823,"Ġpynsheptieng":8824,"Ġ2004":8825,"Ġpynmeh":8826,"Ġbenami":8827,"ĠBethel":8828,"kayukta":8829,"67":8830,"RS":8831,"jo":8832,"ktah":8833,"mla":8834,"Ġsheng":8835,"Ġdabor":8836,"epco":8837,"ĠHangta":8838,"ĠLtd":8839,"Ġjingmlien":8840,"Ġpay":8841,"Ġnongiashim":8842,"Ġfarm":8843,"Ġdewbyrtha":8844,"Ġyou":8845,"Ġbalajied":8846,"ĠSuper":8847,"Ġsabut":8848,"Ġsharma":8849,"ĠPolit":8850,"malki":8851,"ĠShallang":8852,"ĠLicense":8853,"ping":8854,"Ġrak":8855,"Ġrngad":8856,"Ġshynr":8857,"ĠSecretery":8858,"ĠKyntang":8859,"orki":8860,"ĠJN":8861,"ĠThaw":8862,"Ġproseshon":8863,"Ġkharjahrin":8864,"tynnat":8865,"Ġmaphi":8866,"Ġjingiapait":8867,"ĠPhin":8868,"Ġtimothi":8869,"Ġniewkor":8870,"atreilang":8871,"Ġbiswa":8872,"hynriew":8873,"Ġkalah":8874,"Ġlaid":8875,"Ġtyn":8876,"Ġshijur":8877,"ĠKiang":8878,"ĠAuthority":8879,"Ġgur":8880,"raiÃ±":8881,"Ġmawt":8882,"saiah":8883,"Ġjingsngewkmen":8884,"sohpen":8885,"ĠNaba":8886,"Ġmaieid":8887,"Ġ01":8888,"ĠHerod":8889,"operative":8890,"shyrpi":8891,"ĠDumbur":8892,"aj":8893,"asha":8894,"jakor":8895,"niaw":8896,"ted":8897,"Ġsynrang":8898,"Ġpiat":8899,"Ġling":8900,"Ġcur":8901,"etur":8902,"Ġjingiashong":8903,"lamler":8904,"Ġsafety":8905,"Ġarab":8906,"ĠGideon":8907,"Ġ74":8908,"Ġjingbymkohnguh":8909,"ĠÃ¯aisah":8910,"Ġthongni":8911,"erikho":8912,"ĠKyrmen":8913,"Ġmessai":8914,"Hangne":8915,"RP":8916,"yo":8917,"Ġlaka":8918,"Ġitei":8919,"Ġrc":8920,"yrkhat":8921,"ĠMoh":8922,"Ġare":8923,"phon":8924,"8230":8925,"Ġ3000":8926,"Ġjingthngan":8927,"Ġ64":8928,"Ġcenter":8929,"ganathan":8930,"Ġthanat":8931,"ĠBuilding":8932,"MB":8933,"npp":8934,"Ġpong":8935,"Ġpynthoh":8936,"kaiaw":8937,"khiat":8938,"ĠSylliang":8939,"Ġcle":8940,"ĠRicky":8941,"Ġgabriel":8942,"Ġmajaw":8943,"Ġkohath":8944,"Ġmetric":8945,"Ġ63":8946,"Ġ700":8947,"ĠjingÃ¯ohkynti":8948,"jingpyn":8949,"ĠCommander":8950,"ĠKharpuri":8951,"Ġform":8952,"Ġshangpung":8953,"tapur":8954,"Ġjonah":8955,"Ġgeorge":8956,"ĠKarbi":8957,"musiang":8958,"ĠEleasar":8959,"ev":8960,"field":8961,"gative":8962,"Ġtyndong":8963,"arch":8964,"amily":8965,"ĠMu":8966,"oke":8967,"ĠAP":8968,"lyngka":8969,"ource":8970,"ĠStar":8971,"ĠseÃ¯on":8972,"oukas":8973,"ological":8974,"ĠInternational":8975,"ordination":8976,"dul":8977,"Ġmd":8978,"Ġipc":8979,"Ġshabi":8980,"ĠKe":8981,"Ġkhawai":8982,"ĠMC":8983,"Ġjingpynj":8984,"miej":8985,"retari":8986,"larpih":8987,"Ġsati":8988,"Ġcommerce":8989,"Ġsyaid":8990,"Ġworker":8991,"Ġacademy":8992,"Ġsadok":8993,"ĠHatmajai":8994,"mda":8995,"pro":8996,"Ġbash":8997,"Ġsidon":8998,"aisah":8999,"Ġlu":9000,"ĠÃ¯athuhlypa":9001,"Ġthor":9002,"Ġjingiam":9003,"ĠJpw":9004,"ĠCr":9005,"yllen":9006,"Ġsamrkhie":9007,"Ġtipbriew":9008,"Ġ79":9009,"quir":9010,"Ġatm":9011,"eace":9012,"ĠLangsning":9013,"ĠRegional":9014,"Ġsnier":9015,"ĠMawkynrew":9016,"Ġteacher":9017,"Ġchancellor":9018,"ky":9019,"tur":9020,"ingdoh":9021,"Ġlet":9022,"yrmang":9023,"thing":9024,"ott":9025,"ĠPla":9026,"ĠCM":9027,"ĠCard":9028,"Ġshongwai":9029,"Ġadv":9030,"ĠMariang":9031,"Ġeditor":9032,"igen":9033,"ieser":9034,"shemphang":9035,"ĠLapalang":9036,"Shuwa":9037,"ucture":9038,"Ġbymdondor":9039,"hols":9040,"ĠRBYF":9041,"Ġiphieng":9042,"Ġjingpynshoi":9043,"ID":9044,"ious":9045,"Ġhab":9046,"asnoh":9047,"Ġphalang":9048,"ĠCement":9049,"Ġparking":9050,"Ġjingther":9051,"2018":9052,"Ġdef":9053,"pathai":9054,"Ġsynrem":9055,"Ġadong":9056,"Ġbyrsit":9057,"Ġkorinth":9058,"Ġshallan":9059,"Ġprotection":9060,"Ġmombati":9061,"Ġsekretari":9062,"Ġbashong":9063,"Ġsdie":9064,"Ġiabam":9065,"itee":9066,"thiaw":9067,"Ġwal":9068,"khor":9069,"ĠSyr":9070,"Ġbareh":9071,"math":9072,"Ġriewkhuid":9073,"Ġsanad":9074,"ĠjingÃ¯athuhlypa":9075,"2016":9076,"Ġbeer":9077,"istance":9078,"Ġphewse":9079,"sturdy":9080,"Ġarchbishop":9081,"63":9082,"UR":9083,"pai":9084,"phan":9085,"Ġlawar":9086,"Ġdgp":9087,"Ġiaishah":9088,"shait":9089,"sheptieng":9090,"Ġpyrthuh":9091,"Ġhiman":9092,"ĠDy":9093,"Ġrik":9094,"Ġthab":9095,"ĠADC":9096,"ĠRim":9097,"Ġbhavan":9098,"irls":9099,"iathar":9100,"ĠMawpat":9101,"Ġkurkalang":9102,"Ġjingriew":9103,"Ġlehnohei":9104,"Ġpynkupbor":9105,"ĠTax":9106,"Ġmyrsiang":9107,"Ġlongkpa":9108,"ĠUCIL":9109,"bteng":9110,"dap":9111,"sum":9112,"Ġpbm":9113,"Ġiatip":9114,"Ġceo":9115,"ĠBran":9116,"Ġpatlun":9117,"asylla":9118,"ĠAM":9119,"Ġjingjyllei":9120,"8243":9121,"edi":9122,"Ġnongialeh":9123,"Ġjingsngewrit":9124,"nergy":9125,"araÃ¯ah":9126,"Ġany":9127,"ĠArts":9128,"Ġkhongsit":9129,"Ġkyndiah":9130,"Ġnusip":9131,"AD":9132,"HLC":9133,"Shah":9134,"dai":9135,"district":9136,"Ġsebulun":9137,"nedy":9138,"Ġshyll":9139,"ĠSynshar":9140,"Ġcatholic":9141,"ĠAbi":9142,"Ġlyngngam":9143,"donia":9144,"Ġsynjor":9145,"ĠMawrie":9146,"Ġ61":9147,"Ġjinglehhok":9148,"Ġ78":9149,"Ġbuy":9150,"ursing":9151,"essor":9152,"Ġlibrary":9153,"Ġpynitynnad":9154,"tream":9155,"ĠBalaam":9156,"igenous":9157,"Kyn":9158,"card":9159,"edonia":9160,"phar":9161,"Ġkram":9162,"Ġjingap":9163,"orrah":9164,"Ġsham":9165,"Ġlongtrai":9166,"khon":9167,"ĠSah":9168,"Ġgath":9169,"Ġjingbud":9170,"ĠNongthoh":9171,"ĠFir":9172,"Ġmatti":9173,"Ġconservation":9174,"ĠOrd":9175,"Ġiasam":9176,"Ġmikah":9177,"Ġbook":9178,"ĠPyrkhat":9179,"Ġjingtiengburom":9180,"ÂłÂłÂłÂłÂłÂłÂłÂł":9181,"ĠSinai":9182,".(":9183,"Lai":9184,"bution":9185,"Ġkas":9186,"Ġbike":9187,"iere":9188,"Ġlongshwa":9189,"amendment":9190,"riday":9191,"ĠUno":9192,"Ġneepco":9193,"wanlang":9194,"arayan":9195,"Ġphetwir":9196,"Ġnongsiang":9197,"ĠInformation":9198,"ordinator":9199,"pdeh":9200,"Jaintia":9201,"hy":9202,"hya":9203,"yut":9204,"Ġkashmir":9205,"Ġtiak":9206,"Ġbjym":9207,"ĠSen":9208,"ĠSel":9209,"ĠSonia":9210,"Ġkamphylla":9211,"Ġiohnong":9212,"Ġ120":9213,"ĠHotel":9214,"ĠCol":9215,"Ġgar":9216,"Ġbakynsai":9217,"Ġemer":9218,"Ġsarang":9219,"atory":9220,"kthang":9221,"birth":9222,"ĠTournament":9223,"RAI":9224,"Sngewbha":9225,"dup":9226,"Ġkaliang":9227,"Ġpum":9228,"Ġrab":9229,"Ġnalade":9230,"erve":9231,"ĠMano":9232,"elestine":9233,"ĠJI":9234,"ĠJop":9235,"Ġmanik":9236,"Ġpynkyllon":9237,"ichols":9238,"Ġsynei":9239,"Ġsuri":9240,"wari":9241,"hury":9242,"Ġjingisih":9243,"ĠForce":9244,"ĠSecurity":9245,"Ġsohpet":9246,"ĠIslam":9247,"Ġtraffic":9248,"Ġpersonal":9249,"Ġcolony":9250,"Ġlukha":9251,"Ġtarajur":9252,");":9253,"joy":9254,"km":9255,"tymmen":9256,"Ġliew":9257,"Ġnonghiar":9258,"ynrum":9259,"shaba":9260,"apara":9261,"ĠJerikho":9262,"ĠDoktor":9263,"ĠâĢŀ":9264,"Ġgibeon":9265,"Ġlumshnong":9266,"Ġbampong":9267,"Ġriewsniew":9268,"Ġjingtuid":9269,"Ġbhoirymbong":9270,"Ġbastad":9271,"Ġpyntwa":9272,"lasnai":9273,"Ġsynnia":9274,"ĠLiberation":9275,"Ġteinwell":9276,"Ġruma":9277,"khyndiat":9278,"Ġexamination":9279,"struction":9280,"Hynnin":9281,"pol":9282,"sniang":9283,"west":9284,"Ġklass":9285,"Ġslip":9286,"kali":9287,"ĠME":9288,"Ġiohkam":9289,"ĠCustom":9290,"Ġjingsynran":9291,"ĠLym":9292,"phniaw":9293,"Ġpynpur":9294,"Ġ76":9295,"Ġamerica":9296,"row":9297,"ĠThong":9298,"hills":9299,"Ġyears":9300,"ĠStephan":9301,"bul":9302,"luh":9303,"vesti":9304,"Ġdec":9305,"ĠpynÑĸ":9306,"ated":9307,"enis":9308,"khÃ±":9309,"shiang":9310,"yllien":9311,"Ġpali":9312,"treikam":9313,"Ġfish":9314,"muganathan":9315,"ephthah":9316,"alehkai":9317,"asaÃ¯ah":9318,"Ġregistration":9319,"Ġmineral":9320,"Ġkadaw":9321,"Ġpynphuh":9322,"Ġsiangshai":9323,"chamati":9324,"Ġkilometre":9325,"Ġjesse":9326,"ĠPyndap":9327,"08":9328,"umsnam":9329,"Ġnongmane":9330,"Ġsngika":9331,"Ġjingkyntur":9332,"ĠHind":9333,"Ġpynjynsur":9334,"Ġlapbah":9335,"Ġamos":9336,"Ġconference":9337,"Ġpyntuid":9338,"Ġlawsohtun":9339,"Ġkrist":9340,"tyrnga":9341,"kherjee":9342,"ĠPunjab":9343,"mem":9344,"Ġbahai":9345,"Ġpam":9346,"Ġmyng":9347,"Ġwhi":9348,"ĠSain":9349,"ĠMumbai":9350,"ĠBal":9351,"ĠCultural":9352,"teg":9353,"Ġvolunteer":9354,"Ġjingtur":9355,"ghmara":9356,"jingmut":9357,"Ġkhyrim":9358,"ĠChristian":9359,"Ġhearing":9360,"ĠÑĹoh":9361,"Ġgovt":9362,"Ġnombor":9363,"yanmar":9364,"genstar":9365,"ĠJACATAM":9366,"Ġbapawnam":9367,"Ġjingkordit":9368,"Ġtupia":9369,"lon":9370,"rukom":9371,"zawl":9372,"Ġpet":9373,"Ġhand":9374,"Ġialeit":9375,"Ġnrc":9376,"Ġio":9377,"ĠSem":9378,"uki":9379,"Ġlehhok":9380,"kill":9381,"ĠNon":9382,"ĠChan":9383,"Ġumkiang":9384,"Ġelectoral":9385,"ĠNongrem":9386,"ĠWilliamnagar":9387,"jarat":9388,"ĠFIR":9389,"ĠCher":9390,"paring":9391,"Ġbajylliew":9392,"Ġneso":9393,"Ġhimanta":9394,"Pha":9395,"kid":9396,"xed":9397,"Ġbalieh":9398,"hari":9399,"Ġdes":9400,"Ġjinglyn":9401,"Ġrhah":9402,"Ġshop":9403,"ĠTem":9404,"stai":9405,"trew":9406,"Ġgibeah":9407,"Ġlangrin":9408,"buli":9409,"Ġpollution":9410,"ĠÃ¯ailong":9411,"Ġsying":9412,"Ġ1973":9413,"ristmas":9414,"jiniar":9415,"ĠGalilaÃ¯a":9416,"leng":9417,"rb":9418,"rein":9419,"Ġsbak":9420,"Ã¯ada":9421,"Ġhosia":9422,"ynring":9423,"ĠShab":9424,"ĠChampion":9425,"ĠLP":9426,"php":9427,"Ġshimpor":9428,"Ġ2022":9429,"Ġ89":9430,"Ġkharsyntiew":9431,"ĠYo":9432,"Ġsoil":9433,"ĠSamson":9434,"ketball":9435,"myntri":9436,"Ġpatharkhmah":9437,"Ġjones":9438,"chay":9439,"ĠShaphrang":9440,"Ġmaitphang":9441,"Ġsnohkti":9442,"Ġauditorium":9443,"Ġmodel":9444,"ĠProgramme":9445,";)":9446,"IV":9447,"cb":9448,"ves":9449,"Ġjebus":9450,"Ġlist":9451,"Ġioannis":9452,"Ġrus":9453,"anujor":9454,"Ġwhat":9455,"ame":9456,"lig":9457,"Ġtruck":9458,"Ġshongs":9459,"harai":9460,"Ġjingdiah":9461,"Ġprem":9462,"Ġkharkhana":9463,"ĠPariat":9464,"Ġmua":9465,"ĠNamarkata":9466,"tification":9467,"Ġboas":9468,"ĠChild":9469,"ĠPBM":9470,"YWO":9471,"can":9472,"Ġkdang":9473,"Ġlashem":9474,"neum":9475,"ĠNartiang":9476,"ĠCAB":9477,"ĠLo":9478,"ĠLiang":9479,"Ġshimei":9480,"mawphlang":9481,"Ġ94":9482,"Ġtynruh":9483,"Ġyour":9484,"ointment":9485,"Ġsekharai":9486,"kanah":9487,"ĠMagistrate":9488,"ĠBranch":9489,"ĠOrdinance":9490,"Ho":9491,"acc":9492,"Ġsqu":9493,"Ġuttar":9494,"thmu":9495,"Ġnongkam":9496,"Ġnongdih":9497,"Ġthlen":9498,"app":9499,"Ġtre":9500,"Ġkyrni":9501,"ĠPom":9502,"ĠCEC":9503,"ĠAra":9504,"ĠLit":9505,"ĠIC":9506,"Ġpyndkut":9507,"ĠKhanapara":9508,"Ġlaitlyngkot":9509,"ubi":9510,"tament":9511,"Ġspain":9512,"Ġaman":9513,"ateg":9514,"Ġkhongwir":9515,"Ġshangkai":9516,"Ġshiloh":9517,"ĠZone":9518,"ĠTariang":9519,"Ġnor":9520,"aign":9521,"Ġita":9522,"onal":9523,"ancy":9524,"Ġthiar":9525,"Ġpariong":9526,"Ġgen":9527,"Ġmandal":9528,"Ġpac":9529,"Ġpyniapher":9530,"estar":9531,"babel":9532,"rims":9533,"Ġalex":9534,"ĠSohryngkham":9535,"ĠAmit":9536,"Ġkhaddar":9537,"Ġnongaiktien":9538,"ĠBarim":9539,"ĠSport":9540,"Ġjingkamai":9541,"Ġjingpalat":9542,"ĠHistori":9543,"ĠNIAM":9544,"xygen":9545,"knor":9546,"Ġdngiem":9547,"oliath":9548,"58":9549,"96":9550,"mg":9551,"Ġjhalupara":9552,"Ġpneum":9553,"Ġdoloi":9554,"Ġnec":9555,"urant":9556,"ĠCertificate":9557,"ĠAT":9558,"ĠAsa":9559,"ĠLyngk":9560,"phor":9561,"Ġmaharashtra":9562,"Ġjingpynbha":9563,"Ġsurokbah":9564,"ĠShyllong":9565,"Ġdeal":9566,"tynnad":9567,"ĠArch":9568,"ĠSengkmie":9569,"Ġ371":9570,"priah":9571,"ĠPlanning":9572,"ĠShekhem":9573,"ĠJeremaÃ¯ah":9574,"Ġburia":9575,"Ġmrssa":9576,"Ġjingkhapngiah":9577,"Ġbatip":9578,"hasaÃ¯ah":9579,"Ġsleh":9580,"Ġsiar":9581,"arai":9582,"Ġpynleh":9583,"Ġshel":9584,"thung":9585,"Ġcap":9586,"Ġtreas":9587,"ĠDM":9588,"Ġarmy":9589,"Ġsohkh":9590,"Ġproh":9591,"Ġ71":9592,"Ġ800":9593,"Ġkharkamni":9594,"ĠAdviser":9595,"ĠLebanon":9596,"Ġasia":9597,"Ġisai":9598,"Ġworkers":9599,"Ġjingitynnat":9600,"Ġbye":9601,"ĠMidian":9602,",âĢĻ":9603,"ahati":9604,"bjp":9605,"congress":9606,"graph":9607,"oud":9608,"haim":9609,"lashai":9610,"Ġhalade":9611,"ĠjingÃ±iew":9612,"Ġiv":9613,"Ġngiam":9614,"Ġshikyntien":9615,"ĠMordekai":9616,"ĠUs":9617,"Ġjingiather":9618,"Ġmedit":9619,"ĠTer":9620,"ipathar":9621,"olding":9622,"Ġphyrng":9623,"Ġsyiemship":9624,"Ġliangsynshar":9625,"thari":9626,"shibun":9627,"inema":9628,"very":9629,"Ġramhah":9630,"Ġ2001":9631,"hadar":9632,"Ġcorp":9633,"Ġnongshimwai":9634,"YMB":9635,"Ġkhathynriew":9636,"DS":9637,"TE":9638,"Ġlal":9639,"Ġbir":9640,"ania":9641,"Ġdonald":9642,"Ġnongtong":9643,"Ġngab":9644,"she":9645,"ĠMass":9646,"ĠPaid":9647,"Ġmesh":9648,"ĠAD":9649,"Ġjingsyier":9650,"Ġgener":9651,"Ġpynbuaid":9652,"Ġiingbishar":9653,"ssar":9654,"Ġdrdon":9655,"ĠjingÃ¯akajia":9656,"ĠKumjuh":9657,"Ġresearch":9658,"Ġissakhar":9659,"Ġadministrator":9660,"71":9661,"In":9662,"khih":9663,"Ġste":9664,"ynÃ±iuh":9665,"Ġkhymdeit":9666,"Ġsho":9667,"ĠÃ¯along":9668,"yllaw":9669,"Ġwanniang":9670,"ĠPeter":9671,"ĠTYN":9672,"ĠDak":9673,"Ġjingpynia":9674,"Ġjingjubab":9675,"Ġbniap":9676,"tian":9677,"Ġ73":9678,"Ġmatrik":9679,"Ġjingbymhok":9680,"Ġ250":9681,"Ġmanga":9682,"Ġremdor":9683,"dua":9684,"Ġbashabar":9685,"ĠEnvironment":9686,"Ġresolution":9687,"Ġteinwel":9688,"ĠDamas":9689,"Ġiwtung":9690,"ĠOphis":9691,"%.":9692,"Saw":9693,"TO":9694,"Uei":9695,"bylla":9696,"fi":9697,"rwai":9698,"sop":9699,"skum":9700,"Ġpeoples":9701,"Ġtngit":9702,"Ġtasam":9703,"Ġmeng":9704,"ating":9705,"Ġkhutia":9706,"ĠSYMB":9707,"Ġuban":9708,"Ġmynha":9709,"ĠPolicy":9710,"Ġphase":9711,"ĠJkhÃ±":9712,"Ġsatang":9713,"Ġjingpynshlur":9714,"ghan":9715,"ĠjingÃ¯aid":9716,"Ġmotion":9717,"Ġbalak":9718,"Ġtari":9719,"samthiah":9720,"essional":9721,"Ġjyrsieh":9722,"ĠTrading":9723,"Ġklongsnam":9724,"Ġnemsniew":9725,"Ġpneumonia":9726,"jen":9727,"mynsaw":9728,"pait":9729,"suid":9730,"Ġkno":9731,"Ġbaphylla":9732,"Ġjinglip":9733,"Ġnaga":9734,"taurant":9735,"Ġshond":9736,"itendent":9737,"ynrem":9738,"adu":9739,"ĠBeh":9740,"Ġbarnabas":9741,"Ġjingmad":9742,"eder":9743,"ĠNongrim":9744,"ĠWilliam":9745,"astar":9746,"Ġkyllan":9747,"Ġinsurance":9748,"ishni":9749,"ĠJingia":9750,"Ġpharmacy":9751,"ialis":9752,"ibon":9753,"ĠAbimelekh":9754,"Meghalaya":9755,"Ġenforcement":9756,"erika":9757,"Ġjudge":9758,"Ġesra":9759,"Ġkhanas":9760,"ĠBihar":9761,"ĠTyros":9762,"ĠTeachers":9763,"pdf":9764,"Ġbalamler":9765,"Ġul":9766,"ynjor":9767,"Ġner":9768,"Ġjingrah":9769,"nest":9770,"ĠBJ":9771,"ĠPeit":9772,"ĠAk":9773,"Ġlyngd":9774,"Ġlyngngai":9775,"yntip":9776,"ĠWapung":9777,"diangdiang":9778,"Ġdeath":9779,"ilee":9780,"earim":9781,"052021":9782,"ĠBethlehem":9783,"ĠLongkmie":9784,"Ġmiss":9785,"Ġdhs":9786,"Ġnongjngoh":9787,"ĠTYNRAI":9788,"pon":9789,"pep":9790,"ywo":9791,"Ġktha":9792,"Ġkilan":9793,"lath":9794,"Ġrowel":9795,"nehas":9796,"Ġkharai":9797,"Ġcialis":9798,"Ġpatar":9799,"ient":9800,"ĠPump":9801,"raj":9802,"Ġjyllahaba":9803,"ĠClass":9804,"Ġumkhrah":9805,"palat":9806,"Ġpynsa":9807,"Ġpynsep":9808,"istribution":9809,"Ġtower":9810,"ĠjingÃ¯aishah":9811,"ĠCommunity":9812,"101":9813,"ĠDeborah":9814,"Ġuriah":9815,"anaÃ¯ah":9816,"ĠKhongwir":9817,"Ġkynjang":9818,"Ġsosthenes":9819,"Ġtablet":9820,"Lyngba":9821,"Ġuniform":9822,")-":9823,"ahas":9824,"vind":9825,"bakla":9826,"Ġjynr":9827,"Ġjinghun":9828,"Ġiss":9829,"atphoh":9830,"uma":9831,"orkha":9832,"ĠDew":9833,"Ġjingsuh":9834,"ĠRil":9835,"ynnud":9836,"Ġgames":9837,"Ġjingpynsngew":9838,"Ġjingkhyllem":9839,"hoir":9840,"ĠVDP":9841,"Ġresources":9842,"Ġtyrnem":9843,"Ġsheba":9844,"Ġbharati":9845,"ĠOutpost":9846,"ĠCharles":9847,"Ġshondur":9848,"Bah":9849,"Ġkain":9850,"Ġbajam":9851,"Ġria":9852,"ĠÃ¯ateh":9853,"Ġwit":9854,"ĠSnem":9855,"Ġthie":9856,"uld":9857,"ukan":9858,"ĠTra":9859,"ĠDGP":9860,"hange":9861,"ather":9862,"Ġvehi":9863,"jingtip":9864,"Ġnongbet":9865,"Ġmoo":9866,"Ġthir":9867,"ebel":9868,"laskein":9869,"Ġsecond":9870,"ĠsaiÃ±pyrthei":9871,"Ġiuhroit":9872,"Ġvalley":9873,"Ġpyrdain":9874,"ĠSYMBAI":9875,"The":9876,"UDP":9877,"jem":9878,"Ġtv":9879,"Ġmath":9880,"Ġpynngam":9881,"Ã¯athuh":9882,"Ġward":9883,"shaw":9884,"ĠBible":9885,"ĠAward":9886,"Ġtangon":9887,"Ġumran":9888,"och":9889,"Ġiingsah":9890,"Ġnehem":9891,"Ġedmund":9892,"onomic":9893,"ĠÃıoan":9894,"Ġbakhrawbor":9895,"Ġmyrthong":9896,"Ġsianti":9897,"ĠSuting":9898,"ĠJaidbynriew":9899,"ĠShabong":9900,"Ġmediterranian":9901,"HS":9902,"Ula":9903,"au":9904,"dung":9905,"tu":9906,"Ġom":9907,"Ġsti":9908,"Ġsto":9909,"ongsan":9910,"ynnong":9911,"Ġnos":9912,"Ġlud":9913,"Ġish":9914,"inam":9915,"ĠBh":9916,"Ġjingialum":9917,"Ġjingiaiaid":9918,"ĠHSS":9919,"ĠCan":9920,"Ġthamula":9921,"Ġumpling":9922,"Ġachik":9923,"Ġjingpynwit":9924,"ĠGabriel":9925,"Ġnalorkata":9926,"Ġnongpynbaptis":9927,"raining":9928,"CCL":9929,"ĠIsaiah":9930,"ĠZenith":9931,"Ġcandidate":9932,"Jubab":9933,"kyntang":9934,"mc":9935,"lag":9936,"Ġpand":9937,"Ġwine":9938,"ĠSection":9939,"ĠCulture":9940,"Ġumden":9941,"Ġmartin":9942,"hary":9943,"ĠNongt":9944,"Ġvivek":9945,"pluh":9946,"Ġ84":9947,"Ġshohdoh":9948,"Ġjunior":9949,"ĠÃ±iah":9950,"Ġpenal":9951,"ĠNehru":9952,"ĠSkul":9953,"quiry":9954,"ategory":9955,"main":9956,"xing":9957,"Ġkajia":9958,"Ġbath":9959,"Ġiashem":9960,"ingut":9961,"atkum":9962,"Ġnongmensong":9963,"ĠHel":9964,"ĠDistrik":9965,"ĠLak":9966,"Ġnegative":9967,"Ġaff":9968,"ikai":9969,"nder":9970,"Ġnongshken":9971,"ĠjingÃ¯ateh":9972,"hadem":9973,"Ġjingbat":9974,"Ġpynphieng":9975,"ĠDirectorate":9976,"Ġsuinbneng":9977,"ĠÃ¯asiat":9978,"Ġapplication":9979,"Ġmahajon":9980,"Ġliter":9981,"ĠKhyrdop":9982,"Ġphyrngap":9983,"Ed":9984,"MA":9985,"Ġninebeh":9986,"ĠkhÃ±ium":9987,"unior":9988,"uru":9989,"ĠSier":9990,"Ġjulius":9991,"Ġaap":9992,"Ġborn":9993,"Ġvot":9994,"ube":9995,"Ġnongbuh":9996,"ĠSohtun":9997,"iuma":9998,"ĠLambor":9999,"ĠĉĠ":10000,"ĠRegulation":10001,"Ġjesreel":10002,"ĠgalilaÃ¯a":10003,"Ġsuidniew":10004,"Ġjanata":10005,"ĠBosco":10006,"omotion":10007,"bel":10008,"jeng":10009,"pra":10010,"Ìģ":10011,"Ġkiu":10012,"Ġblood":10013,"tachar":10014,"Ã¯an":10015,"Ġshiwat":10016,"Ġsngaid":10017,"ĠSiang":10018,"ĠPre":10019,"ĠNet":10020,"ĠCO":10021,"sting":10022,"Ġmarsien":10023,"Ġkynther":10024,"Ġpynkhuslai":10025,"chen":10026,"Ġvec":10027,"bunsien":10028,"stitution":10029,"endipathar":10030,"Ġkolom":10031,"ĠAdam":10032,"ĠAbner":10033,"gypt":10034,"Ġmispah":10035,"07":10036,"300":10037,"jel":10038,"phah":10039,"Ġjingrem":10040,"taw":10041,"isoh":10042,"iskam":10043,"ĠDolloi":10044,"Ġymdon":10045,"tein":10046,"Ġskain":10047,"chum":10048,"iving":10049,"Ġnongshnong":10050,"odo":10051,"ĠShuwa":10052,"ĠLegislative":10053,"Ġcomputer":10054,"ĠjeremaÃ¯ah":10055,"Ġasherah":10056,"ĠKristan":10057,"61":10058,"NSB":10059,"kel":10060,"uf":10061,"Ġkohli":10062,"bain":10063,"Ġryns":10064,"Ġnongbatai":10065,"ĠSyl":10066,"ĠKad":10067,"shun":10068,"Ġummulong":10069,"Ġnangroi":10070,"Ġriewshimet":10071,"rene":10072,"ĠjingÃ¯aineh":10073,"Ġbakur":10074,"bili":10075,"Ġconv":10076,"Ġkhyrwait":10077,"Ġ1873":10078,"ostar":10079,"Ġsikh":10080,"ecretaries":10081,"Ġenglish":10082,"(&#":10083,"?âĢĻ":10084,"prem":10085,"tember":10086,"Ġsyng":10087,"Ġpyl":10088,"Ġhadr":10089,"Ġrowell":10090,"tawar":10091,"Ġnongbam":10092,"Ġwilliam":10093,"asthan":10094,"ĠNathan":10095,"Ġmawkyr":10096,"ĠEdit":10097,"Ġoxygen":10098,"Ġelektrik":10099,"abil":10100,"Ġdulan":10101,"Ġjingailad":10102,"Ġ2002":10103,"ucational":10104,"niamtra":10105,"Ġcompound":10106,"riage":10107,"Ġephesos":10108,"tics":10109,"skul":10110,"Ġchannel":10111,"Ġiasnohkti":10112,"Ġlyngdkhur":10113,"NSBH":10114,"84":10115,"akim":10116,"secretary":10117,"vk":10118,"Ġath":10119,"Ġkais":10120,"bait":10121,"Ġsbi":10122,"Ġbada":10123,"Ġshrip":10124,"Ġshain":10125,"ĠSW":10126,"ĠKpong":10127,"shym":10128,"esron":10129,"ĠDom":10130,"ĠDik":10131,"Ġrijiju":10132,"ĠCEO":10133,"Ġmaki":10134,"Ġiathuhlypa":10135,"Ġsanjay":10136,"Ġjingbymbiang":10137,"ardar":10138,"kyrteng":10139,"Ġjingphylla":10140,"ĠDonbok":10141,"Ġjingiathuhlypa":10142,"napdeng":10143,"Ġdisaster":10144,"Ġmichael":10145,"Ġmepdcl":10146,"ggai":10147,"PS":10148,"chan":10149,"Ġkei":10150,"ngop":10151,"Ġkal":10152,"Ġhamath":10153,"kawang":10154,"ini":10155,"Ġsngiha":10156,"Ġjingiapyni":10157,"Ġjingkynrei":10158,"ĠTraining":10159,"ĠAli":10160,"Ġjingsbun":10161,"Ġlynga":10162,"eston":10163,"Ġtamil":10164,"ĠKita":10165,"Ġchennai":10166,"Ġmemorial":10167,"Ġsarah":10168,"ĠLambok":10169,"ĠNESO":10170,"chine":10171,"olarship":10172,"ĠshongsaiÃ±":10173,"Ġhadrian":10174,"EL":10175,"nyngkong":10176,"rian":10177,"rupang":10178,"Ġsmart":10179,"ailong":10180,"Ġbyllien":10181,"hima":10182,"Ġili":10183,"Ġrock":10184,"ned":10185,"ature":10186,"ĠSK":10187,"Ġjingiapynbeit":10188,"dak":10189,"ĠPoint":10190,"sir":10191,"Ġshongshngain":10192,"Ġgod":10193,"Ġgrant":10194,"Ġjingbei":10195,"Ġjingdup":10196,"Ġbakmen":10197,"HAI":10198,"rated":10199,"Ġtyrpad":10200,"Ġneigh":10201,"ĠManagement":10202,"Ġrikod":10203,"ghanistan":10204,"ĠBJYM":10205,"02":10206,"dsta":10207,"mission":10208,"oda":10209,"ngaid":10210,"laganj":10211,"Ġuh":10212,"Ġladon":10213,"Ġiadih":10214,"Ġiatyngkhuh":10215,"Ġjinghi":10216,"Ġpyntr":10217,"ening":10218,"Ġwrit":10219,"ĠCell":10220,"ĠApp":10221,"ĠÃ¯ohknieh":10222,"Ġbattalion":10223,"hisynei":10224,"Ġjingtied":10225,"Ġ77":10226,"Ġanglong":10227,"Ġnehru":10228,"lling":10229,".......":10230,"Ġpresbytery":10231,"Ġjaipdeh":10232,"Ġtime":10233,"ĠRegion":10234,"Ġsunn":10235,"Ġdiocese":10236,"Ġcharge":10237,"Ġsikkim":10238,"Ġincome":10239,"Ġtympew":10240,"ĠRights":10241,"Ġbethany":10242,"ĠdiengpynÃ¯eng":10243,"'m":10244,"sdang":10245,"uda":10246,"Ġranee":10247,"Ġpyndei":10248,"Ġngain":10249,"ering":10250,"ĠSm":10251,"ĠSik":10252,"ĠNas":10253,"Ġkhunblang":10254,"Ġjingsiat":10255,"Ġmay":10256,"Ġnongiaid":10257,"Ġpynias":10258,"Ġstone":10259,"Ġcommitee":10260,"Ġjingkyrhuh":10261,"Ġ87":10262,"ĠnongÃ¯ada":10263,"Ġpyntlot":10264,"kyrdem":10265,"ĠControl":10266,"Ġpurew":10267,"Ġjingshimkhia":10268,"Ġ1980":10269,"Ġiaryngkat":10270,"Ġrapsang":10271,"Ġjingpahara":10272,"Ġepic":10273,"Hangno":10274,"Soh":10275,"cen":10276,"Ġjlang":10277,"Ġlawan":10278,"Ġlaingut":10279,"Ġhal":10280,"Ġjingthaba":10281,"Ġbengali":10282,"Ġrek":10283,"Ġnas":10284,"Ġhylla":10285,"ĠBnai":10286,"ĠDk":10287,"ĠLower":10288,"Ġmarwet":10289,"ode":10290,"Ġpynjaboh":10291,"Ġstore":10292,"Ġkynriang":10293,"Ġleilei":10294,"ĠOC":10295,"quarter":10296,"nboard":10297,"kynhun":10298,"Ġjinghuri":10299,"chard":10300,"ĠProt":10301,"ticulture":10302,"Ġsihon":10303,"Ġgilgal":10304,"Ġjinglehisynei":10305,"vestigation":10306,"1000":10307,"ci":10308,"ristan":10309,"Ġkthaw":10310,"Ġjingiajan":10311,"Ġril":10312,"Ġsamlin":10313,"Ġpaki":10314,"Ġjingpynbaptis":10315,"Ġlangrut":10316,"ĠKashmir":10317,"Ġfree":10318,"Ġapthap":10319,"Ġemri":10320,"Ġplate":10321,"Ã¯akim":10322,"Ġmush":10323,"Ġplant":10324,"Ġchand":10325,"Ġjoshi":10326,"ĠTrans":10327,"idavit":10328,"Ġsslc":10329,"Ġrasong":10330,"ĠThongni":10331,"Ġbahaiing":10332,"87":10333,"dan":10334,"of":10335,"Ġsning":10336,"Ġjl":10337,"Ġix":10338,"Ġpynngeit":10339,"ÌĪâĢĿ":10340,"opo":10341,"harkhand":10342,"Ġklumar":10343,"athuhkhana":10344,"ĠPhilip":10345,"ĠNongsiang":10346,"olden":10347,"ĠKhyrim":10348,"Ġexcise":10349,"Ġorganization":10350,"BA":10351,"Lum":10352,"dyn":10353,"top":10354,"Ġkri":10355,"Ġkrat":10356,"Ġdraft":10357,"Ġiat":10358,"Ġmreng":10359,"Ġlyntang":10360,"Ġichamati":10361,"ĠSenior":10362,"ihon":10363,"naÃ¯ah":10364,"ĠRC":10365,"Ġsngewbit":10366,"Ġshongknor":10367,"Ġshympriah":10368,"ĠsynÃ±iang":10369,"ĠEh":10370,"Ġ125":10371,"Ġreb":10372,"ĠUmsoh":10373,"ĠSten":10374,"ĠLaitkor":10375,"Ġenjiniar":10376,"ĠPatsha":10377,"ĠExc":10378,"ĠPoetry":10379,"HN":10380,"tech":10381,"Ġbasngew":10382,"lari":10383,"Ġbthuh":10384,"Ġpynman":10385,"atainia":10386,"isera":10387,"ĠSngewbha":10388,"ĠKohli":10389,"Ġbrieu":10390,"etri":10391,"Ġtrust":10392,"Ġrichard":10393,"Ġgraduate":10394,"yndiang":10395,"ĠWal":10396,"Ġbatbit":10397,"Ġinj":10398,"ĠUmsaw":10399,"ĠKatno":10400,"Ġjakoid":10401,"ontep":10402,"Ġkhyndaiphew":10403,"ĠAntonio":10404,"ĠNoah":10405,"rynghep":10406,"ĠKhyndailad":10407,"Ġhadad":10408,"UDA":10409,"ngt":10410,"Ġbaphyrnai":10411,"uhroit":10412,"ĠSum":10413,"ĠCity":10414,"upta":10415,"tamia":10416,"ĠShil":10417,"Ġseminar":10418,"Ġbakhlain":10419,"ĠKongsan":10420,"Ġrangdajied":10421,"ĠaÃ¯om":10422,"Ġbynda":10423,"cause":10424,"ĠSuchiang":10425,"ĠJosaÃ¯ah":10426,"Ġjyndat":10427,"ĠASHA":10428,"Ġrifle":10429,"ĠDamaskos":10430,"opotamia":10431,"cing":10432,"ger":10433,"ÌĤ":10434,"Ġkab":10435,"Ġbaki":10436,"Ġialumlang":10437,"Ġmiller":10438,"Ġkhyllai":10439,"Ġwjh":10440,"Ġshida":10441,"ĠSI":10442,"ĠBud":10443,"nongbylla":10444,"Ġkyrdon":10445,"Ġhis":10446,"dab":10447,"ĠPrint":10448,"ĠJana":10449,"haram":10450,"Kita":10451,"Ġamasai":10452,"ĠpynÃ¯asoh":10453,"buin":10454,"Ġjingpyrkhing":10455,"Ġweighbridge":10456,"ĠAnti":10457,"ĠNongpynim":10458,"khyndew":10459,"Khasi":10460,"dod":10461,"ksha":10462,"halang":10463,"Ġjoram":10464,"Ġtista":10465,"Ġmg":10466,"Ġlup":10467,"Ġib":10468,"Ġroh":10469,"ĠÃ¯amih":10470,"Ġlongdien":10471,"Ġkanbas":10472,"ĠBynta":10473,"ĠHuman":10474,"ĠTen":10475,"siness":10476,"Ġmarcus":10477,"Ġpatan":10478,"Ġjingpynbor":10479,"Ġmawngap":10480,"Ġmawthabah":10481,"league":10482,"Ġpanmap":10483,"ramer":10484,"roy":10485,"Ġprovin":10486,"Ġjahburom":10487,"Ġnongsiat":10488,"ĠAdministr":10489,"Ġpynthud":10490,"ĠDaju":10491,"Ġpynshongshit":10492,"Ġnews":10493,"ĠHaman":10494,"cherra":10495,"ĠMawprem":10496,"ĠTeinwell":10497,"ĠAcademy":10498,"tegrated":10499,"PM":10500,"hung":10501,"ifer":10502,"Ġuda":10503,"iajer":10504,"Ġtom":10505,"Ġtlai":10506,"Ġnan":10507,"kap":10508,"Ġdal":10509,"Ġhol":10510,"tim":10511,"aloni":10512,"Ġjingkyndit":10513,"Ġdanggo":10514,"ĠLane":10515,"ĠRab":10516,"ĠIPC":10517,"Ġsyiemiong":10518,"ustine":10519,"Ġpynsuba":10520,"ocate":10521,"Ġpynkhynn":10522,"Ġphaikhmat":10523,"Ġsohniamtra":10524,"Ġjingtest":10525,"Ġbudlum":10526,"Ġpleng":10527,"Ġ95":10528,"Ġlyngkdop":10529,"ĠkhlaiÃ±bor":10530,"ĠKurkalang":10531,"Ġbolero":10532,"Ġboys":10533,"ĠJudas":10534,"Ġkjit":10535,"ĠJING":10536,"Ġtreasurer":10537,"ILP":10538,"hyc":10539,"Ġkip":10540,"Ġjas":10541,"Ġdominic":10542,"Ġhasa":10543,"Ġmuster":10544,"Ġlib":10545,"Ġnazareth":10546,"Ġpynmatlah":10547,"Ġheshbon":10548,"Ġwel":10549,"esto":10550,"Ġtriem":10551,"Ġjingkthang":10552,"ĠHu":10553,"ĠJail":10554,"ĠRel":10555,"upur":10556,"Ġmardih":10557,"Ġjingpynthymmai":10558,"Ġod":10559,"Ġriewshlur":10560,"able":10561,"Ġklob":10562,"gene":10563,"adav":10564,"Ġiewmawlong":10565,"Ġwestern":10566,"ustur":10567,"ĠAmalek":10568,"ĠnongpynÃ¯ap":10569,"Ġkerala":10570,"ĠNEE":10571,"Ġmerari":10572,"mlien":10573,"Ġjingiatiplem":10574,"ĠBaibl":10575,"HO":10576,"Shim":10577,"gate":10578,"suiÃ±":10579,"tiar":10580,"baki":10581,"Ġkilah":10582,"Ġtie":10583,"hibosheth":10584,"Ġpynlyng":10585,"Ġkhnap":10586,"ĠBA":10587,"ĠPhim":10588,"Ġpaidbahu":10589,"ĠRowel":10590,"yngkang":10591,"hard":10592,"Ġbnoh":10593,"ĠEJH":10594,"Ġsohk":10595,"ĠShim":10596,"Ġ88":10597,"endro":10598,"ĠArmy":10599,"Ġbridge":10600,"ĠtaÃ¯":10601,"ĠLamphrang":10602,"Ġpasiaw":10603,"Ġmissionary":10604,"ĠTribe":10605,"Ġsirdarship":10606,"ĠDuitara":10607,"Ġjingrisain":10608,"94":10609,"madan":10610,"sait":10611,"lano":10612,"Ġsnap":10613,"Ġsudan":10614,"Ġjlih":10615,"Ġrgh":10616,"online":10617,"Ġnaomi":10618,"tho":10619,"ĠMul":10620,"bormi":10621,"ĠAmen":10622,"wali":10623,"style":10624,"Ġsngewthikna":10625,"Ġshongsah":10626,"ekiel":10627,"Ġdorphang":10628,"ĠGS":10629,"ĠNongjri":10630,"Ġpynjakhlia":10631,"Ġjingshahshitom":10632,"ĠjingÃ¯atiplem":10633,"Ġkarnataka":10634,"Ġabel":10635,"Ġsubjek":10636,"essaloni":10637,"Ġagreement":10638,"Ġjemnud":10639,"Ġposts":10640,"india":10641,"Ġabijah":10642,"regs":10643,"Ġbharatiya":10644,"Ġnasareth":10645,"dawa":10646,"vak":10647,"Ġpneh":10648,"Ġjingiehnoh":10649,"Ġrwiang":10650,"Ġshyllong":10651,"Ġnongn":10652,"ĠKito":10653,"Ġkhate":10654,"ĠBis":10655,"ashi":10656,"ĠAJ":10657,"Ġarun":10658,"tructure":10659,"Ġsngewkh":10660,"irit":10661,"Ġfoundation":10662,"Ġriewhadem":10663,"ĠKhan":10664,"ĠKhymdeit":10665,"Ġ86":10666,"ĠCoun":10667,"Ġkharlyngdoh":10668,"iwson":10669,"aphtali":10670,"kynthup":10671,"Ġiamir":10672,"Ġshawkad":10673,"Ġnongmynsong":10674,"jalee":10675,"powerment":10676,"Ġnonghiarpateng":10677,"Ġrilbong":10678,"iot":10679,"ober":10680,"Ġtoi":10681,"Ġraliang":10682,"Ġkhulom":10683,"anga":10684,"Ġshakur":10685,"ympang":10686,"ĠSeiÃ±":10687,"ĠSedekaÃ¯ah":10688,"ĠKynd":10689,"Ġkhara":10690,"ĠMait":10691,"ĠBol":10692,"ĠUei":10693,"ely":10694,"nongialam":10695,"Ġjabain":10696,"Ġmeg":10697,"ĠConstitution":10698,"ilbert":10699,"ctv":10700,"Ġbymtip":10701,"mental":10702,"banjel":10703,"Ġiakop":10704,"ĠNongshken":10705,"Ġ666":10706,"Ġbakongsan":10707,"awahar":10708,"ucifer":10709,"Ġprescription":10710,"Ġsyndet":10711,"ĠManik":10712,"syiemlieh":10713,"Ġrkhiebein":10714,"iakren":10715,"Ġengineering":10716,"Shaphang":10717,"ĠOrganising":10718,"Ġlynniar":10719,"Ġmayrald":10720,"Ġbaridua":10721,"Ġalexander":10722,"Ġrynsied":10723,"Ġjinghiran":10724,"dynald":10725,"ĠtaÃ¯ew":10726,"Ġshakuriaw":10727,";&#":10728,"EI":10729,"dhar":10730,"hied":10731,"sella":10732,"yaid":10733,"ngur":10734,"Ġsungoh":10735,"Ġlask":10736,"ĠhaÃ¯ing":10737,"Ã¯aid":10738,"Ġjingiatyngkhuh":10739,"ĠHit":10740,"ĠAK":10741,"khaw":10742,"ĠLynti":10743,"ecom":10744,"Ġvs":10745,"ĠKhlur":10746,"Ġraja":10747,"naior":10748,"Ġeden":10749,"Ġjingphiah":10750,"pten":10751,"ĠSimeon":10752,"ĠPathaw":10753,"ĠEmpl":10754,"shohnoh":10755,"ĠDoctor":10756,"Ġpipa":10757,"Ġwkhd":10758,"Ġneighrims":10759,"ML":10760,"Shisien":10761,"seh":10762,"vember":10763,"zine":10764,"ngiam":10765,"Ġbashlur":10766,"iai":10767,"ynne":10768,"Ġjingtah":10769,"Ġbtin":10770,"ĠÃ¯uphratis":10771,"Ġnongtih":10772,"erÃ¯ong":10773,"sharai":10774,"Ġthet":10775,"ĠNi":10776,"ĠCup":10777,"Ġladrymbai":10778,"ĠGram":10779,"Ġfamily":10780,"Ġconfederation":10781,"ĠBashan":10782,"Ġkhyrwit":10783,"Ġkyaid":10784,"Ġbenhadad":10785,"Ġkhapsor":10786,"Ġrobertjune":10787,"Ġpynbamphlang":10788,"Ġadministrative":10789,"ĠHindi":10790,"Ġkristmas":10791,"Kynmaw":10792,"come":10793,"kyndit":10794,"ngeh":10795,"Ġkapten":10796,"Ġbail":10797,"Ġtien":10798,"Ġnongtalang":10799,"isation":10800,"ĠKer":10801,"shyiap":10802,"ĠBishop":10803,"element":10804,"elpara":10805,"ĠPerson":10806,"ĠThad":10807,"ĠAhas":10808,"ĠRehoboam":10809,"yndiat":10810,"Ġeven":10811,"Ġriewkhraw":10812,"Ġ96":10813,"ĠCoal":10814,"ĠVivek":10815,"Ġiasyriem":10816,"kyrshan":10817,"Ġkhongjirem":10818,"Ġgoyal":10819,"witter":10820,"ĠNongkynrih":10821,"PCO":10822,"ĠSiangshai":10823,"Ġmushlia":10824,"kon":10825,"kari":10826,"Ä«":10827,"nger":10828,"ĠbaÃ¯aineh":10829,"Ġswar":10830,"Ġnion":10831,"Ġbim":10832,"Ġithaw":10833,"ĠÃ¯asam":10834,"iewkor":10835,"Ġnongphet":10836,"Ġhm":10837,"shano":10838,"Ġcc":10839,"Ġthym":10840,"Ġjingiatainia":10841,"ĠPN":10842,"ĠPe":10843,"trun":10844,"ĠGur":10845,"Ġriewtymmen":10846,"wanrah":10847,"Ġingdorbar":10848,"Ġnongrang":10849,"Ġramah":10850,"hatma":10851,"Ġsyrti":10852,"ĠElia":10853,"other":10854,"Ġkynshrot":10855,"Ġnobel":10856,"East":10857,"krem":10858,"slem":10859,"viagra":10860,"zer":10861,"Ġxi":10862,"Ġbakordor":10863,"Ġstan":10864,"Ġticket":10865,"Ġbiam":10866,"Ġpynum":10867,"ticle":10868,"Ġkamut":10869,"ĠaiÎ·":10870,"Ġjingiat":10871,"aseng":10872,"ĠAAP":10873,"Ġala":10874,"Ġjingpynthut":10875,"mihpat":10876,"ghat":10877,"ations":10878,"Ġdewi":10879,"biw":10880,"Ġrevenue":10881,"Ġembhah":10882,"Ġleah":10883,"byid":10884,"Ġkorah":10885,"Ġjuki":10886,"Khlem":10887,"ĠGovt":10888,"Ġiuhkjat":10889,"leyout":10890,"Ġgershon":10891,"getelement":10892,"ĠKhrawbor":10893,"ĠSharma":10894,"khadduh":10895,"Ġpynsaja":10896,"getelementbyid":10897,".&":10898,"91":10899,"Ong":10900,"fkjgp":10901,"gail":10902,"jew":10903,"led":10904,"rmen":10905,"tynrai":10906,"Ġbakha":10907,"Ġsession":10908,"Ġnuit":10909,"Ġtek":10910,"Ġshor":10911,"ĠÃ¯alum":10912,"Ġkynud":10913,"iangthohlieh":10914,"riw":10915,"ĠBr":10916,"Ġjingpur":10917,"olith":10918,"yllut":10919,"Ġgvk":10920,"Ġmaka":10921,"Ġlumdiengjri":10922,"ĠNongbuh":10923,"chel":10924,"Ġshillongka":10925,"Ġjingshoh":10926,"Ġiakajia":10927,"Ġnongkynrih":10928,"Lashai":10929,"ĠMajai":10930,"ĠJoash":10931,"qualification":10932,"kynsan":10933,"Ġgovernor":10934,"Ġjingpynkhiah":10935,"Ġpynthame":10936,"atholik":10937,"Ġsyllad":10938,"ĠKaleb":10939,"Ġmassar":10940,"ĠIAS":10941,"ĠAPHLC":10942,"\",":10943,"81":10944,"cf":10945,"few":10946,"sei":10947,"Ġsner":10948,"iation":10949,"Ġpt":10950,"Ġlasar":10951,"Ġhakane":10952,"ohknieh":10953,"Ġngor":10954,"Ġdonsap":10955,"thiew":10956,"yngngad":10957,"ĠBet":10958,"Ġbarak":10959,"ĠPara":10960,"ĠPersia":10961,"ĠNaphtali":10962,"Ġjingsoi":10963,"tron":10964,"Ġphy":10965,"Ġgreater":10966,"Ġganesh":10967,"eks":10968,"Ġnongialap":10969,"ubelpara":10970,"Ġkura":10971,"Ġshillongu":10972,"pynpaw":10973,"Ġbakut":10974,"Ġsiewdor":10975,"Ġsiewspah":10976,"himelekh":10977,"Ġtynring":10978,"aleiro":10979,"Ġjingthungkam":10980,"Ġkhohreh":10981,"Ġryngkhiang":10982,"holaganj":10983,"ophel":10984,"Ġcantonment":10985,"ĠManaging":10986,"Ġahasai":10987,"ĠEsther":10988,"Ġemergency":10989,"jang":10990,"kylli":10991,"mb":10992,"vers":10993,"Ġkiad":10994,"Ġlaong":10995,"armer":10996,"Ġila":10997,"Ġrss":10998,"ants":10999,"Ġhy":11000,"Ġlongkur":11001,"khynnah":11002,"life":11003,"inter":11004,"shut":11005,"ĠTrop":11006,"Ġsngewsheptieng":11007,"ĠIshmael":11008,"Ġgas":11009,"edek":11010,"ĠGog":11011,"Ġriewrangbah":11012,"Ġjingiakut":11013,"Ġbakyn":11014,"Ġamp":11015,"Ġkharsati":11016,"Ġjingbymkhuid":11017,"ĠRiwar":11018,"ĠRijiju":11019,"Ġjingrisa":11020,"Ġstaff":11021,"jriwal":11022,"Watla":11023,"Ġexper":11024,"Ġjingbhabriew":11025,"Ġsabon":11026,"Ġtiengburom":11027,"Ġjotham":11028,"gata":11029,"sora":11030,"Ġ1951":11031,"Ġguest":11032,"Ġtyngkrein":11033,"Ġmynhyndai":11034,"Ġdrugs":11035,"Ġlarkam":11036,"Ġlymbung":11037,"kidar":11038,"MDA":11039,"ees":11040,"kran":11041,"nu":11042,"ola":11043,"py":11044,"Ġpis":11045,"Ġmel":11046,"new":11047,"itish":11048,"Ġwww":11049,"Ġwanpaw":11050,"ĠCar":11051,"nohkti":11052,"Ġtyngab":11053,"ĠMawthabah":11054,"Ġbaieid":11055,"Ġmangi":11056,"Ġjingiasuk":11057,"Ġkhonglah":11058,"ĠAgriculture":11059,"ĠGoyal":11060,"Ġsohan":11061,"Ġmynnin":11062,"ĠTamasa":11063,"tyrshi":11064,"ĠTourism":11065,"Ġpyllein":11066,"centage":11067,"Ġlasaros":11068,"Ale":11069,"Peit":11070,"gu":11071,"hieh":11072,"iri":11073,"pel":11074,"sis":11075,"ĠsedekaÃ¯ah":11076,"Ġtir":11077,"Ġmaster":11078,"arwal":11079,"Ġongha":11080,"omer":11081,"ĠNang":11082,"ĠDip":11083,"ĠRad":11084,"noit":11085,"Ġpart":11086,"Ġmahila":11087,"irect":11088,"ĠGatphoh":11089,"Ġsangsot":11090,"lantry":11091,"Ġpharia":11092,"riath":11093,"ĠHighway":11094,"ĠRakhel":11095,"othy":11096,"Ġpynjahthait":11097,"Ġ1979":11098,"Ġjudicial":11099,"ĠBilat":11100,"Ġselection":11101,"Ġchampionship":11102,"ĠNEEPCO":11103,"HMS":11104,"Hapdeng":11105,"Suk":11106,"hspdp":11107,"sec":11108,"Ġswet":11109,"Ġlathi":11110,"Ġdto":11111,"arsap":11112,"Ġration":11113,"anchi":11114,"Ã¯akhin":11115,"Ġshow":11116,"ĠshngaiÃ±":11117,"Ġnongth":11118,"Ġnongtraw":11119,"eries":11120,"Ġshirta":11121,"ĠSodom":11122,"adih":11123,"âĢĵ":11124,"lipp":11125,"Ġcla":11126,"Ġcctv":11127,"ĠMCCL":11128,"ĠPA":11129,"Ġfilm":11130,"shiphew":11131,"Ġproph":11132,"Ġ83":11133,"ĠSyiemiong":11134,"rani":11135,"Ġ133":11136,"ĠKharsyntiew":11137,"verb":11138,"Ġkhonglam":11139,"ĠElias":11140,"Ġtimes":11141,"ĠMining":11142,"Ġ1998":11143,"ĠMUA":11144,"ĠÃ¯asylla":11145,"ĠXII":11146,"kharaiah":11147,"ĠMessaÃ¯ah":11148,"myntdu":11149,"ocumentgetelementbyid":11150,"03":11151,"Amendment":11152,"cab":11153,"sia":11154,"vision":11155,"Ġsada":11156,"Ġsister":11157,"Ġnok":11158,"Ġmeit":11159,"Ġitriem":11160,"Ġdonnam":11161,"Ġdonakor":11162,"Ġwang":11163,"amih":11164,"ĠSD":11165,"ĠKatholik":11166,"Ġjingiashim":11167,"Ġjingiathir":11168,"aitmet":11169,"khal":11170,"Ġjingsat":11171,"ĠRic":11172,"Ġmaakah":11173,"Ġpashat":11174,"mihkhmat":11175,"Ġpynpeit":11176,"Ġfin":11177,"Ġbamon":11178,"Ġbatyng":11179,"Ġdiengpyni":11180,"ublish":11181,"Ġapply":11182,"Ġjingiohipaw":11183,"Ġpuriskam":11184,"khamtam":11185,"Ġkriah":11186,"Ġ1990":11187,"Ġpynsting":11188,"Ġ1952":11189,"stable":11190,"Ġmicheal":11191,"Ġteleph":11192,"Ġpipe":11193,"kranet":11194,"NPP":11195,"pyllait":11196,"elson":11197,"Ġjingkynduh":11198,"ĠTymmen":11199,"Ġjingpoi":11200,"ĠRem":11201,"Ġob":11202,"lee":11203,"Ġcourse":11204,"ĠMawroh":11205,"Ġ1960":11206,"ĠFer":11207,"ĠLyngba":11208,"ĠRif":11209,"ĠChurch":11210,"Ġpharep":11211,"Ġroom":11212,"wadi":11213,"ĠKhongsit":11214,"Ġernest":11215,"Ġ1993":11216,"vernance":11217,"Ġhusband":11218,"ĠSikh":11219,"Ġpalestine":11220,"Ġtechnical":11221,"lymne":11222,"Ġartet":11223,"Ġgomer":11224,"Ġwritten":11225,"83":11226,"dkhot":11227,"Ġ000":11228,"Ġpjah":11229,"Ġnadu":11230,"ĠÃ¯it":11231,"Ġnonglang":11232,"khep":11233,"racy":11234,"sive":11235,"ĠAchik":11236,"khaii":11237,"Ġumngot":11238,"Ġpheil":11239,"âĢĿ.âĢľ":11240,"Ġfi":11241,"Ġiakob":11242,"Ġvc":11243,"Ġsatlak":11244,"Ġmadanrting":11245,"Ġemail":11246,"ĠCommand":11247,"Ġmondal":11248,"epher":11249,"ĠJingmihpat":11250,"istrar":11251,"Ġiasiat":11252,"Ġsyros":11253,"Ġsalit":11254,"ttara":11255,"Ġinterbiw":11256,"tyngka":11257,"Ġartikil":11258,"Ġnongkhrong":11259,"HIS":11260,"ĠMyrthong":11261,"ĠHadrian":11262,"ĠFenela":11263,"Ġgolflink":11264,"Ġshylluit":11265,"banjelis":11266,"%,":11267,"chairman":11268,"eum":11269,"kk":11270,"nl":11271,"Âħ":11272,"Ġontep":11273,"Ġkoh":11274,"lab":11275,"Ġjit":11276,"Ġdown":11277,"Ġmok":11278,"tate":11279,"nexed":11280,"ĠkhÃ±iang":11281,"thophel":11282,"Ġhon":11283,"ĠMd":11284,"Ġbarem":11285,"ĠPdeng":11286,"tration":11287,"mate":11288,"Ġkhlieng":11289,"Ġjingbishni":11290,"thamar":11291,"Ġpynjai":11292,"Ġwahkaji":11293,"ĠFa":11294,"ĠFinal":11295,"Ġnongtreinongbylla":11296,"Ġdeli":11297,"Ġjingwanphai":11298,"Ġbasketball":11299,"ĠKatto":11300,"Ġnarud":11301,"Ġreserv":11302,"Ġserah":11303,"Ġtyrso":11304,"Ġkris":11305,"ĠJulius":11306,"Ġmarkos":11307,"ĠMaieid":11308,"ĠPaham":11309,"ĠGeorge":11310,"ĠAadhar":11311,"ĠSadok":11312,"Ðĩa":11313,"Ġsquare":11314,"?.":11315,"No":11316,"cr":11317,"far":11318,"runar":11319,"sngap":11320,"Ġsri":11321,"Ġsecretaries":11322,"Ġjyf":11323,"Ġnath":11324,"Ġongka":11325,"Ġkhashor":11326,"Ġphon":11327,"Ġ2023":11328,"Ġpynkyn":11329,"Ġpynbieit":11330,"Ġsurvey":11331,"Ġkhynniuh":11332,"ynthi":11333,"general":11334,"ĠKharjahrin":11335,"Ġnongpyniap":11336,"Ġplaza":11337,"Ġworkshop":11338,"landing":11339,"Ġcoming":11340,"ĠjosaÃ¯ah":11341,"ĠMichael":11342,"Ġemployment":11343,"Ġrebekka":11344,"700":11345,"Buh":11346,"Napdeng":11347,"PDF":11348,"VM":11349,"kynt":11350,"pisa":11351,"ros":11352,"ved":11353,"Ġsyrwa":11354,"Ġnile":11355,"Ġlied":11356,"Ġrod":11357,"emen":11358,"ĠSidon":11359,"ĠPhadar":11360,"Ġjingpynjari":11361,"Ġother":11362,"isabil":11363,"ĠpynkhynÃ±iuh":11364,"Ġvacc":11365,"Ġtamar":11366,"Ġprasad":11367,"Ġpyniaidkam":11368,"Ġandhra":11369,"oney":11370,"Ġpynshna":11371,"Ġnongbeh":11372,"kyrmen":11373,"ĠliengsuiÃ±":11374,"Ġasaph":11375,"Ġlife":11376,"riewblei":11377,"Khmih":11378,"Ġprize":11379,"ĠSecy":11380,"ĠsaiÎ·":11381,"Ġsaipan":11382,"Ġpius":11383,"surok":11384,"93":11385,"XX":11386,"eg":11387,"joh":11388,"nupur":11389,"rose":11390,"wara":11391,"zed":11392,"Ġsb":11393,"Ġpuid":11394,"Ġhana":11395,"Ġishong":11396,"Ġijot":11397,"Ġrenikton":11398,"Ġnad":11399,"ĠÃ¯adih":11400,"shassar":11401,"Ġkaneka":11402,"til":11403,"Ġkamrup":11404,"Ġcal":11405,"ĠUP":11406,"Ġjingiakhaid":11407,"Ġpyrtuh":11408,"Ġjingkob":11409,"ĠPhan":11410,"ĠTal":11411,"Ġthai":11412,"Ġjingsakhi":11413,"Ġmarbisu":11414,"Ġgst":11415,"Ġground":11416,"palang":11417,"Ġjingpynshong":11418,"astieh":11419,"Ġoff":11420,"Ġmetre":11421,"Ġdurbriew":11422,"Ġjingtuklar":11423,"Ġrepublic":11424,"Ġnongsain":11425,"sapp":11426,"ĠInstrument":11427,"Ġjingpynkynmaw":11428,"Ġkadesh":11429,"ĠĠĠĠĠ":11430,"oodland":11431,"ĠLangrin":11432,"Ġ1988":11433,"ĠMedia":11434,"Ġfrontier":11435,"athagata":11436,"Ġjyndiang":11437,"****":11438,"Ġkhnium":11439,"datbaki":11440,"Ġjynrat":11441,"ĠProtection":11442,"Ġbailut":11443,"FC":11444,"fil":11445,"oad":11446,"iada":11447,"Ġmost":11448,"Ġband":11449,"Ġbantei":11450,"Ġiii":11451,"Ġlongryn":11452,"khyndai":11453,"Ġshikol":11454,"Ġkynpham":11455,"ĠSR":11456,"idien":11457,"opter":11458,"ĠTynring":11459,"study":11460,"Ġmaian":11461,"Ġksaid":11462,"plie":11463,"ĠjingÃ¯ohi":11464,"Ġdielang":11465,"Ġjoe":11466,"Ġabishai":11467,"Ġjingiasiat":11468,"Ġtalang":11469,"ĠNEC":11470,"ĠKohath":11471,"ĠAsia":11472,"Ġkyndok":11473,"ĠChina":11474,"Ġlorni":11475,"ĠSeion":11476,"Ġkriket":11477,"awaharlal":11478,"92":11479,"bhih":11480,"kloi":11481,"nn":11482,"Â¬":11483,"Ġkait":11484,"Ġhai":11485,"Ġhak":11486,"Ġroit":11487,"orand":11488,"onlight":11489,"Ġnap":11490,"Ġnongwad":11491,"ĠKsaw":11492,"Ġaid":11493,"ĠMS":11494,"ĠHus":11495,"Ġumtyrnga":11496,"imum":11497,"Ġmaga":11498,"Ġmachine":11499,"Ġtipblei":11500,"Ġpynphalang":11501,"Ġowners":11502,"athon":11503,"Ġhillsu":11504,"Ġriewsaid":11505,"Ġduhnong":11506,"ĠCommerce":11507,"ĠVeterinary":11508,"Ġlakmen":11509,"aphred":11510,"Ġbangalore":11511,"Ġplakad":11512,"ĠSamlin":11513,"ĠConservation":11514,"Ġkomishon":11515,"embers":11516,"Ġrynghang":11517,"Ġkilometer":11518,"Ġpmg":11519,"ĠIndustr":11520,"Ġpynthorumkhrah":11521,"Ġfenela":11522,"ĠSohan":11523,"Ã±iot":11524,"ĠWKHD":11525,"Ġkhynraw":11526,"ĠTemple":11527,"Ġlaskein":11528,"Ġprophet":11529,"Long":11530,"aki":11531,"ius":11532,"sch":11533,"Ġkiriath":11534,"lay":11535,"Ġsib":11536,"Ġiashah":11537,"Ġiadie":11538,"Ġtynd":11539,"Ã¯os":11540,"uni":11541,"Ġkynum":11542,"ĠKastar":11543,"Ġthnam":11544,"Ġbrisoh":11545,"aliar":11546,"mari":11547,"kila":11548,"ĠJyndiang":11549,"ĠNRC":11550,"ĠRowell":11551,"phu":11552,"shahshkor":11553,"ylleng":11554,"Ġnangiaid":11555,"Ġpynkyr":11556,"Ġnongiap":11557,"Ġenergy":11558,"akut":11559,"ĠKhlaw":11560,"Ġ1950":11561,"Ġteibor":11562,"Ġ830":11563,"jingshai":11564,"ĠMartin":11565,"Ġdakaid":11566,"Ġlegal":11567,"ĠArticle":11568,"ĠStand":11569,"Ġpynmlien":11570,"Ġnotification":11571,"Ġrajnath":11572,"ĠPay":11573,"Ġjyrhoh":11574,"Ġsmam":11575,"Ġcrpf":11576,"Ã±iangthohlieh":11577,"Ġcmj":11578,"Ġbapawkhmat":11579,"ĠBhavan":11580,"ĠRapsang":11581,"----":11582,"Ġrekod":11583,"Ġtelephone":11584,"IA":11585,"IB":11586,"jng":11587,"master":11588,"Ġol":11589,"Ġkulong":11590,"eij":11591,"Ġhair":11592,"Ġlive":11593,"anah":11594,"Ġshab":11595,"Ġnongbat":11596,"Ġhous":11597,"awria":11598,"shal":11599,"Ġkyndiang":11600,"ĠSham":11601,"ĠSebulun":11602,"Ġjingiania":11603,"Ġjingiathep":11604,"Ġshnongu":11605,"ĠNHAI":11606,"ĠAbram":11607,"Ġmarbud":11608,"Ġgrik":11609,"Ġjingbret":11610,"Ġlangknia":11611,"ĠEsra":11612,"Ġraikhoh":11613,"Ġjingtngen":11614,"Ġingmane":11615,"Ġchem":11616,"Ġrelation":11617,"mail":11618,"Ġhynniewta":11619,"Ġagatha":11620,"ĠLumshnong":11621,"Ġ1997":11622,"Ġahmed":11623,"Ġpeij":11624,"RIHMS":11625,"Ġcampus":11626,"Ġtohjaw":11627,"ĠJoshi":11628,"ĠDanggo":11629,"ĠHistory":11630,"petbneng":11631,"ĠAuditorium":11632,"Ġissue":11633,"ĠKastarbrij":11634,"kdew":11635,"sup":11636,"xx":11637,"ĠÃ":11638,"Ġjew":11639,"Ġnun":11640,"Ġmos":11641,"tala":11642,"Ġkhung":11643,"ĠKom":11644,"Ġaiwai":11645,"Ġcam":11646,"ĠMandal":11647,"ĠBro":11648,"Ġbarandi":11649,"ĠPas":11650,"Ġjingsleh":11651,"yndia":11652,"Ġbymsuid":11653,"Ġpaia":11654,"Ġkyntiap":11655,"mier":11656,"Ġpynpoh":11657,"ĠEse":11658,"ĠKali":11659,"lowan":11660,"ĠKharlyngdoh":11661,"owkidar":11662,"kino":11663,"Ġbench":11664,"ĠbeiÎ·":11665,"Ġawak":11666,"vitation":11667,"Ġpaip":11668,"Ġryngkoh":11669,"Ġprofessor":11670,"ĠKynshi":11671,"Ġbajngai":11672,"Ġjingotsher":11673,"ĠTribal":11674,"Ġkjdsta":11675,"Ġwohnia":11676,"Ġpoetry":11677,"ĠTimothi":11678,"ĠTechnology":11679,"Ġgogoi":11680,"Ġpenalty":11681,"tacharjee":11682,"ĠTrophy":11683,"ttarakhand":11684,"600":11685,"eli":11686,"ming":11687,"mrad":11688,"mynsiem":11689,"Ġkraw":11690,"haÃ¯ah":11691,"Ġdet":11692,"Ġduty":11693,"Ġjingnguh":11694,"Ġpynshad":11695,"itynnat":11696,"thli":11697,"urope":11698,"shaphrang":11699,"ĠSB":11700,"ĠMiller":11701,"Ġthyr":11702,"Ġshnongka":11703,"ĠRgh":11704,"Ġbymi":11705,"umari":11706,"Ġdev":11707,"Ġsukher":11708,"Ġadoni":11709,"Ġaddl":11710,"Ġalbinus":11711,"ĠConference":11712,"Ġbabiang":11713,"Ġjingpynkynriah":11714,"Khublei":11715,"elebr":11716,"Ġdisp":11717,"loma":11718,"Ġsns":11719,"Ġnongpeitkai":11720,"Ġhamletson":11721,"ĠmessaÃ¯ah":11722,"ĠAccession":11723,"Ġyojana":11724,"ĠArab":11725,"oudhury":11726,"Ġaffidavit":11727,"Ġpyntroin":11728,"orandum":11729,"DSTA":11730,"Mukul":11731,"Wan":11732,"cred":11733,"fred":11734,"gad":11735,"hukum":11736,"html":11737,"ox":11738,"Ġjha":11739,"Ġdhan":11740,"Ġnano":11741,"tacherra":11742,"Ġnongpathai":11743,"ĠKP":11744,"Ġcategory":11745,"esal":11746,"apthngan":11747,"etition":11748,"sius":11749,"ĠCa":11750,"khawa":11751,"Ġsngewmeng":11752,"ĠIl":11753,"Ġgre":11754,"Ġmab":11755,"bhavi":11756,"Ġog":11757,"akjakor":11758,"Ġnongshukor":11759,"many":11760,"ĠFestival":11761,"Ġmatch":11762,"Ġ101":11763,"seo":11764,"Ġjoel":11765,"Ġ130":11766,"Ġjingkhangi":11767,"kson":11768,"ĠDorphang":11769,"Ġsubdivision":11770,"ĠDonald":11771,"Ġmlp":11772,"Ġpuron":11773,"kongngor":11774,"covid":11775,"Ġjingshongkurim":11776,"pros":11777,"ĠJonah":11778,"ĠEnforcement":11779,"Ġpyllut":11780,"Ġpaper":11781,"Ġcrpc":11782,"ĠSurok":11783,"Ġhelp":11784,"ĠKalbari":11785,"ĠJingpynpaw":11786,"Lehse":11787,"chumiere":11788,"Ġmawkyrdon":11789,"Ġpynmanbha":11790,"War":11791,"cles":11792,"ef":11793,"ges":11794,"los":11795,"ĠÄ«":11796,"Ġdkhat":11797,"Ġhali":11798,"Ġiabit":11799,"Ġjingn":11800,"Ġtmier":11801,"Ġloukas":11802,"Ġkhnoit":11803,"thlong":11804,"Ġkynhied":11805,"Ġcinema":11806,"ĠMishon":11807,"ĠLar":11808,"ctober":11809,"ĠGen":11810,"ĠGath":11811,"Ġobed":11812,"ĠSheba":11813,"ĠjingÃ¯oh":11814,"Ġpynshoh":11815,"Ġkarmel":11816,"owkaiaw":11817,"Ġjingkhanglad":11818,"Ġsuppl":11819,"koth":11820,"Ġgoa":11821,"Ġniewbein":11822,"Ġriangdo":11823,"ĠLahkmen":11824,"ĠPyrthei":11825,"Ġthadlaskein":11826,"Ġfire":11827,"Ġsaiantis":11828,"ĠDurbar":11829,"Bunsien":11830,"Ġmirr":11831,"Ġshynrong":11832,"400":11833,"RA":11834,"cip":11835,"gres":11836,"lynd":11837,"riti":11838,"tieh":11839,"tus":11840,"uja":11841,"uva":11842,"ĠÃ±ia":11843,"Ġkrit":11844,"Ġpvt":11845,"ĠkhÃ±iot":11846,"langthari":11847,"Ġjingklumar":11848,"Ġphaloh":11849,"ĠJYF":11850,"ĠTyng":11851,"ĠNam":11852,"Ġshahthngan":11853,"khab":11854,"ĠGibeah":11855,"oca":11856,"Ġequ":11857,"Ġlumparing":11858,"Ġdiengbah":11859,"ĠKhlem":11860,"Ġkharumnuid":11861,"ĠMaruti":11862,"ĠnongÃ¯aleh":11863,"ĠElec":11864,"Ġdca":11865,"ĠEdmund":11866,"Ġkajingia":11867,"Ġindoor":11868,"ĠMathaios":11869,"Ġsunday":11870,"ĠLawsohtun":11871,"ĠNarpuh":11872,"ĠResources":11873,"ĠIndira":11874,"Ġlokayukta":11875,"Ġnongmuna":11876,"Ġcontract":11877,"Ġnongjngohkai":11878,"khis":11879,"nan":11880,"yieng":11881,"Ġ:-":11882,"Ġkidon":11883,"Ġjym":11884,"Ġjeth":11885,"Ġiasngewthuh":11886,"Ġjingnam":11887,"Ġmc":11888,"Ġlim":11889,"Ġngaitlang":11890,"ĠÃ¯ong":11891,"enger":11892,"Ġcham":11893,"apyn":11894,"ĠUla":11895,"oksi":11896,"naka":11897,"Ġthalain":11898,"ĠRule":11899,"Ġumshyrpi":11900,"ĠEr":11901,"ĠGibeon":11902,"Ġriewshemphang":11903,"Ġjinglehkai":11904,"ĠShwa":11905,"Ġingbasa":11906,"Ġ81":11907,"2017":11908,"taly":11909,"Ġjingkhangit":11910,"ĠAdv":11911,"ĠKhunlangbrot":11912,"ounder":11913,"Ġsyngkli":11914,"ĠSekharaÃ¯ah":11915,"ryngew":11916,"Ġfci":11917,"ypsy":11918,"Ġajywo":11919,"ĠHousing":11920,"krabor":11921,"khisedek":11922,"Lynnong":11923,"Thaw":11924,"dot":11925,"duna":11926,"jection":11927,"yiar":11928,"Ġsir":11929,"Ġpers":11930,"eign":11931,"Ġdia":11932,"Ġnier":11933,"Ġtask":11934,"Ġluid":11935,"Ġlike":11936,"ors":11937,"Ġnat":11938,"ercial":11939,"kheiÃ±":11940,"Ġ182":11941,"ĠPower":11942,"ĠHooid":11943,"ĠNah":11944,"Ġgirls":11945,"ĠsynÃ±ia":11946,"ĠGood":11947,"Ġfre":11948,"Ġdohiap":11949,"Ġdewmet":11950,"jakhlia":11951,"Ġpanchay":11952,"Ġkhatar":11953,"Ġlea":11954,"kheti":11955,"Ġpercentage":11956,"ĠArun":11957,"alari":11958,"ĠhynÃ±iewspah":11959,"ĠRymbui":11960,"ĠLaitlyngkot":11961,"NGT":11962,"ĠMedit":11963,"Ġohdur":11964,"ĠSymboh":11965,"ĠMarweiÃ±":11966,"ĠĠĠĠĠĠĠĠĠĠĠĠĠĠĠĠ":11967,"ĠHesekaiah":11968,"ildlife":11969,"Ġcurfew":11970,"Ġsnsbh":11971,"Ri":11972,"hel":11973,"laboh":11974,"Ġskhor":11975,"Ġjason":11976,"Ġdano":11977,"Ġhari":11978,"Ġrot":11979,"Ġshyng":11980,"Ġshrieh":11981,"ĠKon":11982,"yngkhuh":11983,"lidor":11984,"Ġcb":11985,"ĠPor":11986,"ĠHur":11987,"ude":11988,"Ġjub":11989,"ĠRup":11990,"Ġparti":11991,"yllup":11992,"Ġgh":11993,"dca":11994,"ĠÃ¯ohlait":11995,"Ġsohsaw":11996,"Ġjingsngewsynei":11997,"Ġjingsngewdiaw":11998,"Ġjingkhriat":11999,"ĠShimei":12000,"pyndonkam":12001,"ishra":12002,"ĠVal":12003,"bition":12004,"Ġabiathar":12005,"ooth":12006,"Ġbsnl":12007,"ĠÃ±iewkor":12008,"Ġpolitic":12009,"pru":12010,"Ġryngkang":12011,"ĠjingÃ¯asyllok":12012,"ĠLibrary":12013,"Ġbalui":12014,"Ġindustries":12015,"Ġfarmers":12016,"ĠAJYWO":12017,"Ġnongphetwir":12018,"IE":12019,"dhi":12020,"hen":12021,"ruit":12022,"uj":12023,"ĠkÃ±i":12024,"Ġuu":12025,"Ġlapalang":12026,"Ġiais":12027,"Ġnyng":12028,"hiyan":12029,"Ġima":12030,"org":12031,"ishad":12032,"inder":12033,"Ġjingkloi":12034,"ĠPam":12035,"ĠPand":12036,"ĠPAC":12037,"ĠDenis":12038,"Ġgsu":12039,"Ġjingpynt":12040,"Ġjingpynphai":12041,"Ġpynsyaid":12042,"ndi":12043,"iate":12044,"Ġjingijli":12045,"Ġelam":12046,"odus":12047,"Ġkynrem":12048,"Ġingbishar":12049,"ĠjingkrenbeiÃ±":12050,"ĠRibhoi":12051,"Ġnongpan":12052,"Ġheart":12053,"Ġreserve":12054,"ureau":12055,"oramot":12056,"Ġkhohram":12057,"ĠPathar":12058,"ĠOrganiz":12059,"ĠShangpung":12060,"Ġrecord":12061,"Ġtransfer":12062,"Ġjhieh":12063,"ĠServices":12064,"Ġchildren":12065,"ĠLehse":12066,"Ġresidential":12067,"Ġkhanasumari":12068,"Ġinjekshon":12069,"Ġadonijah":12070,"FU":12071,"kpa":12072,"vy":12073,"wiar":12074,"ÂŃ":12075,"Ġkika":12076,"Ġswai":12077,"Ġlawai":12078,"Ġtainia":12079,"Ġbd":12080,"Ġbip":12081,"Ġmhis":12082,"Ġhect":12083,"ĠSong":12084,"ĠSBI":12085,"Ġkamu":12086,"ĠMil":12087,"Ġthlim":12088,"Ġbarukh":12089,"Ġsorkaru":12090,"Ġkyrsoi":12091,"ĠHas":12092,"ents":12093,"Ġjingsynjor":12094,"ynniang":12095,"Ġjingbthuh":12096,"Ġnongiada":12097,"ĠGolf":12098,"Ġopen":12099,"ĠShiloh":12100,"Ġmationg":12101,"Ġ97":12102,"Ġandrew":12103,"ĠpynÃ¯akhlad":12104,"Ġnongknia":12105,"Ġkpep":12106,"Ġsyang":12107,"Ġjingiathuhkhana":12108,"Ġsilas":12109,"ĠAgency":12110,"siewdor":12111,"ĠMikah":12112,"Ġnepal":12113,"vanus":12114,"ĠIsaÃ¯ah":12115,"ĠRajnath":12116,"Ġsilchar":12117,"ĠAccount":12118,"Ġantiokh":12119,"ĠATM":12120,"biah":12121,"bcc":12122,"comp":12123,"civil":12124,"grim":12125,"bapher":12126,"Ġsna":12127,"Ġjephthah":12128,"Ġutai":12129,"Ġdiv":12130,"Ġjingieng":12131,"Ġtw":12132,"Ġmsp":12133,"Ġshabuk":12134,"ulia":12135,"Ġhib":12136,"ĠDeb":12137,"khalai":12138,"ĠIII":12139,"Ġhillska":12140,"Ġriewniam":12141,"Ġlaitkroh":12142,"obi":12143,"Ġwadkam":12144,"Ġnongkseh":12145,"Ġ1500":12146,"ĠMarbisu":12147,"ĠBalak":12148,"Ġjogn":12149,"Ġscholarship":12150,"Ġramoth":12151,"licopter":12152,"Ġtyrsim":12153,"sory":12154,"Ġpyllup":12155,"Ġmakedonia":12156,"ĠNaga":12157,"ĠGuard":12158,"Ġsyllabus":12159,"dalaÃ¯ah":12160,"eturning":12161,"technic":12162,"lippi":12163,"Ġawakening":12164,"ĠMediterranian":12165,"'.":12166,"CB":12167,"suh":12168,"wner":12169,"zation":12170,"Ġbatri":12171,"hain":12172,"Ġdim":12173,"Ġdarius":12174,"Ġjingawria":12175,"Ġbhu":12176,"Ġmgn":12177,"Ġliam":12178,"lios":12179,"ukri":12180,"Ġjingiaumsnam":12181,"mariang":12182,"ĠNichols":12183,"Ġlyngkhat":12184,"Ġgrade":12185,"8242":12186,"Ġfriday":12187,"abynta":12188,"sakhiat":12189,"rimrose":12190,"Ġshillongha":12191,"ĠShilak":12192,"ream":12193,"Ġbeat":12194,"ĠKharsati":12195,"ĠnongÃ¯arap":12196,"Ġresource":12197,"Ġsubs":12198,"Ġjehoram":12199,"ĠBarnabas":12200,"Ġjingsahdien":12201,"Ġcancer":12202,"Ġnongrahbor":12203,"Ġtawah":12204,"ĠUriah":12205,"ĠMicheal":12206,"Ġussai":12207,"ĠBharat":12208,"Ġjubilee":12209,"RPF":12210,"cu":12211,"hor":12212,"mot":12213,"mond":12214,"press":12215,"tiew":12216,"tmoh":12217,"Ġbalat":12218,"Ġpk":12219,"Ġnic":12220,"Ġtwitter":12221,"ieb":12222,"anta":12223,"Ġngai":12224,"yrdem":12225,"Ġdondor":12226,"Ġnongban":12227,"ĠBel":12228,"Ġpatok":12229,"ĠJala":12230,"ĠTreas":12231,"Ġdangle":12232,"ĠRas":12233,"ĠRyngk":12234,"olekh":12235,"ĠbymÃ¯aineh":12236,"ire":12237,"Ġmawmluh":12238,"athoth":12239,"Ġelkanah":12240,"ĠÃ¯ohrung":12241,"Ġsohtrun":12242,"Ġshemai":12243,"Ġplung":12244,"tern":12245,"Ġanna":12246,"Ġpyntud":12247,"ĠAddl":12248,"Ġsyep":12249,"oga":12250,"Ġisaitmet":12251,"Ġmyntdu":12252,"Ġsuhthied":12253,"ĠSanjay":12254,"Ġdroks":12255,"Ġtraditional":12256,"Ġgene":12257,"Ġwithout":12258,"state":12259,"Ġsohphan":12260,"Ġpaliar":12261,"Ġkynjatbol":12262,"Ġiphuh":12263,"lihood":12264,"ĠJeremaiah":12265,"ĠMiss":12266,"sical":12267,"Ġrifles":12268,"ĠRilum":12269,"kraborty":12270,"BS":12271,"itation":12272,"jun":12273,"pose":12274,"sla":12275,"sein":12276,"ytechnic":12277,"Ġhakaba":12278,"Ġjingwit":12279,"aradan":12280,"ordon":12281,"atylli":12282,"Ġdaloi":12283,"Ġhyd":12284,"Ġwho":12285,"khlain":12286,"Ġcall":12287,"Ġbria":12288,"eslee":12289,"Ġjingkuman":12290,"ĠDri":12291,"ĠAf":12292,"Ġjubili":12293,"ĠRs":12294,"ĠRiat":12295,"Ġgot":12296,"Ġmawlasnai":12297,"Ġjingjaw":12298,"ĠEVM":12299,"shib":12300,"ĠWel":12301,"Ġpyniasuk":12302,"ĠkyllaiÃ±":12303,"katta":12304,"Ġbaklang":12305,"tangba":12306,"Ġbehdeinkhlam":12307,"ĠMarten":12308,"ĠUmling":12309,"Ġtehsong":12310,"150":12311,"Ġmukulu":12312,"Ġagain":12313,"dusi":12314,"Ġryngkhlem":12315,"ĠWanniang":12316,"thadlaboh":12317,"swett":12318,"Ġchandra":12319,"Ġpilgrim":12320,"Ġprevention":12321,"ĠMispah":12322,"Ġsignboard":12323,"Ġcasual":12324,"ĠJingiaseng":12325,"Ġpyniasnoh":12326,"Ġmagazine":12327,"ON":12328,"TV":12329,"az":12330,"niel":12331,"tel":12332,"wallam":12333,"Ġktang":12334,"Ġkadon":12335,"Ġsok":12336,"Ġjat":12337,"Ġjynsur":12338,"Ġniuh":12339,"Ġrl":12340,"Ġruti":12341,"Ġrona":12342,"Ġrobin":12343,"ĠÃ¯ashim":12344,"Ġnongthain":12345,"ination":12346,"ĠMath":12347,"ulsory":12348,"ĠBus":12349,"ĠPrem":12350,"ĠHok":12351,"ĠTest":12352,"ĠDoloi":12353,"maas":12354,"Ġdangshen":12355,"Ġbhat":12356,"yndeng":12357,"Ġjingpynthikna":12358,"irc":12359,"Ġlangstieh":12360,"Ġpynbyrngia":12361,"ĠNongtalang":12362,"DCL":12363,"Ġdohlieh":12364,"illing":12365,"sohra":12366,"Ġbusiness":12367,"Ġrao":12368,"ĠMahila":12369,"ĠAmos":12370,"Ġrestaurant":12371,"Ġpathaikhubor":12372,"Ġmylliemngap":12373,"ctory":12374,"ĠWatla":12375,"Ġ1978":12376,"ĠProd":12377,"ensary":12378,"ĠEmbhah":12379,"Ġtyngkan":12380,"ympic":12381,"Ġsohpdung":12382,"Ġenter":12383,"ĠXI":12384,"ĠIssakhar":12385,"Ġgomorrah":12386,"SM":12387,"kia":12388,"kynduh":12389,"yon":12390,"Ġbaasha":12391,"Ġkiha":12392,"Ġjed":12393,"iabari":12394,"Ġpeon":12395,"Ġprime":12396,"Ġpradhan":12397,"Ġdheng":12398,"Ġbon":12399,"Ġir":12400,"Ġshyr":12401,"Ġdasakhiat":12402,"ympat":12403,"Ġkuman":12404,"ading":12405,"inc":12406,"elist":12407,"Ġjingialong":12408,"ĠJebus":12409,"ĠTV":12410,"Ġjingpah":12411,"ĠAdon":12412,"illan":12413,"ĠRuth":12414,"ĠRock":12415,"Ġmarch":12416,"ĠIX":12417,"Ġgr":12418,"Ġgan":12419,"Ġmakna":12420,"ĠWell":12421,"ĠKhara":12422,"Ġdiengthang":12423,"Ġlapyn":12424,"Ġsohshkor":12425,"Ġthohbria":12426,"ĠKhmih":12427,"Ġ99":12428,"Ġhynthai":12429,"ĠSyiemship":12430,"Ġjingpyrsad":12431,"ĠChennai":12432,"Ġmukhla":12433,"ĠPollution":12434,"Ġbynthiew":12435,"ĠTeam":12436,"Ġjingpakhang":12437,"Ġairport":12438,"Ġjingkhihwin":12439,"rastructure":12440,"Ġkaweh":12441,"OA":12442,"dok":12443,"gut":12444,"liaw":12445,"laia":12446,"ynwin":12447,"Ġiarong":12448,"Ġniat":12449,"thring":12450,"amei":12451,"Ġbarato":12452,"lamphrang":12453,"ĠCatholic":12454,"ential":12455,"Ġgut":12456,"Ġjingpyntngen":12457,"ocol":12458,"Ġkongwang":12459,"ĠShisha":12460,"Ġiapyrkhat":12461,"Ġamon":12462,"Ġanimal":12463,"lyer":12464,"alatia":12465,"ĠJoel":12466,"ĠThymmai":12467,"ours":12468,"ĠKhristmas":12469,"Ġpynmang":12470,"ĠAbel":12471,"Ġlawmali":12472,"ĠLama":12473,"metor":12474,"ĠRangdajied":12475,"pcr":12476,"ĠKorinth":12477,"ĠAnglong":12478,"Ġumsohsun":12479,"Ġevm":12480,"farge":12481,"fr":12482,"ieid":12483,"pran":12484,"Ġiabeh":12485,"Ġnsc":12486,"Ġlbong":12487,"Ġru":12488,"kasa":12489,"Ġbahduh":12490,"Ġmela":12491,"nakher":12492,"khael":12493,"Ġjune":12494,"Ġphieng":12495,"Ġphiel":12496,"imat":12497,"Ġbuhteng":12498,"Ġpynsat":12499,"ĠEP":12500,"Ġear":12501,"Ġesh":12502,"ĠNongtraw":12503,"ĠNongmensong":12504,"Ġnongkwar":12505,"road":12506,"Ãıathuh":12507,"Ġround":12508,"Ġhelicopter":12509,"Ġnongpynmih":12510,"Ġsari":12511,"Ġbenai":12512,"ĠSupply":12513,"Ġkhohruh":12514,"Ġradio":12515,"Ġblue":12516,"ĠJesreel":12517,"musa":12518,"Ġsusa":12519,"Ġfrancis":12520,"ĠPolitical":12521,"ĠColony":12522,"nakherib":12523,"Lane":12524,"MLA":12525,"bn":12526,"dkhar":12527,"kynsai":12528,"kdait":12529,"tdong":12530,"ÐĨ":12531,"Ġstream":12532,"Ġuka":12533,"Ġtwo":12534,"orbid":12535,"Ġnadab":12536,"Ġkhrai":12537,"unukh":12538,"Ġnongtei":12539,"ishi":12540,"Ġkynjai":12541,"adian":12542,"Ġkampher":12543,"Ġphirat":12544,"Ġkhanduli":12545,"Ġcong":12546,"otham":12547,"ulbari":12548,"ellow":12549,"asu":12550,"Ġshnongha":12551,"Ġjingpait":12552,"Ġthapa":12553,"Ġlyngwa":12554,"ylliat":12555,"Ġmakri":12556,"Ġjingthok":12557,"Ġkhrei":12558,"Ġfull":12559,"ĠÃ¯ohkhiah":12560,"Ġriewkhlaw":12561,"mawbah":12562,"hammad":12563,"ĠNgaitlang":12564,"Ġadhaar":12565,"Ġminor":12566,"Ġsainpyrthei":12567,"kyrpang":12568,"ign":12569,"ĠKhongjirem":12570,"ĠPolling":12571,"Ġahor":12572,"ĠLadrymbai":12573,"Ġhopingstone":12574,"Ġblok":12575,"Ġtalent":12576,"ĠAsherah":12577,"tronic":12578,"Ġpmgsy":12579,"rath":12580,"Ġkick":12581,"Ġpuri":12582,"Ġdsc":12583,"Ġhashuwa":12584,"Ġiathiah":12585,"Ġiathied":12586,"Ġnir":12587,"ans":12588,"Ġhei":12589,"amy":12590,"ĠBamon":12591,"ĠUnder":12592,"Ġjingiaishah":12593,"Ġpyrton":12594,"ĠJab":12595,"ĠTynrai":12596,"Ġgoliath":12597,"Ġjingmai":12598,"Ġladei":12599,"Ġmawlieh":12600,"Ġpynsmiej":12601,"Ġ4000":12602,"ubbabel":12603,"ĠShel":12604,"rey":12605,"ĠMesh":12606,"Ġspel":12607,"uther":12608,"Ġ91":12609,"Ġtynrong":12610,"Ġmook":12611,"dition":12612,"ritorial":12613,"Ġpyntyrkhong":12614,"ĠDef":12615,"Ġkhawpud":12616,"Ġmuktapur":12617,"Ġserubbabel":12618,"ĠsekharaÃ¯ah":12619,"ĠphlangÃ¯ap":12620,"Ġ1992":12621,"Ġsadar":12622,"ĠRichard":12623,"):":12624,").âĢľ":12625,"ED":12626,"President":12627,"ubru":12628,"vil":12629,"Ġ8211":12630,"bala":12631,"Ġsit":12632,"Ġsms":12633,"Ġjapan":12634,"Ġdistribution":12635,"Ġiaphylliew":12636,"ingmane":12637,"Ġreh":12638,"Ġrome":12639,"eria":12640,"ĠSnaitang":12641,"ĠMeh":12642,"ĠMod":12643,"Ġbaro":12644,"Ġbarhem":12645,"boratory":12646,"Ġshahlang":12647,"Ġpaidbahka":12648,"ĠRed":12649,"ĠRona":12650,"Ġsample":12651,"Ġjingpynsa":12652,"Ġpynkdang":12653,"Ġej":12654,"ĠNongrang":12655,"Ġjingdro":12656,"Ġpynjhieh":12657,"Ġinstrument":12658,"hanlur":12659,"Ġchokpot":12660,"Ġadd":12661,"ĠUmmulong":12662,"elling":12663,"ĠIncharge":12664,"Ġnotice":12665,"Ġdienjat":12666,"Ġnongtung":12667,"ĠSafety":12668,"Ġindigenous":12669,"nella":12670,"Ġiawmusiang":12671,"vironmental":12672,"oyees":12673,"NER":12674,"Ġliteracy":12675,"armel":12676,"raspah":12677,"ĠMetor":12678,"Ġmohkhiew":12679,"ĠMemorial":12680,"Ġwhatsapp":12681,"Ġbailutksan":12682,"Dr":12683,"Khar":12684,"VI":12685,"fied":12686,"jhadc":12687,"uah":12688,"Ġ+":12689,"Ġjharkhand":12690,"Ġmyanmar":12691,"atai":12692,"unt":12693,"Ġlongjait":12694,"erksis":12695,"urnal":12696,"ised":12697,"ĠST":12698,"ĠKrem":12699,"Ġchoir":12700,"ĠMit":12701,"aphi":12702,"Ġbaranda":12703,"ette":12704,"ĠHA":12705,"ĠJunior":12706,"udies":12707,"Ġmac":12708,"Ġmaweit":12709,"Ġkhlemakor":12710,"Ġsurbe":12711,"Ġiakut":12712,"estos":12713,"Ġmeghalayau":12714,"Ġproc":12715,"tamin":12716,"Ġhimalaya":12717,"Ġritpaid":12718,"ĠFund":12719,"hania":12720,"Ġjammu":12721,"kserksis":12722,"Ġ04":12723,"ĠisaÃ¯ah":12724,"Ġshallum":12725,"diocese":12726,"Ġbapura":12727,"ĠJudge":12728,"ĠKseh":12729,"Ġhorticulture":12730,"ĠsuidÃ±iew":12731,"ĠBeer":12732,"Ġafter":12733,"ĠSarah":12734,"ĠBoas":12735,"ĠNEIGRIHMS":12736,"jingialang":12737,"cmillan":12738,"Ġdigital":12739,"Ġhsslc":12740,"Ġpynthohbria":12741,"ĠTraffic":12742,"Ġvehicle":12743,"Ġbaremdor":12744,"NRE":12745,"OS":12746,"bra":12747,"pre":12748,"Ġjearim":12749,"Ġpp":12750,"eiei":12751,"Ġniad":12752,"Ġmoramot":12753,"arh":12754,"kala":12755,"Ġphinehas":12756,"ullet":12757,"ĠBath":12758,"asyriem":12759,"ĠJyrngam":12760,"ĠTop":12761,"ĠNiang":12762,"Ġarshah":12763,"Ġgasa":12764,"Ġmawdiangdiang":12765,"Ġee":12766,"Ġelias":12767,"Ġdistrictha":12768,"larkam":12769,"mawlein":12770,"Ġktik":12771,"lahduh":12772,"lanot":12773,"Ġ160":12774,"ksah":12775,"hadur":12776,"ĠAlbinus":12777,"Ġbadonkam":12778,"treet":12779,"ĠKsuid":12780,"here":12781,"ĠPyndeng":12782,"jymbuin":12783,"Ġcandidates":12784,"ĠGilgal":12785,"Ġbeersheba":12786,"Ġtreat":12787,"Ġsngewkhuslai":12788,"dhist":12789,"orbidities":12790,"bwa":12791,"mishon":12792,"nik":12793,"tit":12794,"tnad":12795,"Ġ=":12796,"Ġq":12797,"Ġbakhia":12798,"Ġball":12799,"Ġhalaya":12800,"Ġtynnat":12801,"ateng":12802,"Ġshlip":12803,"khd":12804,"ĠKai":12805,"yllang":12806,"aper":12807,"yndur":12808,"iction":12809,"Ġhangamei":12810,"Ġegypt":12811,"ĠKhat":12812,"Ġproper":12813,"manent":12814,"ĠjingÃ¯apher":12815,"Ġjingrben":12816,"Ġconvention":12817,"baibal":12818,"Ġphangpdeng":12819,"iphuh":12820,"Ġnorthern":12821,"Ġmizo":12822,"ĠjingÃ¯apthngan":12823,"Ġshikatta":12824,"ĠLangstieh":12825,"ĠHamath":12826,"ĠResident":12827,"Ġgujarat":12828,"SEO":12829,"Ġcampaign":12830,"Ġwapungskur":12831,"ĠÃ±iad":12832,"Ass":12833,"PL":12834,"vio":12835,"Ġya":12836,"hata":12837,"Ġkibym":12838,"ĠpaiÃ±":12839,"Ġtieh":12840,"Ġmn":12841,"Ġiu":12842,"ancial":12843,"atiar":12844,"ury":12845,"ures":12846,"ewduh":12847,"ĠMG":12848,"Ġ230":12849,"ĠCap":12850,"Ġarnon":12851,"Ġsnemu":12852,"Ġphrung":12853,"Ġphraspah":12854,"Ġmahan":12855,"Ġmansturdy":12856,"ĠGreater":12857,"Ġeg":12858,"Ġlaitkseh":12859,"Ġjinglehbor":12860,"Ġapril":12861,"Ġspeaker":12862,"Ġ92":12863,"Ġcondu":12864,"Ġbuin":12865,"Ġperis":12866,"Ġsaitsohpen":12867,"ĠAmbulance":12868,"esearch":12869,"Ġzonal":12870,"ĠEden":12871,"Ġlineage":12872,"Ġeri":12873,"gaon":12874,"uthors":12875,"Ġbajyrngam":12876,"ĠKolej":12877,"ĠKorah":12878,"Ġaudition":12879,"ĠNongpynbaptis":12880,"Ġdairy":12881,"Ġauguster":12882,"sillai":12883,"ĠCMJ":12884,"ĠPaidbah":12885,"Ġiaisah":12886,"hynniew":12887,"rod":12888,"uage":12889,"badaÃ¯ah":12890,"hash":12891,"Ġpela":12892,"Ġdol":12893,"Ġnik":12894,"Ġbynnud":12895,"Ġmh":12896,"Ġmile":12897,"Ġdakaba":12898,"Ġhesron":12899,"yntah":12900,"ĠSNSBH":12901,"ĠSihon":12902,"ĠKut":12903,"ĠKris":12904,"Ġcitizen":12905,"ĠBuh":12906,"ĠBoy":12907,"ĠBengali":12908,"Ġhiram":12909,"rakh":12910,"ĠHapdeng":12911,"ĠTes":12912,"ĠChairperson":12913,"Ġymtang":12914,"Ġareas":12915,"ĠReb":12916,"stra":12917,"iahom":12918,"Ġakh":12919,"ĠIV":12920,"ĠIbid":12921,"Ġgreat":12922,"Ġnangjur":12923,"sharing":12924,"ĠKhad":12925,"ĠKhynnah":12926,"Ġdeb":12927,"Ġwarlarpih":12928,"Ġschools":12929,"ĠÃıuphratis":12930,"ĠjingpynkheiÃ±":12931,"ĠDCA":12932,"aching":12933,"store":12934,"Ġsyngkon":12935,"Ġdarrang":12936,"ĠEphesos":12937,"Ġmorningstar":12938,"ĠHopingstone":12939,"ĠEngineering":12940,"ĠTeibor":12941,"Ġahijah":12942,"ĠBook":12943,"lifford":12944,"ĠLyngkyrdem":12945,"ientist":12946,"isabilities":12947,"Ġconduct":12948,"San":12949,"duwai":12950,"mim":12951,"osh":12952,"vasta":12953,"Ġskill":12954,"Ġpeace":12955,"Ġtyp":12956,"Ġmig":12957,"Ġlymm":12958,"hindra":12959,"Ġnaaman":12960,"Ã¯it":12961,"kaw":12962,"Ġnongum":12963,"iss":12964,"ĠSynrem":12965,"ĠKynsai":12966,"shrieh":12967,"Ġcp":12968,"ĠMain":12969,"ĠMHIS":12970,"apyr":12971,"Ġpyrto":12972,"ĠHapoh":12973,"ĠJhalupara":12974,"ĠAwa":12975,"mash":12976,"Ġjingsliang":12977,"ĠRSS":12978,"Ġumtrew":12979,"Ġsngewlah":12980,"Ġgal":12981,"Ġbymlah":12982,"Ġpynsyrwa":12983,"edah":12984,"Ġpyniakhaid":12985,"Ġthawlad":12986,"Ġdohum":12987,"Ġsohsat":12988,"Ġsohphoh":12989,"Ġprong":12990,"Ġjinglehsbun":12991,"Ġangela":12992,"ĠJingtip":12993,"Ġnamlahduh":12994,"Ġbabel":12995,"ĠLumdiengjri":12996,"ĠBangeit":12997,"ĠBhoirymbong":12998,"Ġlaisien":12999,"ffair":13000,"visory":13001,"Ġvijay":13002,"ĠWorkers":13003,"Ġjnit":13004,"Ġpynbudnam":13005,"Ġkynshoit":13006,"ĠTeinwel":13007,"ĠHadad":13008,"Ġmeshullam":13009,"Ġulfa":13010,"ĠSumo":13011,"Ġhousing":13012,"gressive":13013,",'":13014,"800":13015,"UK":13016,"dir":13017,"mieh":13018,"pal":13019,"Ġkilling":13020,"Ġsnaitang":13021,"Ġjal":13022,"iaka":13023,"Ġpick":13024,"Ġjinglen":13025,"Ġlis":13026,"atic":13027,"kaia":13028,"shynrang":13029,"ĠMI":13030,"Ġthro":13031,"ĠDec":13032,"ĠLocal":13033,"Ġshongksuid":13034,"Ġsamthiah":13035,"Ġgam":13036,"Ġgrand":13037,"Ġpynsuh":13038,"ĠNonglang":13039,"Ġpyniadei":13040,"ĠFish":13041,"pyniaid":13042,"Ġinstitution":13043,"dpo":13044,"Ġkharmalki":13045,"Ġchyrmang":13046,"Ġconstruction":13047,"Ġpynrngad":13048,"Ġsainpyrkhat":13049,"ĠjingkhangÃ¯it":13050,"Ġ240":13051,"Ġjingiohnong":13052,"Ġtarn":13053,"Ġjingpynbiang":13054,"essment":13055,"Ġmukherjee":13056,"Ġzero":13057,"council":13058,"ĠMedro":13059,"Ġjesebel":13060,"Ġaugust":13061,"ĠAuguster":13062,"ĠFirst":13063,"Ġconvener":13064,"ĠExcise":13065,"JAC":13066,"dad":13067,"hon":13068,"kes":13069,"po":13070,"Ġplain":13071,"Ġlast":13072,"ater":13073,"Ġdoner":13074,"Ġkumah":13075,"tiv":13076,"ĠMang":13077,"ĠMond":13078,"ettri":13079,"Ġjingiaphylliew":13080,"oki":13081,"ĠTiew":13082,"ĠDustur":13083,"Ġtangmuri":13084,"ĠRaliang":13085,"Ġumsnam":13086,"Ġbymshisha":13087,"Ġbymlarkam":13088,"ĠGar":13089,"ocracy":13090,"Ġjingdom":13091,"ynting":13092,"ubri":13093,"Ġstai":13094,"Ġwahingdoh":13095,"Ġbakyr":13096,"Ġchristmas":13097,"Ġ110":13098,"Ġsynrap":13099,"ĠChokpot":13100,"linda":13101,"Ġjingiasylla":13102,"Ġatha":13103,"ĠBangalore":13104,"ricia":13105,"ĠProvin":13106,"ĠKhongjee":13107,"Ġdivisional":13108,"Ġ1995":13109,"ĠMineral":13110,"Ġprofessional":13111,"Ġcomorbidities":13112,"ĠThombor":13113,"Ġposition":13114,"Ġmorning":13115,"ĠTrade":13116,"Ġnongotdoh":13117,"ĠMerari":13118,"ĠAngel":13119,"hnlc":13120,"Ġvaccine":13121,"5000":13122,"AG":13123,"ER":13124,"Lei":13125,"Mr":13126,"evan":13127,"gade":13128,"jm":13129,"kait":13130,"spa":13131,"Ġkrang":13132,"barim":13133,"Ġbaghmara":13134,"Ġkid":13135,"Ġkij":13136,"Ġhaggai":13137,"Ġtwensi":13138,"Ġtathagata":13139,"Ġigp":13140,"Ġrr":13141,"orm":13142,"anwadi":13143,"iewburom":13144,"enry":13145,"Ġhfu":13146,"erator":13147,"utlop":13148,"ĠSib":13149,"ĠSungoh":13150,"Ġaizawl":13151,"eper":13152,"ĠBish":13153,"ĠBye":13154,"ĠHeshbon":13155,"ĠNath":13156,"ĠRM":13157,"Ġay":13158,"ĠIoannis":13159,"Ġbunktien":13160,"Ġmanna":13161,"dohlun":13162,"Ġnangbun":13163,"iculture":13164,"Ġimp":13165,"Ġdiengp":13166,"Ġparagraph":13167,"ĠMawngap":13168,"Ġiapra":13169,"sohphoh":13170,"rance":13171,"Ġpynrieh":13172,"buda":13173,"Ġseion":13174,"onstituent":13175,"Ġanjalee":13176,"ĠnongpynÃ¯":13177,"Ġkhongdong":13178,"Ġtata":13179,"Ġnortheast":13180,"ĠWahkaji":13181,"Ġpynshongdor":13182,"ĠIewmawlong":13183,"rippa":13184,"ĠShatei":13185,"Ġtbn":13186,"Ġiawphniaw":13187,"ĠSunn":13188,"Ġneigr":13189,"ĠjingÃ¯athuhkhana":13190,"Ġrickshaw":13191,"ĠNehem":13192,"Ġjingkordor":13193,"ĠKJDSTA":13194,"ĠMassar":13195,"Ġdrdonkupar":13196,"Ġhasael":13197,".âĢĺ":13198,"HSPDP":13199,"Th":13200,"both":13201,"yana":13202,"Ġkastar":13203,"Ġkajaka":13204,"Ġdk":13205,"Ġtyngkong":13206,"oris":13207,"shandi":13208,"Ġruhu":13209,"ĠSudan":13210,"liya":13211,"shei":13212,"ĠMyllung":13213,"Ġiohjam":13214,"ĠJar":13215,"ĠNok":13216,"ĠNob":13217,"ĠCelestine":13218,"Ġsengbha":13219,"Ġkitkam":13220,"Ġbymriewblei":13221,"Ġmanshwa":13222,"Ġmawlynnong":13223,"Ġpynsyier":13224,"ĠEc":13225,"ĠEk":13226,"Ġegenstar":13227,"Ġamnon":13228,"Ġbuam":13229,"ĠMarwet":13230,"Ġabout":13231,"Ġdongmusa":13232,"Ġmpda":13233,"Ġsyar":13234,"Ġsepei":13235,"Ġasarai":13236,"Ġpynthiah":13237,"boxing":13238,"Ġ1996":13239,"Ġ370":13240,"Ġindira":13241,"ĠSaitsohpen":13242,"diwah":13243,"outube":13244,"Ġjenesis":13245,"Ġjeremaiah":13246,"Ġroberts":13247,"ĠChand":13248,"ĠJesse":13249,"Ġdated":13250,"Ġkonstiwensi":13251,"BCC":13252,"fc":13253,"gam":13254,"ika":13255,"kiar":13256,"synd":13257,"tymp":13258,"vet":13259,"ngian":13260,"Ġbc":13261,"Ġbec":13262,"Ġshynshar":13263,"Ġshana":13264,"Ġwkt":13265,"Ġkumtai":13266,"utional":13267,"Ġthoin":13268,"ete":13269,"Ġkyrtiang":13270,"Ġhappy":13271,"ĠPen":13272,"ĠDer":13273,"Ġymbon":13274,"Ġjingsan":13275,"Ġlyngkyrdem":13276,"ĠLib":13277,"Ġumlyngka":13278,"Ġsngewdiaw":13279,"ĠIalong":13280,"Ġbymnang":13281,"Ġpynpulom":13282,"Ġfile":13283,"spong":13284,"Ġsohblei":13285,"Ġkutlad":13286,"2012":13287,"Ġpynshyrkhei":13288,"ensive":13289,"Ġraju":13290,"ĠVEC":13291,"eshur":13292,"Ġsaibon":13293,"Ġrajasthan":13294,"ĠLawai":13295,"Ġprotocol":13296,"Ġnongshetkylla":13297,"ĠLympung":13298,"ĠSikkim":13299,"Ġccib":13300,"Ġkastarbrij":13301,"Dc":13302,"gs":13303,"gah":13304,"sneng":13305,"ĠĠčĊ":13306,"hajan":13307,"ingstar":13308,"Ġtig":13309,"Ġbuk":13310,"Ġmikai":13311,"Ġidei":13312,"Ġruwai":13313,"ĠÃ¯awad":13314,"enai":13315,"Ġhr":13316,"khwan":13317,"khmut":13318,"Ġkynsi":13319,"tik":13320,"Ġthum":13321,"Ġjali":13322,"Ġmecel":13323,"ĠNer":13324,"ĠNinebeh":13325,"Ġlyngoh":13326,"ĠResearch":13327,"Ġmawjam":13328,"Ġpynsngaid":13329,"Ġnangpyn":13330,"Ġtreimon":13331,"ocio":13332,"Ġriewrunar":13333,"ake":13334,"ivar":13335,"jesh":13336,"ĠBakhraw":13337,"ĠPynshai":13338,"ĠThei":13339,"dentity":13340,"igp":13341,"jubab":13342,"Ġeconomic":13343,"ĠLaitkroh":13344,"Ġ1999":13345,"garh":13346,"Ġacre":13347,"ĠSawian":13348,"Ġjingpynsangeh":13349,"sangma":13350,"ĠPrivate":13351,"Ġmakhir":13352,"Ġkennedy":13353,"ĠWeighbridge":13354,"Ġmayral":13355,"committee":13356,"Ġmyngngor":13357,"Ġjingiatynjuh":13358,"ĠpaiÃ±khana":13359,"ĠMondal":13360,"2000":13361,"Lait":13362,"Ph":13363,"eu":13364,"fsa":13365,"mt":13366,"Ġsector":13367,"Ġpale":13368,"Ġmoit":13369,"Ġmastieh":13370,"ohlait":13371,"Ġpynnep":13372,"iewduh":13373,"ynrah":13374,"Ġshikh":13375,"ĠKomp":13376,"ephun":13377,"estic":13378,"Ġjingpih":13379,"ĠCensus":13380,"ĠAth":13381,"ility":13382,"ĠRak":13383,"Ġshongtynrai":13384,"Ġlangsohmoh":13385,"ĠGod":13386,"ymmiew":13387,"Ġkongthong":13388,"Ġtyngam":13389,"Ġnongshoh":13390,"Ġstait":13391,"Ġduwar":13392,"Ġassistance":13393,"Ġjinglehbha":13394,"ĠShu":13395,"Ġ93":13396,"Ġcouncils":13397,"phir":13398,"ĠKharkamni":13399,"ĠKharumnuid":13400,"ĠjingmaÃ¯an":13401,"ĠJoe":13402,"Ġmpsc":13403,"Ġasian":13404,"Ġsubmit":13405,"Ġheroin":13406,"ryting":13407,"Ġjehoash":13408,"buki":13409,"Ġvitamin":13410,"ĠDisaster":13411,"Ġrashi":13412,"ĠTeacher":13413,"Ġjinglynga":13414,"Ġwhich":13415,"Ġhectare":13416,"ĠTreasurer":13417,"ĠnongpynÃ¯aidkam":13418,"?&#":13419,"dim":13420,"rti":13421,"uhati":13422,"Ġoi":13423,"Ġkiren":13424,"Ġsara":13425,"Ġsisera":13426,"Ġjhad":13427,"neth":13428,"Ã¯aroh":13429,"shall":13430,"Ġainam":13431,"shea":13432,"Ġthessaloni":13433,"ihu":13434,"dalai":13435,"ĠJoram":13436,"ĠToll":13437,"may":13438,"Ġjingsiang":13439,"olo":13440,"Ġtipsngi":13441,"Ġmawlang":13442,"Ġpynsmai":13443,"Ġnongiakhun":13444,"Ġft":13445,"Ġriewpaw":13446,"mujai":13447,"Ġpynkhlad":13448,"Ġpromotion":13449,"obby":13450,"ĠMeC":13451,"Ġinshi":13452,"Ġdey":13453,"Ġ126":13454,"ĠOwners":13455,"Ġjainkup":13456,"ĠHimalaya":13457,"......":13458,"133":13459,"Ġekron":13460,"ĠMansturdy":13461,"Ġlyngkrang":13462,"ĠÃ±iewburom":13463,"Ġlyndan":13464,"mynshuwa":13465,"Khyndiat":13466,"miki":13467,"ĠRamah":13468,"Ġthapba":13469,"ĠAsaph":13470,"Ġ1989":13471,"Ġguahati":13472,"Ġcachar":13473,"Ġmesopotamia":13474,"Ġsuperitendent":13475,"ĠSoil":13476,"ĠGalilaia":13477,"ĠPaliar":13478,"ĠCCTV":13479,"Ġdefence":13480,"Ġdealers":13481,"Ġsohkhlet":13482,"vastava":13483,"UF":13484,"dil":13485,"eed":13486,"gc":13487,"path":13488,"ruid":13489,"ngem":13490,"Ġbajah":13491,"hakhlieh":13492,"Ġpin":13493,"Ġhajong":13494,"Ġjingla":13495,"Ġbania":13496,"Ġbanep":13497,"high":13498,"Ġkhiat":13499,"Ġwoodland":13500,"uran":13501,"isynei":13502,"ĠSat":13503,"ĠSri":13504,"ĠKu":13505,"ĠKil":13506,"tina":13507,"lind":13508,"ĠMel":13509,"ĠMir":13510,"Ġthret":13511,"ĠBil":13512,"ĠHostel":13513,"ĠAhasaÃ¯ah":13514,"Ġpaidbahha":13515,"ynno":13516,"Ġmartle":13517,"Ġjingpynneh":13518,"Ġkhuboru":13519,"ĠGSU":13520,"Ġfarmer":13521,"tham":13522,"ĠWa":13523,"abbas":13524,"Ġdohksah":13525,"Ġlapmiet":13526,"Ġjingtyrkhong":13527,"Ġjinglehkhuid":13528,"ĠShiwat":13529,"ĠjingÃ¯akren":13530,"Ġinvestigation":13531,"Ġ98":13532,"lobal":13533,"ĠUmkiang":13534,"Ġlakhish":13535,"ccession":13536,"Ġnamdong":13537,"ĠAdhoc":13538,"ograph":13539,"ĠCons":13540,"inald":13541,"ĠAgatha":13542,"Ġnight":13543,"Ġ1970":13544,"ounts":13545,"Ġsaiwul":13546,"iasiat":13547,"Ġkiengatiar":13548,"Ġcanada":13549,"Ġlook":13550,"cialis":13551,"Ġjhep":13552,"Ġjingpynjlan":13553,"ĠAbijah":13554,"ĠNasareth":13555,"Ġbarobor":13556,"ephunneh":13557,"',":13558,"GC":13559,"Khat":13560,"Mer":13561,"iohi":13562,"Ġsardar":13563,"Ġjok":13564,"Ġpj":13565,"Ġdyc":13566,"Ġdkhoh":13567,"Ġbthat":13568,"Ġmama":13569,"Ġshngiam":13570,"ĠÃ¯alehkai":13571,"Ġdadeng":13572,"ahme":13573,"ĠSumar":13574,"ĠKynt":13575,"ĠPet":13576,"ĠNeng":13577,"wach":13578,"Ġjingsei":13579,"ĠLG":13580,"Ġage":13581,"Ġmarriage":13582,"Ġborti":13583,"Ġmalai":13584,"ĠGate":13585,"Ġfather":13586,"Ġiakatei":13587,"ĠNongmihkhmat":13588,"Ġpran":13589,"Ġjingkhynwin":13590,"Ġ1982":13591,"ĠÃ¯ingbyndi":13592,"Ġins":13593,"Ġwadbniah":13594,"ramew":13595,"Ġkharwanlang":13596,"ynsngi":13597,"hanm":13598,"105":13599,"iphom":13600,"Ġnongsakhi":13601,"Ġrespon":13602,"Ġjingiasaid":13603,"ĠRevenue":13604,"Ġnongtdu":13605,"ĠAgreement":13606,"Ġ1986":13607,"Ġkyndeh":13608,"ĠPyrtuh":13609,"Ġtbeh":13610,"Ġheadquarter":13611,"Ġkitboklang":13612,"cherry":13613,"Ġafghanistan":13614,"Ġindustrial":13615,"ĠSyngkon":13616,"ĠSusan":13617,"Ġminerals":13618,"ĠChancellor":13619,"sheet":13620,"ĠBehdeinkhlam":13621,"ĠWapungskur":13622,"!!":13623,")âĢĿ":13624,"Wah":13625,"bitar":13626,"kyntiew":13627,"offic":13628,"siar":13629,"hanel":13630,"Ġji":13631,"Ġpel":13632,"Ġpow":13633,"Ġjingshon":13634,"ohrung":13635,"Ġikwah":13636,"atty":13637,"thers":13638,"Ġcid":13639,"Ġchange":13640,"ĠUss":13641,"Ġlehkhuid":13642,"Ġuniphom":13643,"ĠTong":13644,"ĠDhan":13645,"ĠAuto":13646,"Ġaram":13647,"Ġjingsylla":13648,"ynnai":13649,"Ġphum":13650,"kumar":13651,"usu":13652,"Ġpahai":13653,"shin":13654,"ommura":13655,"ĠKhana":13656,"Ġtynghung":13657,"Ġprat":13658,"Ġwahkhen":13659,"Ġmenshohnoh":13660,"vertis":13661,".....":13662,"ĠLeah":13663,"Ġonly":13664,"Ġnongwankai":13665,"Ġtheir":13666,"ĠBenhadad":13667,"Ġ1983":13668,"Ġgedalai":13669,"eteran":13670,"Ġ1954":13671,"syiar":13672,"asamy":13673,"atiya":13674,"Ġjyndei":13675,"ĠNepal":13676,"Ġnongshahkhot":13677,"ĠSaibon":13678,"Ġtestament":13679,"ĠRiangdo":13680,"Ġjliah":13681,"ĠKyndiah":13682,"ahmeel":13683,"BWA":13684,"Lym":13685,"LFA":13686,"garo":13687,"via":13688,"Ġbaia":13689,"Ġjadu":13690,"Ġiatainia":13691,"Ġpynkhap":13692,"Ġpynbakla":13693,"Ġngoh":13694,"Ġkhon":13695,"Ġwil":13696,"ĠKem":13697,"uliang":13698,"ĠBom":13699,"ĠBiam":13700,"ĠBani":13701,"ĠUni":13702,"Ġwankhar":13703,"Ġ220":13704,"marwei":13705,"dalin":13706,"Ġjingklim":13707,"Ġmyntaka":13708,"ĠPad":13709,"ĠPIL":13710,"Ġriu":13711,"donbor":13712,"now":13713,"Ġguid":13714,"pact":13715,"miel":13716,"Ġiingdorbar":13717,"Ġsawian":13718,"Ġver":13719,"abit":13720,"Ġtamabil":13721,"Ġpynjngut":13722,"Ġinning":13723,"jac":13724,"ĠLyngkhat":13725,"Ġjingbymtip":13726,"ĠMarbud":13727,"ĠBalat":13728,"ĠBahakhlieh":13729,"Ġbasuk":13730,"Ġ175":13731,"Ġmohan":13732,"Ġyadav":13733,"Ġkompiw":13734,"Ġresort":13735,"ĠElectoral":13736,"igur":13737,"Ġherita":13738,"Ġsaleng":13739,"ĠWarlarpih":13740,"erification":13741,"bangla":13742,"Ġmepa":13743,"killa":13744,"Ġsdieh":13745,"Ġdmho":13746,"ĠGershon":13747,"Ġconsul":13748,"Ġsohpetbneng":13749,"ĠYojana":13750,"Ġheritage":13751,"ND":13752,"akha":13753,"hong":13754,"lew":13755,"oSE":13756,"stang":13757,"Ġupa":13758,"Ġliving":13759,"Ġif":13760,"Ġrait":13761,"Ġhymmen":13762,"ĠSw":13763,"inadab":13764,"ĠMobile":13765,"alia":13766,"leiÃ±":13767,"Ġjingiasngew":13768,"opha":13769,"ĠPvt":13770,"ĠPrimrose":13771,"ĠJas":13772,"Ġjingpaw":13773,"Ġara":13774,"Ġphot":13775,"Ġshongkun":13776,"ĠIsh":13777,"iary":13778,"Ġmanshuwa":13779,"ĠWallam":13780,"Ġvis":13781,"Ġlyngdohu":13782,"mawsaw":13783,"Ġoperation":13784,"Ġ6000":13785,"Ġjingkhluit":13786,"ĠFarm":13787,"Ġkharjana":13788,"Ġ128":13789,"inewood":13790,"Ġsainkupar":13791,"Ġshisur":13792,"Ġlyngkien":13793,"ĠBench":13794,"ĠRegistration":13795,"Ġrecog":13796,"Ġmephibosheth":13797,"olunteers":13798,"Ġsusan":13799,"ĠRyngkhlem":13800,"Ġcherra":13801,"khijah":13802,"ĠAhmed":13803,"Ġjingpynsaja":13804,"ĠAwaken":13805,"Ġneigrhim":13806,"?,":13807,"Blei":13808,"CF":13809,"Mem":13810,"Rupang":13811,"Syiem":13812,"but":13813,"cules":13814,"fy":13815,"lie":13816,"sangeh":13817,"vii":13818,"Ġkaitor":13819,"Ġbapyn":13820,"Ġnr":13821,"Ġjingwoh":13822,"Ġmendipathar":13823,"Ġliem":13824,"Ġshlan":13825,"unah":13826,"Ġnongpluh":13827,"Ġwr":13828,"ewis":13829,"ĠStone":13830,"ĠShisien":13831,"idy":13832,"shiar":13833,"Ġkanun":13834,"ality":13835,"nongpoh":13836,"Ġjingiar":13837,"ĠHeb":13838,"Ġmeth":13839,"Ġphaidien":13840,"ĠTlai":13841,"ĠThai":13842,"ĠTrei":13843,"ĠNarayan":13844,"ĠCP":13845,"ĠAle":13846,"Ġmartha":13847,"osstar":13848,"Ġparing":13849,"Ġkhuda":13850,"Ġmawnai":13851,"edne":13852,"ĠGener":13853,"Ġekh":13854,"Ġeac":13855,"ĠWJH":13856,"Ġthohkhubor":13857,"Ġkynroi":13858,"Ġbehmrad":13859,"Ġrabha":13860,"buy":13861,"ĠUmran":13862,"Ġthey":13863,"Ġbasngur":13864,"ĠThma":13865,"onduct":13866,"ĠInsurance":13867,"Ġserksis":13868,"ricultural":13869,"Ġphlangi":13870,"ĠRaja":13871,"Ġkrishna":13872,"ollos":13873,"Ġmedal":13874,"singh":13875,"Ġtheisamla":13876,"ĠPrasad":13877,"Ġsinha":13878,"syier":13879,"Ġpeisa":13880,"noloji":13881,"ĠjingÃ¯asylla":13882,"Ġ1962":13883,"Ġashdod":13884,"Ġumsawli":13885,"ĠAndrew":13886,"hnyf":13887,"Ġbajanai":13888,"Ġferdynald":13889,"Ġadvocate":13890,"ligion":13891,"ĠCantonment":13892,"Ġkaisaria":13893,"Ġhadadeser":13894,"ĠMeCEL":13895,"DU":13896,"TS":13897,"blah":13898,"karo":13899,"sieng":13900,"Ġkarim":13901,"Ġkir":13902,"Ġkilong":13903,"Ġds":13904,"Ġdel":13905,"Ġdutta":13906,"ohnong":13907,"Ġits":13908,"Ġry":13909,"Ġname":13910,"Ġnagar":13911,"yrshah":13912,"ĠSte":13913,"Ġcelestine":13914,"ĠMrs":13915,"Ġbariewspah":13916,"Ġsorkarka":13917,"ĠNik":13918,"ĠCRPF":13919,"Ġngutha":13920,"ĠRome":13921,"ĠRanee":13922,"Ġumwang":13923,"Ġshimbynta":13924,"ĠiingjaiÃ±":13925,"Ġkotbor":13926,"Ġdiengsynshar":13927,"Ġjinglonghok":13928,"Ġamgut":13929,"tall":13930,"buaid":13931,"Ġleader":13932,"ĠSohkh":13933,"Ġlaws":13934,"Ġlawbah":13935,"ecturer":13936,"sahlang":13937,"Ġ06":13938,"Ġ1991":13939,"Ġshityllup":13940,"ough":13941,"ĠOrder":13942,"Ġbishnupur":13943,"Ġshaphan":13944,"Ġway":13945,"Ġmishoneri":13946,"yoti":13947,"Ġvotes":13948,"kelon":13949,"ĠEditor":13950,"Ġdispensary":13951,"ĠPatharkhmah":13952,"ĠAwakening":13953,"ME":13954,"Soso":13955,"Wei":13956,"del":13957,"Ġbate":13958,"Ġself":13959,"Ġjio":13960,"Ġjinglynn":13961,"Ġibha":13962,"anias":13963,"Ġshep":13964,"ĠÃ¯anujor":13965,"kajuh":13966,"Ġwhol":13967,"utra":13968,"Ġkynih":13969,"rid":13970,"Ġcop":13971,"ĠMLP":13972,"Ġthiem":13973,"iemadan":13974,"operation":13975,"Ġlehbor":13976,"ĠHasa":13977,"Ġmesha":13978,"ĠTalang":13979,"Ġarm":13980,"ĠRenikton":13981,"Ġumj":13982,"ĠIoanis":13983,"Ġjingpynskhem":13984,"Ġjingpynpra":13985,"ĠGrand":13986,"Ġfai":13987,"Ġcooperative":13988,"Ġcoordinator":13989,"Ġpeitmat":13990,"ĠNongtung":13991,"mawprem":13992,"Ġsten":13993,"ĠFilm":13994,"olic":13995,"Ġpynshlei":13996,"Ġ180":13997,"ĠMajistor":13998,"ĠMaakah":13999,"Ġnongsah":14000,"Ġrange":14001,"Ġofficial":14002,"ĠBantei":14003,"ĠWahingdoh":14004,"kanchi":14005,"Khnang":14006,"Ġkhapbri":14007,"Ġhannah":14008,"parsing":14009,"Ġ1984":14010,"ologist":14011,"iakynduh":14012,"Ġkynshlein":14013,"ĠFrontier":14014,"ĠPius":14015,"pdah":14016,"Ġlambokstarwell":14017,"Ġyoung":14018,"ĠQuarter":14019,"ĠKadesh":14020,"elebration":14021,"Ġnscn":14022,"HYC":14023,"NL":14024,"ijah":14025,"viii":14026,"basan":14027,"hak":14028,"Ġkijong":14029,"Ġsier":14030,"Ġpda":14031,"Ġlas":14032,"hino":14033,"uhkjat":14034,"Ġrei":14035,"Ġnation":14036,"nea":14037,"kabu":14038,"shed":14039,"apoi":14040,"ophah":14041,"Ġjingsain":14042,"ĠLasar":14043,"Ġkrensih":14044,"ĠEgenstar":14045,"shisngi":14046,"Ġsawmer":14047,"Ġbamduh":14048,"Ġdistrictu":14049,"Ġdiengkhap":14050,"ĠMawmluh":14051,"aroth":14052,"nerva":14053,"Ġintegrated":14054,"Ġjingrit":14055,"Ġminimum":14056,"ĠKharwanlang":14057,"Ġperes":14058,"lywood":14059,"Ġunits":14060,"Ġiasah":14061,"ĠpohÃ¯ing":14062,"Ġhermon":14063,"Ġscoot":14064,"ĠWaheh":14065,"Ġmedic":14066,"ĠKhonglam":14067,"Ġnios":14068,"Ġmembers":14069,"ĠBarak":14070,"independent":14071,"Ġ1987":14072,"Ġronie":14073,"Ġbuskit":14074,"artala":14075,"Ġjnat":14076,"ĠShanmuganathan":14077,"ĠShahlang":14078,"Ġnongdiemadan":14079,"pyndeng":14080,"Ġorganizing":14081,"Ġeliab":14082,"ĠSirdarship":14083,"Ġejhd":14084,"ĠFrancis":14085,"Kynsan":14086,"ĠLokayukta":14087,"larius":14088,"ĠJanata":14089,"ĠEPIC":14090,"Ġkijba":14091,"Kano":14092,"bot":14093,"dis":14094,"gon":14095,"ues":14096,"Ġkk":14097,"iano":14098,"ais":14099,"Ġlon":14100,"Ġirat":14101,"Ġnawei":14102,"Ġpynngop":14103,"Ġshek":14104,"thniel":14105,"ĠShap":14106,"Ġbrah":14107,"ophis":14108,"Ġjingpom":14109,"ĠRum":14110,"Ġumsyiem":14111,"Ġaay":14112,"ĠahasaÃ¯ah":14113,"Ġkhub":14114,"Ġmahatma":14115,"Ġjingpynngat":14116,"Ġiaksaid":14117,"Ġbnaika":14118,"Ġkhynniat":14119,"Ġcommercial":14120,"hammed":14121,"Ġchowkidar":14122,"Ġempowerment":14123,"Ġconf":14124,"ĠMarket":14125,"Ġnabal":14126,"nehu":14127,"iwell":14128,"Ġbaseisoh":14129,"derabad":14130,"ĠLegal":14131,"Ġdumok":14132,"Ġsale":14133,"Ġgover":14134,"Ġexit":14135,"Ġjingshongkha":14136,"Ġranab":14137,"Ġesekiel":14138,"ĠEMRI":14139,"Ġfactory":14140,"Ġiawbei":14141,"ĠVijay":14142,"Ġdmr":14143,"GSY":14144,"Ġcommandant":14145,"Ġcheque":14146,"phonse":14147,"ĠTestament":14148,"Mrk":14149,"ĠLasaros":14150,"Ah":14151,"HRI":14152,"WAT":14153,"ahap":14154,"dsa":14155,"gin":14156,"lway":14157,"wing":14158,"Ġjyntang":14159,"Ġjyntah":14160,"onga":14161,"Ġhah":14162,"Ġharan":14163,"Ġnursing":14164,"Ġlynt":14165,"aryngkat":14166,"nelios":14167,"ylon":14168,"Ġhow":14169,"sham":14170,"rioh":14171,"Ġclement":14172,"ĠBhat":14173,"esa":14174,"eshi":14175,"Ġbarunar":14176,"Ġjingiamir":14177,"ĠJha":14178,"ĠCare":14179,"ĠChallan":14180,"ĠLath":14181,"ĠLask":14182,"Ġahimelekh":14183,"Ġkhampher":14184,"kumban":14185,"Ġmawtawar":14186,"Ġjingjai":14187,"ghadc":14188,"Ġhangthie":14189,"Ġdistrictka":14190,"Ġjinglongkhuid":14191,"uthun":14192,"oina":14193,"Ġconstable":14194,"Ġallowan":14195,"Ġjingkhangdam":14196,"Ġharyana":14197,"Ġtheology":14198,"Ġann":14199,"Ġsynranlang":14200,"Ġiakine":14201,"ĠAmasa":14202,"ĠAmasaÃ¯ah":14203,"Ġkhieshoh":14204,"Ġnongpyndonkam":14205,"Ġjair":14206,"doba":14207,"ĠDeficit":14208,"Ġaccession":14209,"iriath":14210,"Ġindependent":14211,"Ġ1958":14212,"ĠSerah":14213,"ĠBattalion":14214,"ĠKennedy":14215,"mohan":14216,"ĠRifles":14217,"Ġlymmuh":14218,"Bym":14219,"Khad":14220,"een":14221,"ĠÂ":14222,"Ġ00":14223,"Ġked":14224,"hav":14225,"Ġseb":14226,"Ġnit":14227,"Ġtba":14228,"Ġblad":14229,"Ġbcc":14230,"aran":14231,"Ġips":14232,"Ġpynshait":14233,"Ġnongshang":14234,"ynroi":14235,"ĠKup":14236,"ĠKir":14237,"Ġkamkai":14238,"shom":14239,"Ġbreaker":14240,"Ġsngihaba":14241,"iences":14242,"maram":14243,"Ġjyllana":14244,"ĠJotham":14245,"udu":14246,"ĠDim":14247,"ĠCle":14248,"edrick":14249,"Ġpynpep":14250,"ĠGrik":14251,"Kiei":14252,"Ġkhrew":14253,"ocso":14254,"ĠShong":14255,"pynbna":14256,"2011":14257,"Ġkharmetor":14258,"Ġsangmau":14259,"jingeh":14260,"Ġabdul":14261,"Ġmookh":14262,"Ġkhongreng":14263,"ĠDeal":14264,"Ġtaiar":14265,"Ġryni":14266,"entine":14267,"minadab":14268,"ĠMylliemngap":14269,"mynshwa":14270,"ĠPresbytery":14271,"Ġprice":14272,"Ġpynphyrnai":14273,"Ġprakash":14274,"Ġrevolution":14275,"Ġsadon":14276,"ĠRegister":14277,
[...]
